{
  "version": "1.0",
  "truncation": null,
  "padding": null,
  "added_tokens": [
    {
      "id": 0,
      "content": "<|endoftext|>",
      "single_word": false,
      "lstrip": false,
      "rstrip": false,
      "normalized": false,
      "special": true
    }
  ],
  "normalizer": null,
  "pre_tokenizer": {
    "type": "ByteLevel",
    "add_prefix_space": false,
    "trim_offsets": true,
    "use_regex": true
  },
  "post_processor": null,
  "decoder": {
    "type": "ByteLevel",
    "add_prefix_space": true,
    "trim_offsets": true,
    "use_regex": true
  },
  "model": {
    "type": "BPE",
    "dropout": null,
    "unk_token": null,
    "continuing_subword_prefix": null,
    "end_of_word_suffix": null,
    "fuse_unk": false,
    "byte_fallback": false,
    "ignore_merges": false,
    "vocab": {
      "<|endoftext|>": 0,
      "!": 1,
      "\"": 2,
      "#": 3,
      "$": 4,
      "%": 5,
      "&": 6,
      "'": 7,
      "(": 8,
      ")": 9,
      "*": 10,
      "+": 11,
      ",": 12,
      "-": 13,
      ".": 14,
      "/": 15,
      "0": 16,
      "1": 17,
      "2": 18,
      "3": 19,
      "4": 20,
      "5": 21,
      "6": 22,
      "7": 23,
      "8": 24,
      "9": 25,
      ":": 26,
      ";": 27,
      "<": 28,
      "=": 29,
      ">": 30,
      "?": 31,
      "@": 32,
      "A": 33,
      "B": 34,
      "C": 35,
      "D": 36,
      "E": 37,
      "F": 38,
      "G": 39,
      "H": 40,
      "I": 41,
      "J": 42,
      "K": 43,
      "L": 44,
      "M": 45,
      "N": 46,
      "O": 47,
      "P": 48,
      "Q": 49,
      "R": 50,
      "S": 51,
      "T": 52,
      "U": 53,
      "V": 54,
      "W": 55,
      "X": 56,
      "Y": 57,
      "Z": 58,
      "[": 59,
      "\\": 60,
      "]": 61,
      "^": 62,
      "_": 63,
      "`": 64,
      "a": 65,
      "b": 66,
      "c": 67,
      "d": 68,
      "e": 69,
      "f": 70,
      "g": 71,
      "h": 72,
      "i": 73,
      "j": 74,
      "k": 75,
      "l": 76,
      "m": 77,
      "n": 78,
      "o": 79,
      "p": 80,
      "q": 81,
      "r": 82,
      "s": 83,
      "t": 84,
      "u": 85,
      "v": 86,
      "w": 87,
      "x": 88,
      "y": 89,
      "z": 90,
      "{": 91,
      "|": 92,
      "}": 93,
      "~": 94,
      "¡": 95,
      "¢": 96,
      "£": 97,
      "¤": 98,
      "¥": 99,
      "¦": 100,
      "§": 101,
      "¨": 102,
      "©": 103,
      "ª": 104,
      "«": 105,
      "¬": 106,
      "®": 107,
      "¯": 108,
      "°": 109,
      "±": 110,
      "²": 111,
      "³": 112,
      "´": 113,
      "µ": 114,
      "¶": 115,
      "·": 116,
      "¸": 117,
      "¹": 118,
      "º": 119,
      "»": 120,
      "¼": 121,
      "½": 122,
      "¾": 123,
      "¿": 124,
      "À": 125,
      "Á": 126,
      "Â": 127,
      "Ã": 128,
      "Ä": 129,
      "Å": 130,
      "Æ": 131,
      "Ç": 132,
      "È": 133,
      "É": 134,
      "Ê": 135,
      "Ë": 136,
      "Ì": 137,
      "Í": 138,
      "Î": 139,
      "Ï": 140,
      "Ð": 141,
      "Ñ": 142,
      "Ò": 143,
      "Ó": 144,
      "Ô": 145,
      "Õ": 146,
      "Ö": 147,
      "×": 148,
      "Ø": 149,
      "Ù": 150,
      "Ú": 151,
      "Û": 152,
      "Ü": 153,
      "Ý": 154,
      "Þ": 155,
      "ß": 156,
      "à": 157,
      "á": 158,
      "â": 159,
      "ã": 160,
      "ä": 161,
      "å": 162,
      "æ": 163,
      "ç": 164,
      "è": 165,
      "é": 166,
      "ê": 167,
      "ë": 168,
      "ì": 169,
      "í": 170,
      "î": 171,
      "ï": 172,
      "ð": 173,
      "ñ": 174,
      "ò": 175,
      "ó": 176,
      "ô": 177,
      "õ": 178,
      "ö": 179,
      "÷": 180,
      "ø": 181,
      "ù": 182,
      "ú": 183,
      "û": 184,
      "ü": 185,
      "ý": 186,
      "þ": 187,
      "ÿ": 188,
      "Ā": 189,
      "ā": 190,
      "Ă": 191,
      "ă": 192,
      "Ą": 193,
      "ą": 194,
      "Ć": 195,
      "ć": 196,
      "Ĉ": 197,
      "ĉ": 198,
      "Ċ": 199,
      "ċ": 200,
      "Č": 201,
      "č": 202,
      "Ď": 203,
      "ď": 204,
      "Đ": 205,
      "đ": 206,
      "Ē": 207,
      "ē": 208,
      "Ĕ": 209,
      "ĕ": 210,
      "Ė": 211,
      "ė": 212,
      "Ę": 213,
      "ę": 214,
      "Ě": 215,
      "ě": 216,
      "Ĝ": 217,
      "ĝ": 218,
      "Ğ": 219,
      "ğ": 220,
      "Ġ": 221,
      "ġ": 222,
      "Ģ": 223,
      "ģ": 224,
      "Ĥ": 225,
      "ĥ": 226,
      "Ħ": 227,
      "ħ": 228,
      "Ĩ": 229,
      "ĩ": 230,
      "Ī": 231,
      "ī": 232,
      "Ĭ": 233,
      "ĭ": 234,
      "Į": 235,
      "į": 236,
      "İ": 237,
      "ı": 238,
      "Ĳ": 239,
      "ĳ": 240,
      "Ĵ": 241,
      "ĵ": 242,
      "Ķ": 243,
      "ķ": 244,
      "ĸ": 245,
      "Ĺ": 246,
      "ĺ": 247,
      "Ļ": 248,
      "ļ": 249,
      "Ľ": 250,
      "ľ": 251,
      "Ŀ": 252,
      "ŀ": 253,
      "Ł": 254,
      "ł": 255,
      "Ń": 256,
      "te": 257,
      "ou": 258,
      "Ġs": 259,
      "nd": 260,
      "Ġa": 261,
      "Ġt": 262,
      "in": 263,
      "er": 264,
      "of": 265,
      "Ġf": 266,
      "ta": 267,
      "is": 268,
      "Ġb": 269,
      "re": 270,
      "our": 271,
      "he": 272,
      "ofte": 273,
      "end": 274,
      "xt": 275,
      "<|": 276,
      "|>": 277,
      "oftext": 278,
      "endoftext": 279,
      "Ġd": 280,
      "Ġw": 281,
      "gh": 282,
      "nt": 283,
      "or": 284,
      "Ġto": 285,
      "ing": 286,
      "on": 287,
      "ough": 288,
      "Ġc": 289,
      "le": 290,
      "ti": 291,
      "Ġand": 292,
      "ter": 293,
      "Ġthe": 294,
      "Ġp": 295,
      "ss": 296,
      "Ġm": 297,
      "en": 298,
      "Ġh": 299,
      "Us": 300,
      "it": 301,
      "ed": 302,
      "tant": 303,
      "ar": 304,
      "istant": 305,
      "ssistant": 306,
      ".<|": 307,
      "Assistant": 308,
      "User": 309,
      "ro": 310,
      "Ġin": 311,
      "at": 312,
      "es": 313,
      "dough": 314,
      "ourdough": 315,
      "ly": 316,
      "ra": 317,
      "tion": 318,
      "Ġfl": 319,
      "Ġsourdough": 320,
      "Ġsta": 321,
      "Ġba": 322,
      "ĠH": 323,
      "Ġl": 324,
      "ld": 325,
      "Ġ1": 326,
      "ĠI": 327,
      "Ġstar": 328,
      "id": 329,
      "ic": 330,
      "Ġflour": 331,
      "Ġfor": 332,
      "Ġis": 333,
      "Ġdough": 334,
      "ll": 335,
      "Ġ2": 336,
      "as": 337,
      "Ġy": 338,
      "Ġu": 339,
      "Ġg": 340,
      "Â°": 341,
      "ow": 342,
      "an": 343,
      "Ġstarter": 344,
      "Ġor": 345,
      "Ġe": 346,
      "ch": 347,
      "ith": 348,
      "Ġre": 349,
      "ĠW": 350,
      "al": 351,
      "ent": 352,
      "ater": 353,
      "Ġwith": 354,
      "ov": 355,
      "Ġbak": 356,
      "Ġwater": 357,
      "Ġr": 358,
      "Ġof": 359,
      "Ġit": 360,
      "ble": 361,
      "se": 362,
      "Ġsh": 363,
      "ur": 364,
      "erm": 365,
      "ĠWh": 366,
      "ad": 367,
      "Ġte": 368,
      "enta": 369,
      "old": 370,
      "ap": 371,
      "ve": 372,
      "ru": 373,
      "Ġov": 374,
      "oo": 375,
      "st": 376,
      "Ġpro": 377,
      "Ġ(": 378,
      "to": 379,
      "ac": 380,
      "Ġdo": 381,
      "ĠA": 382,
      "Ġbu": 383,
      "ute": 384,
      "Ġwh": 385,
      "Ġon": 386,
      "mp": 387,
      "igh": 388,
      "qu": 389,
      "eed": 390,
      "et": 391,
      "ĠHe": 392,
      "ĠF": 393,
      "ĠT": 394,
      "ate": 395,
      "entation": 396,
      "Ġyour": 397,
      "Ġcru": 398,
      "Ġst": 399,
      "Ġferm": 400,
      "ck": 401,
      "ard": 402,
      "00": 403,
      "ĠHow": 404,
      "ĠD": 405,
      "Ġac": 406,
      "Ġi": 407,
      "ee": 408,
      "dra": 409,
      "ydra": 410,
      "Ġ3": 411,
      "nder": 412,
      "Ġhydra": 413,
      "ure": 414,
      "Ġ20": 415,
      "out": 416,
      "ak": 417,
      "am": 418,
      "tch": 419,
      "af": 420,
      "il": 421,
      "Ġat": 422,
      "Ġoven": 423,
      "ight": 424,
      "Ġfermentation": 425,
      "Ġco": 426,
      "Ġsp": 427,
      "read": 428,
      "Ġsti": 429,
      "Ġra": 430,
      "Ġbe": 431,
      "ĠC": 432,
      "Ġlo": 433,
      "Ġro": 434,
      "ot": 435,
      "ĠWhat": 436,
      "bles": 437,
      "Ġhydration": 438,
      "ge": 439,
      "me": 440,
      "Ġha": 441,
      "Ġ5": 442,
      "ole": 443,
      "Ġhour": 444,
      "ast": 445,
      "Ġwhe": 446,
      "Ġk": 447,
      "Ġle": 448,
      "ns": 449,
      "ore": 450,
      "Ġn": 451,
      "lp": 452,
      "ĠS": 453,
      "Ġ7": 454,
      "Ġmy": 455,
      "ri": 456,
      "Ġgl": 457,
      "Ġbread": 458,
      "ting": 459,
      "Ġloaf": 460,
      "uten": 461,
      "Ġgluten": 462,
      "Ġyou": 463,
      "ĠCan": 464,
      "Ġshap": 465,
      "Ġste": 466,
      "Ġan": 467,
      "erat": 468,
      "ul": 469,
      "Ġcrust": 470,
      "Ġme": 471,
      "Ġ100": 472,
      "ould": 473,
      "Ġris": 474,
      "Ġunder": 475,
      "eep": 476,
      "Ġpar": 477,
      "Ġdur": 478,
      "Ġduring": 479,
      "Ġhours": 480,
      "),": 481,
      "Ġfold": 482,
      "ild": 483,
      "Ġth": 484,
      "ide": 485,
      "Ġuse": 486,
      "av": 487,
      "Ġinto": 488,
      "Ġhe": 489,
      "Ġsl": 490,
      "alt": 491,
      "Ġen": 492,
      "Ġby": 493,
      "Ġ4": 494,
      "Ġspr": 495,
      "Ġde": 496,
      "ong": 497,
      "Ġtemp": 498,
      "Ġwhole": 499,
      "Ġwe": 500,
      "ĠWhy": 501,
      "oubles": 502,
      "ff": 503,
      "Ġ6": 504,
      "ire": 505,
      "Ġrise": 506,
      "Ġbake": 507,
      "ol": 508,
      "Ġbaking": 509,
      "Ġins": 510,
      "Ġwhen": 511,
      "Ġab": 512,
      "Ġshould": 513,
      "ce": 514,
      "Ġstre": 515,
      "east": 516,
      "Ġyeast": 517,
      "Ġsteam": 518,
      "mple": 519,
      "red": 520,
      "Ġwithout": 521,
      "Ġdis": 522,
      "lk": 523,
      "Ġbulk": 524,
      "ĠP": 525,
      "Ġcu": 526,
      "Ġqu": 527,
      "Ġbaker": 528,
      "ick": 529,
      "Ġspring": 530,
      "ĠB": 531,
      "Ġover": 532,
      "Ġ50": 533,
      "inute": 534,
      "Ġminute": 535,
      "Ġex": 536,
      "Ġminutes": 537,
      "ĠFor": 538,
      "Ġweight": 539,
      "Ġli": 540,
      "Ġpart": 541,
      "Ġhave": 542,
      "erature": 543,
      "Ġtemperature": 544,
      "Ġbl": 545,
      "ĠIf": 546,
      "op": 547,
      "tic": 548,
      "ct": 549,
      "ma": 550,
      "Ġmo": 551,
      "med": 552,
      "ver": 553,
      "mb": 554,
      "estion": 555,
      "Ġquestion": 556,
      "ace": 557,
      "fore": 558,
      "Ġbefore": 559,
      "Ġkeep": 560,
      "Ġsalt": 561,
      "Ġfeed": 562,
      "arm": 563,
      "Ġbuild": 564,
      "Ġhas": 565,
      "Ġ30": 566,
      "Ġdoes": 567,
      "Ġ8": 568,
      "Ġpre": 569,
      "ant": 570,
      "Ġal": 571,
      "Ġj": 572,
      "Ġcon": 573,
      "Ġper": 574,
      "ip": 575,
      "Ġcrumb": 576,
      "om": 577,
      "Ġroom": 578,
      "au": 579,
      "ich": 580,
      "el": 581,
      "llo": 582,
      "ĠHello": 583,
      "ĠDu": 584,
      "ĠHi": 585,
      "hoo": 586,
      "roubles": 587,
      "ĠTroubles": 588,
      "hooting": 589,
      "ĠTroubleshooting": 590,
      "Ġ75": 591,
      "Ġfolds": 592,
      "Ġ12": 593,
      "Ġacid": 594,
      "own": 595,
      "ye": 596,
      "Ġse": 597,
      "Ġtra": 598,
      "Ġrye": 599,
      "ool": 600,
      "dd": 601,
      "Ġperc": 602,
      "card": 603,
      "ient": 604,
      "Ġ/": 605,
      "ĠHey": 606,
      "ĠThe": 607,
      "Qu": 608,
      "ĠQu": 609,
      "ĠQuick": 610,
      "blem": 611,
      "Ġproblem": 612,
      "ĠHelp": 613,
      "Ġthen": 614,
      "ides": 615,
      "Ġpercenta": 616,
      "Ġhelp": 617,
      "Ġadd": 618,
      "ist": 619,
      "Ġwarm": 620,
      "vel": 621,
      "Ġall": 622,
      "ake": 623,
      "Ġstretch": 624,
      "Ġtear": 625,
      "Ġstick": 626,
      "ndard": 627,
      "un": 628,
      "ion": 629,
      "lyse": 630,
      "Ġare": 631,
      "ĠDutch": 632,
      "ins": 633,
      "Ġshape": 634,
      "Ġtur": 635,
      "Ġbub": 636,
      "Ġpercentage": 637,
      "'s": 638,
      "tar": 639,
      "Ġshaping": 640,
      "ĠM": 641,
      "tal": 642,
      "ice": 643,
      "Ġlong": 644,
      "Ġdown": 645,
      "Ġtotal": 646,
      "Ġhand": 647,
      "ntil": 648,
      "Ġuntil": 649,
      "Ġsma": 650,
      "Ġblis": 651,
      "Ġsmall": 652,
      "Ġjar": 653,
      "ir": 654,
      "%),": 655,
      "Ġsa": 656,
      "hed": 657,
      "lu": 658,
      "Ġv": 659,
      "roof": 660,
      "tio": 661,
      "Ġratio": 662,
      "ia": 663,
      "Ġcan": 664,
      "75": 665,
      "Ġ10": 666,
      "Ġeas": 667,
      "Ġparts": 668,
      "Ġbo": 669,
      "Ġif": 670,
      "pp": 671,
      "Ġas": 672,
      "ĠIt": 673,
      "du": 674,
      "Ġ24": 675,
      "Ġprov": 676,
      "row": 677,
      "Ġsticky": 678,
      "ix": 679,
      "Ġtoo": 680,
      "Ġcool": 681,
      "Ġpu": 682,
      "Ġwhich": 683,
      "Ġcomple": 684,
      "Ġacti": 685,
      "ation": 686,
      "Ġbot": 687,
      "tom": 688,
      "Ġbottom": 689,
      "velop": 690,
      "face": 691,
      "Ġsur": 692,
      "Ġsurface": 693,
      "Ġstart": 694,
      "fri": 695,
      "Ġrefri": 696,
      "Ġrefrig": 697,
      "Ġfro": 698,
      "Ġfrom": 699,
      "ile": 700,
      "Ġsme": 701,
      "Ġsmell": 702,
      "50": 703,
      "Ġstandard": 704,
      "Ġlet": 705,
      "Ġmix": 706,
      "im": 707,
      "Ġconta": 708,
      "Ġback": 709,
      "Ġgent": 710,
      "Ġbag": 711,
      "tard": 712,
      "ound": 713,
      "Ġcold": 714,
      "Ġprote": 715,
      "ses": 716,
      "Ġma": 717,
      "Ġtearing": 718,
      "Ġbubbles": 719,
      "Ġseed": 720,
      "um": 721,
      "Ġroll": 722,
      "iz": 723,
      "ime": 724,
      "rong": 725,
      "Ġtime": 726,
      "Ġear": 727,
      "ine": 728,
      "ters": 729,
      "Ġhot": 730,
      "Ġup": 731,
      "erate": 732,
      "Ġgra": 733,
      "Ġinch": 734,
      "Ġhands": 735,
      "ferm": 736,
      "iate": 737,
      "mmed": 738,
      "Ġimmed": 739,
      "iately": 740,
      "Ġimmediately": 741,
      "ig": 742,
      "tered": 743,
      "Ġsk": 744,
      "Ġtest": 745,
      "Ġfir": 746,
      "ĠFeed": 747,
      "Ġ375": 748,
      "Ġfirst": 749,
      "inder": 750,
      "uto": 751,
      "utolyse": 752,
      "Ġeasi": 753,
      "ause": 754,
      "Ġstrong": 755,
      "ack": 756,
      "Ġdiscard": 757,
      "Ġpap": 758,
      "Ġinc": 759,
      "Ġever": 760,
      "Ġpaper": 761,
      "Ġevery": 762,
      "Ġkn": 763,
      "Ġdeg": 764,
      "Ġcut": 765,
      "Ġread": 766,
      "Ġskin": 767,
      "Ġonly": 768,
      "Ġbec": 769,
      "Ġwheat": 770,
      "avor": 771,
      "Ġmic": 772,
      "proof": 773,
      "Ġso": 774,
      "Ġeasily": 775,
      "tions": 776,
      "Ġcomplete": 777,
      "Ġactive": 778,
      "ink": 779,
      "Ġprodu": 780,
      "Ġproduc": 781,
      "Ġout": 782,
      "Ġhigh": 783,
      "Ġone": 784,
      "Ġprovides": 785,
      "Ġtrapp": 786,
      "Ġtrapped": 787,
      "hl": 788,
      "hlor": 789,
      "Ġtop": 790,
      "Ġstiff": 791,
      "Ġsu": 792,
      "Ġun": 793,
      "Ġequ": 794,
      "Ġbecause": 795,
      "Ġequal": 796,
      "ached": 797,
      "Ġsc": 798,
      "Ġdi": 799,
      "Ġdire": 800,
      "Ġpl": 801,
      "ĠIn": 802,
      "Ġready": 803,
      "ale": 804,
      "Ġstarters": 805,
      "ents": 806,
      "Ġmoist": 807,
      "Ġtens": 808,
      "Ġtension": 809,
      "Ġenough": 810,
      "redient": 811,
      "Ġus": 812,
      "und": 813,
      "ĠL": 814,
      "Ġabund": 815,
      "Ġabundant": 816,
      "ood": 817,
      "proofed": 818,
      "cip": 819,
      "Ġrecip": 820,
      "ĠAn": 821,
      "Ġturns": 822,
      "ĠUs": 823,
      "ĠUse": 824,
      "ĠSh": 825,
      "Ġgrains": 826,
      "Ġwhile": 827,
      "Ġmore": 828,
      "zy": 829,
      "Ġcontain": 830,
      "eton": 831,
      "Ġsof": 832,
      "Ġsoft": 833,
      "Ġing": 834,
      "quid": 835,
      "Ġliquid": 836,
      "Ġingredient": 837,
      "Ġpan": 838,
      "Ġprotein": 839,
      "Ġrack": 840,
      "Ġmold": 841,
      "gle": 842,
      "if": 843,
      "erator": 844,
      "Ġmean": 845,
      "Ġrefrigerator": 846,
      "Ġtin": 847,
      "Ġflat": 848,
      "bes": 849,
      "ive": 850,
      "Ġdevelop": 851,
      "nth": 852,
      "Ġmonth": 853,
      "Ġwet": 854,
      "Ġ80": 855,
      "ay": 856,
      "ulate": 857,
      "tead": 858,
      "ere": 859,
      "Ġinstead": 860,
      "Ġofte": 861,
      "Ġop": 862,
      "Ġoften": 863,
      "Ġopen": 864,
      "Ġneed": 865,
      "ment": 866,
      "Ġround": 867,
      "Ġtemperatures": 868,
      "Ġcoil": 869,
      "Ġcau": 870,
      "Ġtap": 871,
      "Ġtak": 872,
      "ume": 873,
      "olume": 874,
      "Ġvolume": 875,
      "ens": 876,
      "ark": 877,
      "Ġnot": 878,
      "over": 879,
      "ial": 880,
      "Ġsprings": 881,
      "Ġmonths": 882,
      "Ġgre": 883,
      "Ġsaf": 884,
      "est": 885,
      "Ġsafe": 886,
      "Ġcen": 887,
      "ĠMy": 888,
      "Ġpull": 889,
      "Ġcenter": 890,
      "ove": 891,
      "Ġblistered": 892,
      "lic": 893,
      "sed": 894,
      "oup": 895,
      "Ġsoup": 896,
      "bb": 897,
      "ubb": 898,
      "Ġsw": 899,
      "Ġrubb": 900,
      "Ġthat": 901,
      "Ġsmells": 902,
      "%.": 903,
      "ze": 904,
      "chment": 905,
      "Ġrest": 906,
      "Ġparchment": 907,
      "linder": 908,
      "ylinder": 909,
      "Ġcylinder": 910,
      "rid": 911,
      "Ġfrid": 912,
      "ree": 913,
      "Ġ60": 914,
      "Ġadding": 915,
      "Ġfridge": 916,
      "ut": 917,
      "overed": 918,
      "20": 919,
      "Ġben": 920,
      "leas": 921,
      "ĠDo": 922,
      "Ġgently": 923,
      "Ġbags": 924,
      "ĠAt": 925,
      "Ġ70": 926,
      "th": 927,
      "Ġ9": 928,
      "Ġlam": 929,
      "ron": 930,
      "Ġice": 931,
      "Ġar": 932,
      "Ġ500": 933,
      "bly": 934,
      "Ġdoubles": 935,
      "ssent": 936,
      "Ġessent": 937,
      "Ġslic": 938,
      "Ġ65": 939,
      "Ġessential": 940,
      "Ġproof": 941,
      "ke": 942,
      "ĠTh": 943,
      "68": 944,
      "Ġrooms": 945,
      "Ġsig": 946,
      "Ġretard": 947,
      "co": 948,
      "ows": 949,
      "Ġshows": 950,
      "Ġdomed": 951,
      "Ġou": 952,
      "Ġlac": 953,
      "Ġallow": 954,
      "Ġinclu": 955,
      "avors": 956,
      "Ġouter": 957,
      "Ġlactic": 958,
      "cter": 959,
      "xim": 960,
      "Ġbacter": 961,
      "llap": 962,
      "Ġcollap": 963,
      "Ġmaxim": 964,
      "Ġproducing": 965,
      "Ġbacteria": 966,
      "Ġcollapses": 967,
      "Ġmaximum": 968,
      "ving": 969,
      "Ġpink": 970,
      "Ġlid": 971,
      "ail": 972,
      "oat": 973,
      "vide": 974,
      "Ġfloat": 975,
      "Ġscor": 976,
      "Ġrubber": 977,
      "Ġchlor": 978,
      "eth": 979,
      "ĠTo": 980,
      "24": 981,
      "eat": 982,
      "pid": 983,
      "ĠR": 984,
      "Ġ27": 985,
      "Ġrapid": 986,
      "Ġrapidly": 987,
      ").": 988,
      "Ġslack": 989,
      "Ġblisters": 990,
      "ample": 991,
      "ry": 992,
      "iscard": 993,
      "aste": 994,
      "ĠDiscard": 995,
      "Ġexample": 996,
      "Ġkeeping": 997,
      "Ġbat": 998,
      "icient": 999,
      "erment": 1000,
      "ĠFerment": 1001,
      "fficient": 1002,
      "Ġdiss": 1003,
      "Ġmicro": 1004,
      "Ġbatch": 1005,
      "sh": 1006,
      "iniz": 1007,
      "atiniz": 1008,
      "Ġgel": 1009,
      "ĠDoes": 1010,
      "Ġgelatiniz": 1011,
      "Ġind": 1012,
      "Ġbuilding": 1013,
      "so": 1014,
      "ĠWith": 1015,
      "ruct": 1016,
      "Ġstruct": 1017,
      "Ġalso": 1018,
      "Ġstructure": 1019,
      "Ġoff": 1020,
      "ook": 1021,
      "arge": 1022,
      "Ġlarge": 1023,
      "Ġkeeps": 1024,
      "Ġmeans": 1025,
      "ures": 1026,
      "Ġsee": 1027,
      "Ġaerate": 1028,
      "Ġmake": 1029,
      "Ġcup": 1030,
      "Ġsign": 1031,
      "Ġfail": 1032,
      "Ġhal": 1033,
      "cess": 1034,
      "Ġhalf": 1035,
      "iti": 1036,
      "Ġfood": 1037,
      "tore": 1038,
      "rients": 1039,
      "utrients": 1040,
      "cks": 1041,
      "Ġloav": 1042,
      "Ġloaves": 1043,
      "ever": 1044,
      "Ġrequ": 1045,
      "Ġrequire": 1046,
      "gry": 1047,
      "Ġhun": 1048,
      "Ġno": 1049,
      "Ġhungry": 1050,
      "col": 1051,
      "oration": 1052,
      "Ġdiscol": 1053,
      "Ġdiscoloration": 1054,
      "Ġmoisture": 1055,
      "Ġscoring": 1056,
      "che": 1057,
      "Ġstarche": 1058,
      "Ġbaked": 1059,
      "Ġstir": 1060,
      "Ġany": 1061,
      "Ġstarches": 1062,
      "sor": 1063,
      "ted": 1064,
      "etw": 1065,
      "Ġrocks": 1066,
      "Ġabsor": 1067,
      "ĠBake": 1068,
      "fermentation": 1069,
      "Ġdirect": 1070,
      "Ġabsorb": 1071,
      "Ġcle": 1072,
      "Ġclean": 1073,
      "Ġdeep": 1074,
      "enting": 1075,
      "antly": 1076,
      "Ġmixes": 1077,
      "etic": 1078,
      "Ġacetic": 1079,
      "ded": 1080,
      "ĠO": 1081,
      "Ġwild": 1082,
      "raded": 1083,
      "bleached": 1084,
      "Ġdegraded": 1085,
      "Ġunbleached": 1086,
      "Ġsoupy": 1087,
      "Ġusing": 1088,
      "Ġhoo": 1089,
      "ĠPour": 1090,
      "Ġhooch": 1091,
      "Ġtaste": 1092,
      "Ġbest": 1093,
      "ntire": 1094,
      "ase": 1095,
      "Ġentire": 1096,
      "Ġinside": 1097,
      "Ġexcess": 1098,
      "geth": 1099,
      "sion": 1100,
      "rehe": 1101,
      "Ġtogeth": 1102,
      "ĠAutolyse": 1103,
      "Ġhydrate": 1104,
      "ĠPrehe": 1105,
      "Ġinclusion": 1106,
      "Ġtogether": 1107,
      "ĠPreheat": 1108,
      "Ġinclusions": 1109,
      "oc": 1110,
      "uch": 1111,
      "Ġmuch": 1112,
      "Ġcompletely": 1113,
      "Ġenzy": 1114,
      "Ġturn": 1115,
      "ain": 1116,
      "ating": 1117,
      "Ġbrow": 1118,
      "Ġbrown": 1119,
      "ĠWhole": 1120,
      "Ġsteel": 1121,
      "ish": 1122,
      "Ġrecipe": 1123,
      "ose": 1124,
      "pur": 1125,
      "pose": 1126,
      "Ġcubes": 1127,
      "purpose": 1128,
      "orm": 1129,
      "way": 1130,
      "Ġalway": 1131,
      "Ġalways": 1132,
      "ges": 1133,
      "wich": 1134,
      "ndwich": 1135,
      "Ġsandwich": 1136,
      "ĠShould": 1137,
      "hen": 1138,
      "ĠWhen": 1139,
      "lo": 1140,
      "vain": 1141,
      "reate": 1142,
      "Ġcreate": 1143,
      "Ġhold": 1144,
      "Ġlevain": 1145,
      "oule": 1146,
      "Ġboule": 1147,
      "Ġpale": 1148,
      "astic": 1149,
      "Ġplastic": 1150,
      "ten": 1151,
      "culate": 1152,
      "Ġcal": 1153,
      "Ġcalculate": 1154,
      "Ġdid": 1155,
      "Ġthin": 1156,
      "fter": 1157,
      "ner": 1158,
      "Ġafter": 1159,
      "ork": 1160,
      "Ġproofing": 1161,
      "olyse": 1162,
      "ass": 1163,
      "wo": 1164,
      "Ġtwo": 1165,
      "gg": 1166,
      "Ġsave": 1167,
      "ggish": 1168,
      "nn": 1169,
      "Ġbann": 1170,
      "Ġless": 1171,
      "Ġbanneton": 1172,
      "form": 1173,
      "mul": 1174,
      "Ġbatard": 1175,
      "Ġabout": 1176,
      "mula": 1177,
      "Ġlif": 1178,
      "Ġcauses": 1179,
      "Ġtaking": 1180,
      "Ġfing": 1181,
      "Ġmain": 1182,
      "Ġfinger": 1183,
      "Ġdark": 1184,
      "Ġautolyse": 1185,
      "Ġslow": 1186,
      "ng": 1187,
      "aker": 1188,
      "ĠBaker": 1189,
      "Ġknow": 1190,
      "iqu": 1191,
      "ler": 1192,
      "Ġgive": 1193,
      "Ġstitch": 1194,
      "Ġthan": 1195,
      "Ġenvelop": 1196,
      "Ġgentler": 1197,
      "Ġenvelope": 1198,
      "vent": 1199,
      "ented": 1200,
      "Ġprevent": 1201,
      "Ġearly": 1202,
      "fermented": 1203,
      "ward": 1204,
      "Ġtoward": 1205,
      "Ġtowards": 1206,
      "gin": 1207,
      "ape": 1208,
      "reeze": 1209,
      "ginner": 1210,
      "Ġmad": 1211,
      "rate": 1212,
      "Ġfeeding": 1213,
      "Ġstay": 1214,
      "Ġ78": 1215,
      "Ġingredients": 1216,
      "side": 1217,
      "losed": 1218,
      "Ġide": 1219,
      "ouble": 1220,
      "Ġdouble": 1221,
      "Ġrem": 1222,
      "Ġrefrigerate": 1223,
      "Ġideal": 1224,
      "ven": 1225,
      "Ġeven": 1226,
      "Ġdeveloped": 1227,
      "Ġtru": 1228,
      "Ġlike": 1229,
      "Ġtrue": 1230,
      "Ġpres": 1231,
      "my": 1232,
      "Ġgum": 1233,
      "ance": 1234,
      "tenance": 1235,
      "Ġmaintenance": 1236,
      "Ġgummy": 1237,
      "ill": 1238,
      "Ġman": 1239,
      "aken": 1240,
      "Ġmeas": 1241,
      "oil": 1242,
      "Ġhole": 1243,
      "Ġreg": 1244,
      "Ġholes": 1245,
      "'t": 1246,
      "bl": 1247,
      "isters": 1248,
      "Ġaceton": 1249,
      "avy": 1250,
      "Ġheavy": 1251,
      "blisters": 1252,
      "Ġacetone": 1253,
      "Ġhard": 1254,
      "ated": 1255,
      "ual": 1256,
      "Ġhealt": 1257,
      "Ġhealth": 1258,
      "Ġfavors": 1259,
      "eeter": 1260,
      "Ġacidic": 1261,
      "Ġtiny": 1262,
      "Ġgreater": 1263,
      "Ġsweeter": 1264,
      "gar": 1265,
      "lour": 1266,
      "tre": 1267,
      "erving": 1268,
      "Ġreleas": 1269,
      "ĠFlour": 1270,
      "ĠCoil": 1271,
      "Ġleav": 1272,
      "ĠStre": 1273,
      "Ġdelic": 1274,
      "Ġstreng": 1275,
      "Ġpress": 1276,
      "Ġrolls": 1277,
      "Ġneeded": 1278,
      "Ġpulling": 1279,
      "Ġindentation": 1280,
      "Ġlifting": 1281,
      "Ġslowly": 1282,
      "Ġpreserving": 1283,
      "Ġreleases": 1284,
      "Ġleaving": 1285,
      "ĠStretch": 1286,
      "Ġdelicate": 1287,
      "Ġstrength": 1288,
      "inu": 1289,
      "Ġwee": 1290,
      "Ġgold": 1291,
      "ange": 1292,
      "Ġtrack": 1293,
      "Ġsample": 1294,
      "Ġweek": 1295,
      "Ġgolden": 1296,
      "Ġmat": 1297,
      "19": 1298,
      "ps": 1299,
      "za": 1300,
      "one": 1301,
      "Ġcrow": 1302,
      "Ġpiz": 1303,
      "ased": 1304,
      "Ġrim": 1305,
      "Ġstone": 1306,
      "Ġ35": 1307,
      "Ġ40": 1308,
      "Ġabove": 1309,
      "ĠProof": 1310,
      "Ġplace": 1311,
      "Ġrecipes": 1312,
      "ĠShape": 1313,
      "Ġgreased": 1314,
      "Ġslices": 1315,
      "Ġremove": 1316,
      "190": 1317,
      "Ġcrowns": 1318,
      "Ġpizza": 1319,
      "up": 1320,
      "Ġfre": 1321,
      "Ġrice": 1322,
      "Ġaliqu": 1323,
      "Ġfresh": 1324,
      "Ġaliquot": 1325,
      "26": 1326,
      "ep": 1327,
      "lia": 1328,
      "Ġcovered": 1329,
      "Ġgrow": 1330,
      "Ġrelia": 1331,
      "Ġwithin": 1332,
      "Ġthere": 1333,
      "Ġfeeds": 1334,
      "ĠRep": 1335,
      "Ġreliably": 1336,
      "ĠRepeat": 1337,
      "Ġformula": 1338,
      "Ġorange": 1339,
      "iled": 1340,
      "Ġdissol": 1341,
      "%).": 1342,
      "100": 1343,
      "70": 1344,
      "72": 1345,
      "iant": 1346,
      "oid": 1347,
      "slic": 1348,
      "void": 1349,
      "Ġair": 1350,
      "ght": 1351,
      "ortions": 1352,
      "tight": 1353,
      "Ġportions": 1354,
      "Ġ200": 1355,
      "ĠAvoid": 1356,
      "ĠFreeze": 1357,
      "ĠStore": 1358,
      "Ġ720": 1359,
      "Ġ1000": 1360,
      "Ġseale": 1361,
      "Ġbox": 1362,
      "Ġboard": 1363,
      "Ġcutting": 1364,
      "Ġdivide": 1365,
      "Ġ970": 1366,
      "Ġrubbery": 1367,
      "sliced": 1368,
      "Ġairtight": 1369,
      "Ġsealed": 1370,
      "78": 1371,
      "bute": 1372,
      "ched": 1373,
      "covered": 1374,
      "closed": 1375,
      "tched": 1376,
      "Ġend": 1377,
      "Ġsides": 1378,
      "Ġtight": 1379,
      "ination": 1380,
      "Ġble": 1381,
      "ntinu": 1382,
      "ross": 1383,
      "Ġball": 1384,
      "Ġ26": 1385,
      "Ġ28": 1386,
      "ĠFold": 1387,
      "ĠDist": 1388,
      "Ġacross": 1389,
      "Ġcontinu": 1390,
      "ribute": 1391,
      "Ġrises": 1392,
      "Ġenclosed": 1393,
      "Ġstretched": 1394,
      "Ġ82": 1395,
      "Ġseam": 1396,
      "Ġseco": 1397,
      "Ġuncovered": 1398,
      "Ġlamination": 1399,
      "Ġaround": 1400,
      "Ġevenly": 1401,
      "Ġbleached": 1402,
      "ĠDistribute": 1403,
      "Ġcontinues": 1404,
      "Ġsecond": 1405,
      "Ġsto": 1406,
      "ropp": 1407,
      "Ġlow": 1408,
      "Ġ11": 1409,
      "Ġ14": 1410,
      "ĠAll": 1411,
      "ĠDropp": 1412,
      "Ġangle": 1413,
      "Ġinstant": 1414,
      "ĠBread": 1415,
      "Ġblast": 1416,
      "Ġcrumbs": 1417,
      "Ġlonger": 1418,
      "Ġlame": 1419,
      "Ġlower": 1420,
      "ĠDropping": 1421,
      "cent": 1422,
      "tis": 1423,
      "Ġed": 1424,
      "Ġshaken": 1425,
      "ightly": 1426,
      "nslu": 1427,
      "ulk": 1428,
      "Ġslightly": 1429,
      "Ġtemps": 1430,
      "ffy": 1431,
      "ĠBulk": 1432,
      "Ġjig": 1433,
      "Ġtranslu": 1434,
      "Ġpuffy": 1435,
      "ĠLook": 1436,
      "gles": 1437,
      "Ġrounded": 1438,
      "Ġartis": 1439,
      "Ġaerated": 1440,
      "Ġedges": 1441,
      "Ġjiggles": 1442,
      "Ġtranslucent": 1443,
      "Ġartisan": 1444,
      "lass": 1445,
      "pre": 1446,
      "Ġclass": 1447,
      "sses": 1448,
      "ĠPer": 1449,
      "Ġexpre": 1450,
      "Ġclassic": 1451,
      "Ġexpresses": 1452,
      "Ġcar": 1453,
      "nel": 1454,
      "Ġtun": 1455,
      "Ġfil": 1456,
      "ense": 1457,
      "Ġtunnel": 1458,
      "ctions": 1459,
      "ece": 1460,
      "iece": 1461,
      "ple": 1462,
      "rough": 1463,
      "Ġtri": 1464,
      "Ġtake": 1465,
      "Ġfru": 1466,
      "Ġpleas": 1467,
      "Ġpiece": 1468,
      "ity": 1469,
      "Ġlight": 1470,
      "Ġgas": 1471,
      "Ġthrough": 1472,
      "Ġbubbly": 1473,
      "Ġcooler": 1474,
      "Ġsufficient": 1475,
      "Ġdirections": 1476,
      "Ġfails": 1477,
      "Ġstirred": 1478,
      "Ġmade": 1479,
      "Ġmeasures": 1480,
      "ples": 1481,
      "Ġtriples": 1482,
      "Ġfruity": 1483,
      "Ġpleasantly": 1484,
      "Ġsufficiently": 1485,
      "Ġstop": 1486,
      "Keep": 1487,
      "hol": 1488,
      "por": 1489,
      "ĠKeep": 1490,
      "Ġbre": 1491,
      "xtra": 1492,
      "orpor": 1493,
      "Ġcast": 1494,
      "Ġlav": 1495,
      "Ġextra": 1496,
      "Ġiron": 1497,
      "ĠSlu": 1498,
      "Ġalco": 1499,
      "Ġprovide": 1500,
      "Ġincorpor": 1501,
      "Ġmicron": 1502,
      "Ġusual": 1503,
      "Ġbreak": 1504,
      "Ġlava": 1505,
      "ĠSluggish": 1506,
      "Ġalcohol": 1507,
      "Ġincorporate": 1508,
      "Ġmicronutrients": 1509,
      "Ġusually": 1510,
      "bon": 1511,
      "ible": 1512,
      "ox": 1513,
      "ris": 1514,
      "xible": 1515,
      "team": 1516,
      "Ġfle": 1517,
      "Ġcris": 1518,
      "Ġpo": 1519,
      "Ġiniti": 1520,
      "icro": 1521,
      "ĠSteam": 1522,
      "ĠThey": 1523,
      "ĠMicro": 1524,
      "Ġdiox": 1525,
      "Ġallowing": 1526,
      "Ġgelatinized": 1527,
      "Ġgelatinizes": 1528,
      "Ġhardens": 1529,
      "Ġcarbon": 1530,
      "Ġflexible": 1531,
      "Ġcrisp": 1532,
      "Ġinitial": 1533,
      "Ġdioxide": 1534,
      "lon": 1535,
      "Ġap": 1536,
      "Ġloo": 1537,
      "sely": 1538,
      "Ġonce": 1539,
      "Ġfermenting": 1540,
      "Ġcolon": 1541,
      "Ġseal": 1542,
      "Ġhealthy": 1543,
      "Ġloosely": 1544,
      "Ġcolony": 1545,
      "aill": 1546,
      "hase": 1547,
      "su": 1548,
      "sul": 1549,
      "ufficient": 1550,
      "Ġphase": 1551,
      "Ġreac": 1552,
      "Ġresul": 1553,
      "Ġwhere": 1554,
      "Ġinsufficient": 1555,
      "Ġconsu": 1556,
      "ĠMaill": 1557,
      "Ġsugar": 1558,
      "Ġcaused": 1559,
      "Ġreaction": 1560,
      "Ġresult": 1561,
      "Ġconsumed": 1562,
      "ĠMaillard": 1563,
      "Ġsugars": 1564,
      "Ġboil": 1565,
      "ess": 1566,
      "ivide": 1567,
      "nce": 1568,
      "ply": 1569,
      "sid": 1570,
      "uess": 1571,
      "Ġ=": 1572,
      "tiply": 1573,
      "Ġmul": 1574,
      "Ġmark": 1575,
      "raight": 1576,
      "Ġband": 1577,
      "Ġstarting": 1578,
      "Ġguess": 1579,
      "Ġright": 1580,
      "act": 1581,
      "ĠAs": 1582,
      "Ġstraight": 1583,
      "ĠDivide": 1584,
      "Ġ550": 1585,
      "Ġlevel": 1586,
      "ĠSourdough": 1587,
      "Ġ68": 1588,
      "Ġexact": 1589,
      "Ġmixing": 1590,
      "Ġcontainer": 1591,
      "Ġtaken": 1592,
      "Ġsafely": 1593,
      "sided": 1594,
      "Ġmultiply": 1595,
      "Ġguessing": 1596,
      "ling": 1597,
      "sta": 1598,
      "wer": 1599,
      "tens": 1600,
      "Ġam": 1601,
      "Ġassistant": 1602,
      "Ġans": 1603,
      "Ġtigh": 1604,
      "Ġded": 1605,
      "Ġflavor": 1606,
      "ident": 1607,
      "icated": 1608,
      "Ġferments": 1609,
      "Ġrate": 1610,
      "ĠSalt": 1611,
      "Ġinsip": 1612,
      "Ġquestions": 1613,
      "Ġhandling": 1614,
      "ulates": 1615,
      "ĠWithout": 1616,
      "Ġtastes": 1617,
      "Ġregulates": 1618,
      "standard": 1619,
      "Ġanswer": 1620,
      "Ġtightens": 1621,
      "Ġdedicated": 1622,
      "Ġinsipid": 1623,
      "able": 1624,
      "age": 1625,
      "eginner": 1626,
      "Ġtender": 1627,
      "Ġspread": 1628,
      "ĠBeginner": 1629,
      "Ġeasy": 1630,
      "ĠThis": 1631,
      "Ġmanage": 1632,
      "Ġspreading": 1633,
      "ĠBeginners": 1634,
      "Ġmanageable": 1635,
      "23": 1636,
      "een": 1637,
      "Ġbetw": 1638,
      "Ġ25": 1639,
      "Ġ475": 1640,
      "Ġ450": 1641,
      "Ġ245": 1642,
      "Ġdeeply": 1643,
      "230": 1644,
      "Ġbetween": 1645,
      "bed": 1646,
      "diant": 1647,
      "fle": 1648,
      "ite": 1649,
      "lace": 1650,
      "mol": 1651,
      "nme": 1652,
      "sures": 1653,
      "ty": 1654,
      "Ġshe": 1655,
      "Ġset": 1656,
      "ndist": 1657,
      "Ġaer": 1658,
      "ina": 1659,
      "ornme": 1660,
      "Ġcornme": 1661,
      "art": 1662,
      "arse": 1663,
      "Ġundist": 1664,
      "Ġemp": 1665,
      "Ġrema": 1666,
      "urbed": 1667,
      "aced": 1668,
      "Ġwhite": 1669,
      "Ġcoarse": 1670,
      "Ġspaced": 1671,
      "Ġradiant": 1672,
      "Ġheat": 1673,
      "Ġslides": 1674,
      "Ġensures": 1675,
      "Ġsprink": 1676,
      "Ġdefle": 1677,
      "ĠPlace": 1678,
      "ĠDust": 1679,
      "Ġsemol": 1680,
      "ĠThen": 1681,
      "Ġcontains": 1682,
      "Ġbeneat": 1683,
      "ĠRice": 1684,
      "Ġdirectly": 1685,
      "Ġcleanly": 1686,
      "ĠPerform": 1687,
      "Ġapart": 1688,
      "Ġsheet": 1689,
      "Ġsets": 1690,
      "Ġaeration": 1691,
      "Ġcornmeal": 1692,
      "Ġundisturbed": 1693,
      "Ġempty": 1694,
      "Ġremainder": 1695,
      "Ġsprinkle": 1696,
      "Ġdeflect": 1697,
      "Ġsemolina": 1698,
      "Ġbeneath": 1699,
      "38": 1700,
      "cia": 1701,
      "ful": 1702,
      "star": 1703,
      "uz": 1704,
      "Ġsour": 1705,
      "Ġfoc": 1706,
      "Ġfuz": 1707,
      "orough": 1708,
      "Ġtoss": 1709,
      "Ġpen": 1710,
      "Ġflavors": 1711,
      "ĠHarm": 1712,
      "aniti": 1713,
      "accia": 1714,
      "etrate": 1715,
      "Ġ350": 1716,
      "Ġspore": 1717,
      "Ġkick": 1718,
      "Ġnetw": 1719,
      "ĠSaniti": 1720,
      "Ġthorough": 1721,
      "Ġtears": 1722,
      "Ġcomplex": 1723,
      "Ġstrongly": 1724,
      "Ġproduces": 1725,
      "Ġstiffens": 1726,
      "Ġdevelops": 1727,
      "ĠFermentolyse": 1728,
      "ĠOver": 1729,
      "Ġgrowth": 1730,
      "starting": 1731,
      "Ġfocaccia": 1732,
      "Ġfuzzy": 1733,
      "Ġpenetrate": 1734,
      "ĠHarmful": 1735,
      "Ġspores": 1736,
      "Ġkickstarting": 1737,
      "Ġnetwork": 1738,
      "ĠSanitize": 1739,
      "Ġthoroughly": 1740,
      "Never": 1741,
      "and": 1742,
      "bit": 1743,
      "coo": 1744,
      "hi": 1745,
      "nutrients": 1746,
      "ĠNever": 1747,
      "Ġsit": 1748,
      "led": 1749,
      "Ġmun": 1750,
      "Ġinhi": 1751,
      "Ġlack": 1752,
      "icip": 1753,
      "amine": 1754,
      "ĠChlor": 1755,
      "Ġliving": 1756,
      "ipate": 1757,
      "Ġboiled": 1758,
      "Ġhigher": 1759,
      "Ġsuch": 1760,
      "Ġchlorine": 1761,
      "Ġchloramine": 1762,
      "Ġdissipate": 1763,
      "Ġmicrobes": 1764,
      "Ġexcessive": 1765,
      "Ġfiltered": 1766,
      "cooled": 1767,
      "Ġmunicip": 1768,
      "Ġinhibit": 1769,
      "Ġlacks": 1770,
      "ĠChlorine": 1771,
      "Ġmunicipal": 1772,
      "Ex": 1773,
      "all": 1774,
      "low": 1775,
      "mes": 1776,
      "per": 1777,
      "vating": 1778,
      "zor": 1779,
      "ĠEx": 1780,
      "tend": 1781,
      "Ġdro": 1782,
      "ĠpH": 1783,
      "ĠHold": 1784,
      "Ġshall": 1785,
      "Ġproper": 1786,
      "Ġrazor": 1787,
      "Ġbelow": 1788,
      "Ġ45": 1789,
      "Ġactivating": 1790,
      "Ġproteins": 1791,
      "Ġdegree": 1792,
      "ift": 1793,
      "Ġswift": 1794,
      "Ġfailing": 1795,
      "Ġrequires": 1796,
      "ĠOnce": 1797,
      "Ġenzymes": 1798,
      "Ġdissolve": 1799,
      "ĠExtend": 1800,
      "Ġdrops": 1801,
      "Ġshallow": 1802,
      "ĠExtended": 1803,
      "fident": 1804,
      "Ġdri": 1805,
      "Ġgood": 1806,
      "ĠWet": 1807,
      "aping": 1808,
      "Ġquick": 1809,
      "Ġmotions": 1810,
      "Ġconfident": 1811,
      "Ġknif": 1812,
      "Ġbench": 1813,
      "shaping": 1814,
      "Ġdries": 1815,
      "Ġknife": 1816,
      "fool": 1817,
      "ĠIs": 1818,
      "ĠDense": 1819,
      "rix": 1820,
      "Ġmatrix": 1821,
      "Ġtunneling": 1822,
      "down": 1823,
      "ead": 1824,
      "lly": 1825,
      "ura": 1826,
      "Ġful": 1827,
      "atura": 1828,
      "Ġnatura": 1829,
      "matic": 1830,
      "Ġbuilds": 1831,
      "Ġstarts": 1832,
      "Ġknead": 1833,
      "Ġresting": 1834,
      "Ġhydrates": 1835,
      "Ġenzymatic": 1836,
      "Ġbreakdown": 1837,
      "Ġfully": 1838,
      "Ġnaturally": 1839,
      "Ġkneading": 1840,
      ").<|": 1841,
      "10": 1842,
      "96": 1843,
      "ach": 1844,
      "bak": 1845,
      "cur": 1846,
      "nal": 1847,
      "Ġoc": 1848,
      "Ġwire": 1849,
      "ternal": 1850,
      "Ġ210": 1851,
      "Ġreach": 1852,
      "Ġ205": 1853,
      "Ġstill": 1854,
      "Ġleast": 1855,
      "ĠInternal": 1856,
      "ĠLet": 1857,
      "Ġ99": 1858,
      "Ġsliced": 1859,
      "baked": 1860,
      "curs": 1861,
      "Ġoccurs": 1862,
      "dle": 1863,
      "ont": 1864,
      "oad": 1865,
      "Ġont": 1866,
      "Ġpour": 1867,
      "Ġmid": 1868,
      "Ġventing": 1869,
      "ĠLoad": 1870,
      "Ġboiling": 1871,
      "Ġonto": 1872,
      "Ġmiddle": 1873,
      "pro": 1874,
      "Ġtan": 1875,
      "Ġmild": 1876,
      "icating": 1877,
      "Ġrun": 1878,
      "Ġne": 1879,
      "Ġbypro": 1880,
      "duct": 1881,
      "ĠThat": 1882,
      "Ġindicating": 1883,
      "Ġtang": 1884,
      "Ġmilder": 1885,
      "Ġbyproduct": 1886,
      "Ġstore": 1887,
      "cre": 1888,
      "ceed": 1889,
      "Ġbra": 1890,
      "icantly": 1891,
      "Ġgerm": 1892,
      "Ġget": 1893,
      "Ġspel": 1894,
      "Ġwhenever": 1895,
      "Ġexceed": 1896,
      "Ġblend": 1897,
      "ĠIncre": 1898,
      "ificantly": 1899,
      "Ġsignificantly": 1900,
      "Ġbran": 1901,
      "Ġspelt": 1902,
      "Ġexceeds": 1903,
      "ĠIncrease": 1904,
      "eren": 1905,
      "Ġferment": 1906,
      "fferen": 1907,
      "Ġdifferen": 1908,
      "Ġdifference": 1909,
      "Ġdu": 1910,
      "Ġpoke": 1911,
      "ect": 1912,
      "Ġaff": 1913,
      "Ġbas": 1914,
      "Ġaffect": 1915,
      "Ġlook": 1916,
      "Ġwon": 1917,
      "Ġche": 1918,
      "Ġtell": 1919,
      "Ġvs": 1920,
      "ind": 1921,
      "Ġput": 1922,
      "pan": 1923,
      "Ġbet": 1924,
      "Ġfermentolyse": 1925,
      "Ġbetter": 1926,
      "Ġbur": 1927,
      "Ġwork": 1928,
      "Ġsticking": 1929,
      "ket": 1930,
      "Ġpercentages": 1931,
      "Ġbasket": 1932,
      "Ġbakers": 1933,
      "Ġperform": 1934,
      "Ġbad": 1935,
      "Ġrev": 1936,
      "Ġwind": 1937,
      "owpan": 1938,
      "Ġwindowpan": 1939,
      "Ġwindowpane": 1940,
      "Ġforg": 1941,
      "Ġway": 1942,
      "ĠAre": 1943,
      "Ġweak": 1944,
      "ĠBest": 1945,
      "Ġcou": 1946,
      "Ġproofed": 1947,
      "pens": 1948,
      "uggish": 1949,
      "Ġhap": 1950,
      "Ġsluggish": 1951,
      "Ġhappens": 1952,
      "cted": 1953,
      "glected": 1954,
      "Ġneglected": 1955,
      "cu": 1956,
      "ef": 1957,
      "Ġwhat": 1958,
      "Ġaccu": 1959,
      "Ġscore": 1960,
      "Ġbenef": 1961,
      "Ġaccurate": 1962,
      "rees": 1963,
      "Ġdegrees": 1964,
      "Ġbeginner": 1965,
      "Ġoval": 1966,
      "Ġdutch": 1967,
      "ĠThere": 1968,
      "ĠTe": 1969,
      "Ġgo": 1970,
      "Ġburnt": 1971,
      "Ġwhy": 1972,
      "Ġhow": 1973,
      "Ġgrain": 1974,
      "Ġinclud": 1975,
      "Ġdidn": 1976,
      "ome": 1977,
      "ĠFormula": 1978,
      "ev": 1979,
      "night": 1980,
      "od": 1981,
      "Ġmeth": 1982,
      "ito": 1983,
      "Ġovernight": 1984,
      "Ġliev": 1985,
      "Ġmadre": 1986,
      "Ġmany": 1987,
      "Ġmath": 1988,
      "Ġmethod": 1989,
      "Ġlievito": 1990,
      "ft": 1991,
      "Ġleft": 1992,
      "Ġweights": 1993,
      "loaf": 1994,
      "Ġrevive": 1995,
      "Ġdoughs": 1996,
      "ular": 1997,
      "Ġfolding": 1998,
      "Ġwarmer": 1999,
      "Ġstitching": 2000,
      "Ġregular": 2001,
      "Ġnew": 2002,
      "Ġamb": 2003,
      "inated": 2004,
      "Ġfix": 2005,
      "onit": 2006,
      "Ġpaste": 2007,
      "Ġmonit": 2008,
      "ath": 2009,
      "Ġshot": 2010,
      "Ġkill": 2011,
      "Ġglass": 2012,
      "Ġsteps": 2013,
      "Ġshouldn": 2014,
      "Ġrestore": 2015,
      "Ġchlorinated": 2016,
      "Ġlife": 2017,
      "Ġforget": 2018,
      "Ġcount": 2019,
      "Ġambient": 2020,
      "Ġmonitor": 2021,
      "ave": 2022,
      "be": 2023,
      "mic": 2024,
      "Ġdent": 2025,
      "arp": 2026,
      "Ġsharp": 2027,
      "Ġleave": 2028,
      "Ġshaped": 2029,
      "Ġcube": 2030,
      "Ġcheck": 2031,
      "Ġchemic": 2032,
      "Ġchemical": 2033,
      "iv": 2034,
      "niqu": 2035,
      "Ġold": 2036,
      "Ġfreeze": 2037,
      "Ġcause": 2038,
      "chniqu": 2039,
      "otten": 2040,
      "Ġnut": 2041,
      "Ġadded": 2042,
      "Ġseeds": 2043,
      "proofing": 2044,
      "Ġscale": 2045,
      "Ġreviv": 2046,
      "Ġforgotten": 2047
    },
    "merges": [
      [
        "t",
        "e"
      ],
      [
        "o",
        "u"
      ],
      [
        "Ġ",
        "s"
      ],
      [
        "n",
        "d"
      ],
      [
        "Ġ",
        "a"
      ],
      [
        "Ġ",
        "t"
      ],
      [
        "i",
        "n"
      ],
      [
        "e",
        "r"
      ],
      [
        "o",
        "f"
      ],
      [
        "Ġ",
        "f"
      ],
      [
        "t",
        "a"
      ],
      [
        "i",
        "s"
      ],
      [
        "Ġ",
        "b"
      ],
      [
        "r",
        "e"
      ],
      [
        "ou",
        "r"
      ],
      [
        "h",
        "e"
      ],
      [
        "of",
        "te"
      ],
      [
        "e",
        "nd"
      ],
      [
        "x",
        "t"
      ],
      [
        "<",
        "|"
      ],
      [
        "|",
        ">"
      ],
      [
        "ofte",
        "xt"
      ],
      [
        "end",
        "oftext"
      ],
      [
        "Ġ",
        "d"
      ],
      [
        "Ġ",
        "w"
      ],
      [
        "g",
        "h"
      ],
      [
        "n",
        "t"
      ],
      [
        "o",
        "r"
      ],
      [
        "Ġt",
        "o"
      ],
      [
        "in",
        "g"
      ],
      [
        "o",
        "n"
      ],
      [
        "ou",
        "gh"
      ],
      [
        "Ġ",
        "c"
      ],
      [
        "l",
        "e"
      ],
      [
        "t",
        "i"
      ],
      [
        "Ġa",
        "nd"
      ],
      [
        "te",
        "r"
      ],
      [
        "Ġt",
        "he"
      ],
      [
        "Ġ",
        "p"
      ],
      [
        "s",
        "s"
      ],
      [
        "Ġ",
        "m"
      ],
      [
        "e",
        "n"
      ],
      [
        "Ġ",
        "h"
      ],
      [
        "U",
        "s"
      ],
      [
        "i",
        "t"
      ],
      [
        "e",
        "d"
      ],
      [
        "ta",
        "nt"
      ],
      [
        "a",
        "r"
      ],
      [
        "is",
        "tant"
      ],
      [
        "ss",
        "istant"
      ],
      [
        ".",
        "<|"
      ],
      [
        "A",
        "ssistant"
      ],
      [
        "Us",
        "er"
      ],
      [
        "r",
        "o"
      ],
      [
        "Ġ",
        "in"
      ],
      [
        "a",
        "t"
      ],
      [
        "e",
        "s"
      ],
      [
        "d",
        "ough"
      ],
      [
        "our",
        "dough"
      ],
      [
        "l",
        "y"
      ],
      [
        "r",
        "a"
      ],
      [
        "ti",
        "on"
      ],
      [
        "Ġf",
        "l"
      ],
      [
        "Ġs",
        "ourdough"
      ],
      [
        "Ġs",
        "ta"
      ],
      [
        "Ġb",
        "a"
      ],
      [
        "Ġ",
        "H"
      ],
      [
        "Ġ",
        "l"
      ],
      [
        "l",
        "d"
      ],
      [
        "Ġ",
        "1"
      ],
      [
        "Ġ",
        "I"
      ],
      [
        "Ġsta",
        "r"
      ],
      [
        "i",
        "d"
      ],
      [
        "i",
        "c"
      ],
      [
        "Ġfl",
        "our"
      ],
      [
        "Ġf",
        "or"
      ],
      [
        "Ġ",
        "is"
      ],
      [
        "Ġd",
        "ough"
      ],
      [
        "l",
        "l"
      ],
      [
        "Ġ",
        "2"
      ],
      [
        "a",
        "s"
      ],
      [
        "Ġ",
        "y"
      ],
      [
        "Ġ",
        "u"
      ],
      [
        "Ġ",
        "g"
      ],
      [
        "Â",
        "°"
      ],
      [
        "o",
        "w"
      ],
      [
        "a",
        "n"
      ],
      [
        "Ġstar",
        "ter"
      ],
      [
        "Ġ",
        "or"
      ],
      [
        "Ġ",
        "e"
      ],
      [
        "c",
        "h"
      ],
      [
        "it",
        "h"
      ],
      [
        "Ġ",
        "re"
      ],
      [
        "Ġ",
        "W"
      ],
      [
        "a",
        "l"
      ],
      [
        "e",
        "nt"
      ],
      [
        "a",
        "ter"
      ],
      [
        "Ġw",
        "ith"
      ],
      [
        "o",
        "v"
      ],
      [
        "Ġba",
        "k"
      ],
      [
        "Ġw",
        "ater"
      ],
      [
        "Ġ",
        "r"
      ],
      [
        "Ġ",
        "of"
      ],
      [
        "Ġ",
        "it"
      ],
      [
        "b",
        "le"
      ],
      [
        "s",
        "e"
      ],
      [
        "Ġs",
        "h"
      ],
      [
        "u",
        "r"
      ],
      [
        "er",
        "m"
      ],
      [
        "ĠW",
        "h"
      ],
      [
        "a",
        "d"
      ],
      [
        "Ġ",
        "te"
      ],
      [
        "en",
        "ta"
      ],
      [
        "o",
        "ld"
      ],
      [
        "a",
        "p"
      ],
      [
        "v",
        "e"
      ],
      [
        "r",
        "u"
      ],
      [
        "Ġ",
        "ov"
      ],
      [
        "o",
        "o"
      ],
      [
        "s",
        "t"
      ],
      [
        "Ġp",
        "ro"
      ],
      [
        "Ġ",
        "("
      ],
      [
        "t",
        "o"
      ],
      [
        "a",
        "c"
      ],
      [
        "Ġd",
        "o"
      ],
      [
        "Ġ",
        "A"
      ],
      [
        "Ġb",
        "u"
      ],
      [
        "u",
        "te"
      ],
      [
        "Ġw",
        "h"
      ],
      [
        "Ġ",
        "on"
      ],
      [
        "m",
        "p"
      ],
      [
        "i",
        "gh"
      ],
      [
        "q",
        "u"
      ],
      [
        "e",
        "ed"
      ],
      [
        "e",
        "t"
      ],
      [
        "ĠH",
        "e"
      ],
      [
        "Ġ",
        "F"
      ],
      [
        "Ġ",
        "T"
      ],
      [
        "a",
        "te"
      ],
      [
        "enta",
        "tion"
      ],
      [
        "Ġy",
        "our"
      ],
      [
        "Ġc",
        "ru"
      ],
      [
        "Ġs",
        "t"
      ],
      [
        "Ġf",
        "erm"
      ],
      [
        "c",
        "k"
      ],
      [
        "ar",
        "d"
      ],
      [
        "0",
        "0"
      ],
      [
        "ĠH",
        "ow"
      ],
      [
        "Ġ",
        "D"
      ],
      [
        "Ġa",
        "c"
      ],
      [
        "Ġ",
        "i"
      ],
      [
        "e",
        "e"
      ],
      [
        "d",
        "ra"
      ],
      [
        "y",
        "dra"
      ],
      [
        "Ġ",
        "3"
      ],
      [
        "nd",
        "er"
      ],
      [
        "Ġh",
        "ydra"
      ],
      [
        "u",
        "re"
      ],
      [
        "Ġ2",
        "0"
      ],
      [
        "ou",
        "t"
      ],
      [
        "a",
        "k"
      ],
      [
        "a",
        "m"
      ],
      [
        "t",
        "ch"
      ],
      [
        "a",
        "f"
      ],
      [
        "i",
        "l"
      ],
      [
        "Ġa",
        "t"
      ],
      [
        "Ġov",
        "en"
      ],
      [
        "igh",
        "t"
      ],
      [
        "Ġferm",
        "entation"
      ],
      [
        "Ġc",
        "o"
      ],
      [
        "Ġs",
        "p"
      ],
      [
        "re",
        "ad"
      ],
      [
        "Ġs",
        "ti"
      ],
      [
        "Ġ",
        "ra"
      ],
      [
        "Ġb",
        "e"
      ],
      [
        "Ġ",
        "C"
      ],
      [
        "Ġl",
        "o"
      ],
      [
        "Ġ",
        "ro"
      ],
      [
        "o",
        "t"
      ],
      [
        "ĠWh",
        "at"
      ],
      [
        "ble",
        "s"
      ],
      [
        "Ġhydra",
        "tion"
      ],
      [
        "g",
        "e"
      ],
      [
        "m",
        "e"
      ],
      [
        "Ġh",
        "a"
      ],
      [
        "Ġ",
        "5"
      ],
      [
        "o",
        "le"
      ],
      [
        "Ġh",
        "our"
      ],
      [
        "as",
        "t"
      ],
      [
        "Ġw",
        "he"
      ],
      [
        "Ġ",
        "k"
      ],
      [
        "Ġ",
        "le"
      ],
      [
        "n",
        "s"
      ],
      [
        "o",
        "re"
      ],
      [
        "Ġ",
        "n"
      ],
      [
        "l",
        "p"
      ],
      [
        "Ġ",
        "S"
      ],
      [
        "Ġ",
        "7"
      ],
      [
        "Ġm",
        "y"
      ],
      [
        "r",
        "i"
      ],
      [
        "Ġg",
        "l"
      ],
      [
        "Ġb",
        "read"
      ],
      [
        "t",
        "ing"
      ],
      [
        "Ġlo",
        "af"
      ],
      [
        "ute",
        "n"
      ],
      [
        "Ġgl",
        "uten"
      ],
      [
        "Ġy",
        "ou"
      ],
      [
        "ĠC",
        "an"
      ],
      [
        "Ġsh",
        "ap"
      ],
      [
        "Ġs",
        "te"
      ],
      [
        "Ġa",
        "n"
      ],
      [
        "er",
        "at"
      ],
      [
        "u",
        "l"
      ],
      [
        "Ġcru",
        "st"
      ],
      [
        "Ġm",
        "e"
      ],
      [
        "Ġ1",
        "00"
      ],
      [
        "ou",
        "ld"
      ],
      [
        "Ġr",
        "is"
      ],
      [
        "Ġu",
        "nder"
      ],
      [
        "ee",
        "p"
      ],
      [
        "Ġp",
        "ar"
      ],
      [
        "Ġd",
        "ur"
      ],
      [
        "Ġdur",
        "ing"
      ],
      [
        "Ġhour",
        "s"
      ],
      [
        ")",
        ","
      ],
      [
        "Ġf",
        "old"
      ],
      [
        "i",
        "ld"
      ],
      [
        "Ġt",
        "h"
      ],
      [
        "id",
        "e"
      ],
      [
        "Ġu",
        "se"
      ],
      [
        "a",
        "v"
      ],
      [
        "Ġin",
        "to"
      ],
      [
        "Ġ",
        "he"
      ],
      [
        "Ġs",
        "l"
      ],
      [
        "al",
        "t"
      ],
      [
        "Ġ",
        "en"
      ],
      [
        "Ġb",
        "y"
      ],
      [
        "Ġ",
        "4"
      ],
      [
        "Ġsp",
        "r"
      ],
      [
        "Ġd",
        "e"
      ],
      [
        "on",
        "g"
      ],
      [
        "Ġte",
        "mp"
      ],
      [
        "Ġwh",
        "ole"
      ],
      [
        "Ġw",
        "e"
      ],
      [
        "ĠWh",
        "y"
      ],
      [
        "ou",
        "bles"
      ],
      [
        "f",
        "f"
      ],
      [
        "Ġ",
        "6"
      ],
      [
        "i",
        "re"
      ],
      [
        "Ġris",
        "e"
      ],
      [
        "Ġbak",
        "e"
      ],
      [
        "o",
        "l"
      ],
      [
        "Ġbak",
        "ing"
      ],
      [
        "Ġin",
        "s"
      ],
      [
        "Ġwhe",
        "n"
      ],
      [
        "Ġa",
        "b"
      ],
      [
        "Ġsh",
        "ould"
      ],
      [
        "c",
        "e"
      ],
      [
        "Ġst",
        "re"
      ],
      [
        "e",
        "ast"
      ],
      [
        "Ġy",
        "east"
      ],
      [
        "Ġste",
        "am"
      ],
      [
        "mp",
        "le"
      ],
      [
        "re",
        "d"
      ],
      [
        "Ġwith",
        "out"
      ],
      [
        "Ġd",
        "is"
      ],
      [
        "l",
        "k"
      ],
      [
        "Ġbu",
        "lk"
      ],
      [
        "Ġ",
        "P"
      ],
      [
        "Ġc",
        "u"
      ],
      [
        "Ġ",
        "qu"
      ],
      [
        "Ġbak",
        "er"
      ],
      [
        "ic",
        "k"
      ],
      [
        "Ġspr",
        "ing"
      ],
      [
        "Ġ",
        "B"
      ],
      [
        "Ġov",
        "er"
      ],
      [
        "Ġ5",
        "0"
      ],
      [
        "in",
        "ute"
      ],
      [
        "Ġm",
        "inute"
      ],
      [
        "Ġe",
        "x"
      ],
      [
        "Ġminute",
        "s"
      ],
      [
        "ĠF",
        "or"
      ],
      [
        "Ġwe",
        "ight"
      ],
      [
        "Ġl",
        "i"
      ],
      [
        "Ġpar",
        "t"
      ],
      [
        "Ġha",
        "ve"
      ],
      [
        "erat",
        "ure"
      ],
      [
        "Ġtemp",
        "erature"
      ],
      [
        "Ġb",
        "l"
      ],
      [
        "ĠI",
        "f"
      ],
      [
        "o",
        "p"
      ],
      [
        "ti",
        "c"
      ],
      [
        "c",
        "t"
      ],
      [
        "m",
        "a"
      ],
      [
        "Ġm",
        "o"
      ],
      [
        "m",
        "ed"
      ],
      [
        "v",
        "er"
      ],
      [
        "m",
        "b"
      ],
      [
        "es",
        "tion"
      ],
      [
        "Ġqu",
        "estion"
      ],
      [
        "ac",
        "e"
      ],
      [
        "f",
        "ore"
      ],
      [
        "Ġbe",
        "fore"
      ],
      [
        "Ġk",
        "eep"
      ],
      [
        "Ġs",
        "alt"
      ],
      [
        "Ġf",
        "eed"
      ],
      [
        "ar",
        "m"
      ],
      [
        "Ġbu",
        "ild"
      ],
      [
        "Ġh",
        "as"
      ],
      [
        "Ġ3",
        "0"
      ],
      [
        "Ġdo",
        "es"
      ],
      [
        "Ġ",
        "8"
      ],
      [
        "Ġp",
        "re"
      ],
      [
        "a",
        "nt"
      ],
      [
        "Ġa",
        "l"
      ],
      [
        "Ġ",
        "j"
      ],
      [
        "Ġc",
        "on"
      ],
      [
        "Ġp",
        "er"
      ],
      [
        "i",
        "p"
      ],
      [
        "Ġcru",
        "mb"
      ],
      [
        "o",
        "m"
      ],
      [
        "Ġro",
        "om"
      ],
      [
        "a",
        "u"
      ],
      [
        "ic",
        "h"
      ],
      [
        "e",
        "l"
      ],
      [
        "ll",
        "o"
      ],
      [
        "ĠHe",
        "llo"
      ],
      [
        "ĠD",
        "u"
      ],
      [
        "ĠH",
        "i"
      ],
      [
        "h",
        "oo"
      ],
      [
        "r",
        "oubles"
      ],
      [
        "ĠT",
        "roubles"
      ],
      [
        "hoo",
        "ting"
      ],
      [
        "ĠTroubles",
        "hooting"
      ],
      [
        "Ġ7",
        "5"
      ],
      [
        "Ġfold",
        "s"
      ],
      [
        "Ġ1",
        "2"
      ],
      [
        "Ġac",
        "id"
      ],
      [
        "ow",
        "n"
      ],
      [
        "y",
        "e"
      ],
      [
        "Ġs",
        "e"
      ],
      [
        "Ġt",
        "ra"
      ],
      [
        "Ġr",
        "ye"
      ],
      [
        "oo",
        "l"
      ],
      [
        "d",
        "d"
      ],
      [
        "Ġper",
        "c"
      ],
      [
        "c",
        "ard"
      ],
      [
        "i",
        "ent"
      ],
      [
        "Ġ",
        "/"
      ],
      [
        "ĠHe",
        "y"
      ],
      [
        "ĠT",
        "he"
      ],
      [
        "Q",
        "u"
      ],
      [
        "Ġ",
        "Qu"
      ],
      [
        "ĠQu",
        "ick"
      ],
      [
        "ble",
        "m"
      ],
      [
        "Ġpro",
        "blem"
      ],
      [
        "ĠHe",
        "lp"
      ],
      [
        "Ġthe",
        "n"
      ],
      [
        "id",
        "es"
      ],
      [
        "Ġperc",
        "enta"
      ],
      [
        "Ġhe",
        "lp"
      ],
      [
        "Ġa",
        "dd"
      ],
      [
        "is",
        "t"
      ],
      [
        "Ġw",
        "arm"
      ],
      [
        "ve",
        "l"
      ],
      [
        "Ġa",
        "ll"
      ],
      [
        "ak",
        "e"
      ],
      [
        "Ġstre",
        "tch"
      ],
      [
        "Ġte",
        "ar"
      ],
      [
        "Ġsti",
        "ck"
      ],
      [
        "nd",
        "ard"
      ],
      [
        "u",
        "n"
      ],
      [
        "i",
        "on"
      ],
      [
        "ly",
        "se"
      ],
      [
        "Ġa",
        "re"
      ],
      [
        "ĠDu",
        "tch"
      ],
      [
        "in",
        "s"
      ],
      [
        "Ġshap",
        "e"
      ],
      [
        "Ġt",
        "ur"
      ],
      [
        "Ġbu",
        "b"
      ],
      [
        "Ġpercenta",
        "ge"
      ],
      [
        "'",
        "s"
      ],
      [
        "ta",
        "r"
      ],
      [
        "Ġshap",
        "ing"
      ],
      [
        "Ġ",
        "M"
      ],
      [
        "ta",
        "l"
      ],
      [
        "ic",
        "e"
      ],
      [
        "Ġl",
        "ong"
      ],
      [
        "Ġd",
        "own"
      ],
      [
        "Ġto",
        "tal"
      ],
      [
        "Ġha",
        "nd"
      ],
      [
        "nt",
        "il"
      ],
      [
        "Ġu",
        "ntil"
      ],
      [
        "Ġs",
        "ma"
      ],
      [
        "Ġbl",
        "is"
      ],
      [
        "Ġsma",
        "ll"
      ],
      [
        "Ġj",
        "ar"
      ],
      [
        "i",
        "r"
      ],
      [
        "%",
        "),"
      ],
      [
        "Ġs",
        "a"
      ],
      [
        "he",
        "d"
      ],
      [
        "l",
        "u"
      ],
      [
        "Ġ",
        "v"
      ],
      [
        "ro",
        "of"
      ],
      [
        "ti",
        "o"
      ],
      [
        "Ġra",
        "tio"
      ],
      [
        "i",
        "a"
      ],
      [
        "Ġc",
        "an"
      ],
      [
        "7",
        "5"
      ],
      [
        "Ġ1",
        "0"
      ],
      [
        "Ġe",
        "as"
      ],
      [
        "Ġpart",
        "s"
      ],
      [
        "Ġb",
        "o"
      ],
      [
        "Ġi",
        "f"
      ],
      [
        "p",
        "p"
      ],
      [
        "Ġa",
        "s"
      ],
      [
        "ĠI",
        "t"
      ],
      [
        "d",
        "u"
      ],
      [
        "Ġ2",
        "4"
      ],
      [
        "Ġpro",
        "v"
      ],
      [
        "ro",
        "w"
      ],
      [
        "Ġstick",
        "y"
      ],
      [
        "i",
        "x"
      ],
      [
        "Ġto",
        "o"
      ],
      [
        "Ġc",
        "ool"
      ],
      [
        "Ġp",
        "u"
      ],
      [
        "Ġwh",
        "ich"
      ],
      [
        "Ġco",
        "mple"
      ],
      [
        "Ġac",
        "ti"
      ],
      [
        "a",
        "tion"
      ],
      [
        "Ġb",
        "ot"
      ],
      [
        "to",
        "m"
      ],
      [
        "Ġbot",
        "tom"
      ],
      [
        "vel",
        "op"
      ],
      [
        "f",
        "ace"
      ],
      [
        "Ġs",
        "ur"
      ],
      [
        "Ġsur",
        "face"
      ],
      [
        "Ġstar",
        "t"
      ],
      [
        "f",
        "ri"
      ],
      [
        "Ġre",
        "fri"
      ],
      [
        "Ġrefri",
        "g"
      ],
      [
        "Ġf",
        "ro"
      ],
      [
        "Ġfro",
        "m"
      ],
      [
        "i",
        "le"
      ],
      [
        "Ġs",
        "me"
      ],
      [
        "Ġsme",
        "ll"
      ],
      [
        "5",
        "0"
      ],
      [
        "Ġsta",
        "ndard"
      ],
      [
        "Ġle",
        "t"
      ],
      [
        "Ġm",
        "ix"
      ],
      [
        "i",
        "m"
      ],
      [
        "Ġcon",
        "ta"
      ],
      [
        "Ġba",
        "ck"
      ],
      [
        "Ġg",
        "ent"
      ],
      [
        "Ġba",
        "g"
      ],
      [
        "tar",
        "d"
      ],
      [
        "ou",
        "nd"
      ],
      [
        "Ġc",
        "old"
      ],
      [
        "Ġpro",
        "te"
      ],
      [
        "s",
        "es"
      ],
      [
        "Ġm",
        "a"
      ],
      [
        "Ġtear",
        "ing"
      ],
      [
        "Ġbub",
        "bles"
      ],
      [
        "Ġs",
        "eed"
      ],
      [
        "u",
        "m"
      ],
      [
        "Ġro",
        "ll"
      ],
      [
        "i",
        "z"
      ],
      [
        "i",
        "me"
      ],
      [
        "r",
        "ong"
      ],
      [
        "Ġt",
        "ime"
      ],
      [
        "Ġe",
        "ar"
      ],
      [
        "in",
        "e"
      ],
      [
        "ter",
        "s"
      ],
      [
        "Ġh",
        "ot"
      ],
      [
        "Ġu",
        "p"
      ],
      [
        "er",
        "ate"
      ],
      [
        "Ġg",
        "ra"
      ],
      [
        "Ġin",
        "ch"
      ],
      [
        "Ġhand",
        "s"
      ],
      [
        "f",
        "erm"
      ],
      [
        "i",
        "ate"
      ],
      [
        "m",
        "med"
      ],
      [
        "Ġi",
        "mmed"
      ],
      [
        "iate",
        "ly"
      ],
      [
        "Ġimmed",
        "iately"
      ],
      [
        "i",
        "g"
      ],
      [
        "te",
        "red"
      ],
      [
        "Ġs",
        "k"
      ],
      [
        "Ġte",
        "st"
      ],
      [
        "Ġf",
        "ir"
      ],
      [
        "ĠF",
        "eed"
      ],
      [
        "Ġ3",
        "75"
      ],
      [
        "Ġfir",
        "st"
      ],
      [
        "i",
        "nder"
      ],
      [
        "u",
        "to"
      ],
      [
        "uto",
        "lyse"
      ],
      [
        "Ġeas",
        "i"
      ],
      [
        "au",
        "se"
      ],
      [
        "Ġst",
        "rong"
      ],
      [
        "ac",
        "k"
      ],
      [
        "Ġdis",
        "card"
      ],
      [
        "Ġp",
        "ap"
      ],
      [
        "Ġin",
        "c"
      ],
      [
        "Ġe",
        "ver"
      ],
      [
        "Ġpap",
        "er"
      ],
      [
        "Ġever",
        "y"
      ],
      [
        "Ġk",
        "n"
      ],
      [
        "Ġde",
        "g"
      ],
      [
        "Ġcu",
        "t"
      ],
      [
        "Ġre",
        "ad"
      ],
      [
        "Ġsk",
        "in"
      ],
      [
        "Ġon",
        "ly"
      ],
      [
        "Ġbe",
        "c"
      ],
      [
        "Ġwhe",
        "at"
      ],
      [
        "av",
        "or"
      ],
      [
        "Ġm",
        "ic"
      ],
      [
        "p",
        "roof"
      ],
      [
        "Ġs",
        "o"
      ],
      [
        "Ġeasi",
        "ly"
      ],
      [
        "tion",
        "s"
      ],
      [
        "Ġcomple",
        "te"
      ],
      [
        "Ġacti",
        "ve"
      ],
      [
        "in",
        "k"
      ],
      [
        "Ġpro",
        "du"
      ],
      [
        "Ġprodu",
        "c"
      ],
      [
        "Ġ",
        "out"
      ],
      [
        "Ġh",
        "igh"
      ],
      [
        "Ġon",
        "e"
      ],
      [
        "Ġprov",
        "ides"
      ],
      [
        "Ġtra",
        "pp"
      ],
      [
        "Ġtrapp",
        "ed"
      ],
      [
        "h",
        "l"
      ],
      [
        "hl",
        "or"
      ],
      [
        "Ġto",
        "p"
      ],
      [
        "Ġsti",
        "ff"
      ],
      [
        "Ġs",
        "u"
      ],
      [
        "Ġu",
        "n"
      ],
      [
        "Ġe",
        "qu"
      ],
      [
        "Ġbec",
        "ause"
      ],
      [
        "Ġequ",
        "al"
      ],
      [
        "ac",
        "hed"
      ],
      [
        "Ġs",
        "c"
      ],
      [
        "Ġd",
        "i"
      ],
      [
        "Ġd",
        "ire"
      ],
      [
        "Ġp",
        "l"
      ],
      [
        "ĠI",
        "n"
      ],
      [
        "Ġread",
        "y"
      ],
      [
        "a",
        "le"
      ],
      [
        "Ġstarter",
        "s"
      ],
      [
        "ent",
        "s"
      ],
      [
        "Ġmo",
        "ist"
      ],
      [
        "Ġte",
        "ns"
      ],
      [
        "Ġtens",
        "ion"
      ],
      [
        "Ġen",
        "ough"
      ],
      [
        "red",
        "ient"
      ],
      [
        "Ġu",
        "s"
      ],
      [
        "u",
        "nd"
      ],
      [
        "Ġ",
        "L"
      ],
      [
        "Ġab",
        "und"
      ],
      [
        "Ġabund",
        "ant"
      ],
      [
        "oo",
        "d"
      ],
      [
        "proof",
        "ed"
      ],
      [
        "c",
        "ip"
      ],
      [
        "Ġre",
        "cip"
      ],
      [
        "ĠA",
        "n"
      ],
      [
        "Ġtur",
        "ns"
      ],
      [
        "Ġ",
        "Us"
      ],
      [
        "ĠUs",
        "e"
      ],
      [
        "ĠS",
        "h"
      ],
      [
        "Ġgra",
        "ins"
      ],
      [
        "Ġwh",
        "ile"
      ],
      [
        "Ġm",
        "ore"
      ],
      [
        "z",
        "y"
      ],
      [
        "Ġconta",
        "in"
      ],
      [
        "et",
        "on"
      ],
      [
        "Ġs",
        "of"
      ],
      [
        "Ġsof",
        "t"
      ],
      [
        "Ġ",
        "ing"
      ],
      [
        "qu",
        "id"
      ],
      [
        "Ġli",
        "quid"
      ],
      [
        "Ġing",
        "redient"
      ],
      [
        "Ġp",
        "an"
      ],
      [
        "Ġprote",
        "in"
      ],
      [
        "Ġra",
        "ck"
      ],
      [
        "Ġm",
        "old"
      ],
      [
        "g",
        "le"
      ],
      [
        "i",
        "f"
      ],
      [
        "erat",
        "or"
      ],
      [
        "Ġme",
        "an"
      ],
      [
        "Ġrefrig",
        "erator"
      ],
      [
        "Ġt",
        "in"
      ],
      [
        "Ġfl",
        "at"
      ],
      [
        "b",
        "es"
      ],
      [
        "i",
        "ve"
      ],
      [
        "Ġde",
        "velop"
      ],
      [
        "nt",
        "h"
      ],
      [
        "Ġmo",
        "nth"
      ],
      [
        "Ġw",
        "et"
      ],
      [
        "Ġ8",
        "0"
      ],
      [
        "a",
        "y"
      ],
      [
        "ul",
        "ate"
      ],
      [
        "te",
        "ad"
      ],
      [
        "er",
        "e"
      ],
      [
        "Ġins",
        "tead"
      ],
      [
        "Ġ",
        "ofte"
      ],
      [
        "Ġ",
        "op"
      ],
      [
        "Ġofte",
        "n"
      ],
      [
        "Ġop",
        "en"
      ],
      [
        "Ġn",
        "eed"
      ],
      [
        "m",
        "ent"
      ],
      [
        "Ġr",
        "ound"
      ],
      [
        "Ġtemperature",
        "s"
      ],
      [
        "Ġco",
        "il"
      ],
      [
        "Ġc",
        "au"
      ],
      [
        "Ġt",
        "ap"
      ],
      [
        "Ġt",
        "ak"
      ],
      [
        "u",
        "me"
      ],
      [
        "ol",
        "ume"
      ],
      [
        "Ġv",
        "olume"
      ],
      [
        "en",
        "s"
      ],
      [
        "ar",
        "k"
      ],
      [
        "Ġn",
        "ot"
      ],
      [
        "ov",
        "er"
      ],
      [
        "i",
        "al"
      ],
      [
        "Ġspring",
        "s"
      ],
      [
        "Ġmonth",
        "s"
      ],
      [
        "Ġg",
        "re"
      ],
      [
        "Ġs",
        "af"
      ],
      [
        "es",
        "t"
      ],
      [
        "Ġsaf",
        "e"
      ],
      [
        "Ġc",
        "en"
      ],
      [
        "ĠM",
        "y"
      ],
      [
        "Ġpu",
        "ll"
      ],
      [
        "Ġcen",
        "ter"
      ],
      [
        "ov",
        "e"
      ],
      [
        "Ġblis",
        "tered"
      ],
      [
        "l",
        "ic"
      ],
      [
        "s",
        "ed"
      ],
      [
        "ou",
        "p"
      ],
      [
        "Ġs",
        "oup"
      ],
      [
        "b",
        "b"
      ],
      [
        "u",
        "bb"
      ],
      [
        "Ġs",
        "w"
      ],
      [
        "Ġr",
        "ubb"
      ],
      [
        "Ġth",
        "at"
      ],
      [
        "Ġsmell",
        "s"
      ],
      [
        "%",
        "."
      ],
      [
        "z",
        "e"
      ],
      [
        "ch",
        "ment"
      ],
      [
        "Ġre",
        "st"
      ],
      [
        "Ġpar",
        "chment"
      ],
      [
        "l",
        "inder"
      ],
      [
        "y",
        "linder"
      ],
      [
        "Ġc",
        "ylinder"
      ],
      [
        "r",
        "id"
      ],
      [
        "Ġf",
        "rid"
      ],
      [
        "re",
        "e"
      ],
      [
        "Ġ6",
        "0"
      ],
      [
        "Ġadd",
        "ing"
      ],
      [
        "Ġfrid",
        "ge"
      ],
      [
        "u",
        "t"
      ],
      [
        "over",
        "ed"
      ],
      [
        "2",
        "0"
      ],
      [
        "Ġb",
        "en"
      ],
      [
        "le",
        "as"
      ],
      [
        "ĠD",
        "o"
      ],
      [
        "Ġgent",
        "ly"
      ],
      [
        "Ġbag",
        "s"
      ],
      [
        "ĠA",
        "t"
      ],
      [
        "Ġ7",
        "0"
      ],
      [
        "t",
        "h"
      ],
      [
        "Ġ",
        "9"
      ],
      [
        "Ġl",
        "am"
      ],
      [
        "r",
        "on"
      ],
      [
        "Ġ",
        "ice"
      ],
      [
        "Ġa",
        "r"
      ],
      [
        "Ġ5",
        "00"
      ],
      [
        "b",
        "ly"
      ],
      [
        "Ġd",
        "oubles"
      ],
      [
        "ss",
        "ent"
      ],
      [
        "Ġe",
        "ssent"
      ],
      [
        "Ġsl",
        "ic"
      ],
      [
        "Ġ6",
        "5"
      ],
      [
        "Ġessent",
        "ial"
      ],
      [
        "Ġpro",
        "of"
      ],
      [
        "k",
        "e"
      ],
      [
        "ĠT",
        "h"
      ],
      [
        "6",
        "8"
      ],
      [
        "Ġroom",
        "s"
      ],
      [
        "Ġs",
        "ig"
      ],
      [
        "Ġre",
        "tard"
      ],
      [
        "c",
        "o"
      ],
      [
        "ow",
        "s"
      ],
      [
        "Ġsh",
        "ows"
      ],
      [
        "Ġdo",
        "med"
      ],
      [
        "Ġ",
        "ou"
      ],
      [
        "Ġl",
        "ac"
      ],
      [
        "Ġall",
        "ow"
      ],
      [
        "Ġinc",
        "lu"
      ],
      [
        "avor",
        "s"
      ],
      [
        "Ġou",
        "ter"
      ],
      [
        "Ġlac",
        "tic"
      ],
      [
        "c",
        "ter"
      ],
      [
        "x",
        "im"
      ],
      [
        "Ġba",
        "cter"
      ],
      [
        "ll",
        "ap"
      ],
      [
        "Ġco",
        "llap"
      ],
      [
        "Ġma",
        "xim"
      ],
      [
        "Ġproduc",
        "ing"
      ],
      [
        "Ġbacter",
        "ia"
      ],
      [
        "Ġcollap",
        "ses"
      ],
      [
        "Ġmaxim",
        "um"
      ],
      [
        "v",
        "ing"
      ],
      [
        "Ġp",
        "ink"
      ],
      [
        "Ġl",
        "id"
      ],
      [
        "a",
        "il"
      ],
      [
        "o",
        "at"
      ],
      [
        "v",
        "ide"
      ],
      [
        "Ġfl",
        "oat"
      ],
      [
        "Ġsc",
        "or"
      ],
      [
        "Ġrubb",
        "er"
      ],
      [
        "Ġc",
        "hlor"
      ],
      [
        "et",
        "h"
      ],
      [
        "ĠT",
        "o"
      ],
      [
        "2",
        "4"
      ],
      [
        "e",
        "at"
      ],
      [
        "p",
        "id"
      ],
      [
        "Ġ",
        "R"
      ],
      [
        "Ġ2",
        "7"
      ],
      [
        "Ġra",
        "pid"
      ],
      [
        "Ġrapid",
        "ly"
      ],
      [
        ")",
        "."
      ],
      [
        "Ġsl",
        "ack"
      ],
      [
        "Ġblis",
        "ters"
      ],
      [
        "a",
        "mple"
      ],
      [
        "r",
        "y"
      ],
      [
        "is",
        "card"
      ],
      [
        "as",
        "te"
      ],
      [
        "ĠD",
        "iscard"
      ],
      [
        "Ġex",
        "ample"
      ],
      [
        "Ġkeep",
        "ing"
      ],
      [
        "Ġb",
        "at"
      ],
      [
        "ic",
        "ient"
      ],
      [
        "erm",
        "ent"
      ],
      [
        "ĠF",
        "erment"
      ],
      [
        "ff",
        "icient"
      ],
      [
        "Ġdis",
        "s"
      ],
      [
        "Ġmic",
        "ro"
      ],
      [
        "Ġbat",
        "ch"
      ],
      [
        "s",
        "h"
      ],
      [
        "in",
        "iz"
      ],
      [
        "at",
        "iniz"
      ],
      [
        "Ġg",
        "el"
      ],
      [
        "ĠDo",
        "es"
      ],
      [
        "Ġgel",
        "atiniz"
      ],
      [
        "Ġi",
        "nd"
      ],
      [
        "Ġbuild",
        "ing"
      ],
      [
        "s",
        "o"
      ],
      [
        "ĠW",
        "ith"
      ],
      [
        "ru",
        "ct"
      ],
      [
        "Ġst",
        "ruct"
      ],
      [
        "Ġal",
        "so"
      ],
      [
        "Ġstruct",
        "ure"
      ],
      [
        "Ġof",
        "f"
      ],
      [
        "oo",
        "k"
      ],
      [
        "ar",
        "ge"
      ],
      [
        "Ġl",
        "arge"
      ],
      [
        "Ġkeep",
        "s"
      ],
      [
        "Ġmean",
        "s"
      ],
      [
        "ure",
        "s"
      ],
      [
        "Ġs",
        "ee"
      ],
      [
        "Ġa",
        "erate"
      ],
      [
        "Ġm",
        "ake"
      ],
      [
        "Ġcu",
        "p"
      ],
      [
        "Ġsig",
        "n"
      ],
      [
        "Ġf",
        "ail"
      ],
      [
        "Ġh",
        "al"
      ],
      [
        "ce",
        "ss"
      ],
      [
        "Ġhal",
        "f"
      ],
      [
        "i",
        "ti"
      ],
      [
        "Ġf",
        "ood"
      ],
      [
        "to",
        "re"
      ],
      [
        "ri",
        "ents"
      ],
      [
        "ut",
        "rients"
      ],
      [
        "ck",
        "s"
      ],
      [
        "Ġlo",
        "av"
      ],
      [
        "Ġloav",
        "es"
      ],
      [
        "e",
        "ver"
      ],
      [
        "Ġre",
        "qu"
      ],
      [
        "Ġrequ",
        "ire"
      ],
      [
        "g",
        "ry"
      ],
      [
        "Ġh",
        "un"
      ],
      [
        "Ġn",
        "o"
      ],
      [
        "Ġhun",
        "gry"
      ],
      [
        "c",
        "ol"
      ],
      [
        "or",
        "ation"
      ],
      [
        "Ġdis",
        "col"
      ],
      [
        "Ġdiscol",
        "oration"
      ],
      [
        "Ġmoist",
        "ure"
      ],
      [
        "Ġscor",
        "ing"
      ],
      [
        "c",
        "he"
      ],
      [
        "Ġstar",
        "che"
      ],
      [
        "Ġbak",
        "ed"
      ],
      [
        "Ġsti",
        "r"
      ],
      [
        "Ġan",
        "y"
      ],
      [
        "Ġstarche",
        "s"
      ],
      [
        "s",
        "or"
      ],
      [
        "te",
        "d"
      ],
      [
        "et",
        "w"
      ],
      [
        "Ġro",
        "cks"
      ],
      [
        "Ġab",
        "sor"
      ],
      [
        "ĠB",
        "ake"
      ],
      [
        "ferm",
        "entation"
      ],
      [
        "Ġdire",
        "ct"
      ],
      [
        "Ġabsor",
        "b"
      ],
      [
        "Ġc",
        "le"
      ],
      [
        "Ġcle",
        "an"
      ],
      [
        "Ġd",
        "eep"
      ],
      [
        "ent",
        "ing"
      ],
      [
        "ant",
        "ly"
      ],
      [
        "Ġmix",
        "es"
      ],
      [
        "e",
        "tic"
      ],
      [
        "Ġac",
        "etic"
      ],
      [
        "d",
        "ed"
      ],
      [
        "Ġ",
        "O"
      ],
      [
        "Ġw",
        "ild"
      ],
      [
        "ra",
        "ded"
      ],
      [
        "ble",
        "ached"
      ],
      [
        "Ġdeg",
        "raded"
      ],
      [
        "Ġun",
        "bleached"
      ],
      [
        "Ġsoup",
        "y"
      ],
      [
        "Ġus",
        "ing"
      ],
      [
        "Ġh",
        "oo"
      ],
      [
        "ĠP",
        "our"
      ],
      [
        "Ġhoo",
        "ch"
      ],
      [
        "Ġt",
        "aste"
      ],
      [
        "Ġb",
        "est"
      ],
      [
        "nt",
        "ire"
      ],
      [
        "as",
        "e"
      ],
      [
        "Ġe",
        "ntire"
      ],
      [
        "Ġins",
        "ide"
      ],
      [
        "Ġex",
        "cess"
      ],
      [
        "g",
        "eth"
      ],
      [
        "s",
        "ion"
      ],
      [
        "re",
        "he"
      ],
      [
        "Ġto",
        "geth"
      ],
      [
        "ĠA",
        "utolyse"
      ],
      [
        "Ġhydra",
        "te"
      ],
      [
        "ĠP",
        "rehe"
      ],
      [
        "Ġinclu",
        "sion"
      ],
      [
        "Ġtogeth",
        "er"
      ],
      [
        "ĠPrehe",
        "at"
      ],
      [
        "Ġinclusion",
        "s"
      ],
      [
        "o",
        "c"
      ],
      [
        "u",
        "ch"
      ],
      [
        "Ġm",
        "uch"
      ],
      [
        "Ġcomplete",
        "ly"
      ],
      [
        "Ġen",
        "zy"
      ],
      [
        "Ġtur",
        "n"
      ],
      [
        "a",
        "in"
      ],
      [
        "at",
        "ing"
      ],
      [
        "Ġb",
        "row"
      ],
      [
        "Ġbrow",
        "n"
      ],
      [
        "ĠWh",
        "ole"
      ],
      [
        "Ġste",
        "el"
      ],
      [
        "is",
        "h"
      ],
      [
        "Ġrecip",
        "e"
      ],
      [
        "o",
        "se"
      ],
      [
        "p",
        "ur"
      ],
      [
        "p",
        "ose"
      ],
      [
        "Ġcu",
        "bes"
      ],
      [
        "pur",
        "pose"
      ],
      [
        "or",
        "m"
      ],
      [
        "w",
        "ay"
      ],
      [
        "Ġal",
        "way"
      ],
      [
        "Ġalway",
        "s"
      ],
      [
        "g",
        "es"
      ],
      [
        "w",
        "ich"
      ],
      [
        "nd",
        "wich"
      ],
      [
        "Ġsa",
        "ndwich"
      ],
      [
        "ĠSh",
        "ould"
      ],
      [
        "he",
        "n"
      ],
      [
        "ĠW",
        "hen"
      ],
      [
        "l",
        "o"
      ],
      [
        "v",
        "ain"
      ],
      [
        "re",
        "ate"
      ],
      [
        "Ġc",
        "reate"
      ],
      [
        "Ġh",
        "old"
      ],
      [
        "Ġle",
        "vain"
      ],
      [
        "ou",
        "le"
      ],
      [
        "Ġb",
        "oule"
      ],
      [
        "Ġp",
        "ale"
      ],
      [
        "as",
        "tic"
      ],
      [
        "Ġpl",
        "astic"
      ],
      [
        "te",
        "n"
      ],
      [
        "c",
        "ulate"
      ],
      [
        "Ġc",
        "al"
      ],
      [
        "Ġcal",
        "culate"
      ],
      [
        "Ġd",
        "id"
      ],
      [
        "Ġth",
        "in"
      ],
      [
        "f",
        "ter"
      ],
      [
        "n",
        "er"
      ],
      [
        "Ġa",
        "fter"
      ],
      [
        "or",
        "k"
      ],
      [
        "Ġproof",
        "ing"
      ],
      [
        "o",
        "lyse"
      ],
      [
        "a",
        "ss"
      ],
      [
        "w",
        "o"
      ],
      [
        "Ġt",
        "wo"
      ],
      [
        "g",
        "g"
      ],
      [
        "Ġsa",
        "ve"
      ],
      [
        "gg",
        "ish"
      ],
      [
        "n",
        "n"
      ],
      [
        "Ġba",
        "nn"
      ],
      [
        "Ġle",
        "ss"
      ],
      [
        "Ġbann",
        "eton"
      ],
      [
        "f",
        "orm"
      ],
      [
        "m",
        "ul"
      ],
      [
        "Ġba",
        "tard"
      ],
      [
        "Ġab",
        "out"
      ],
      [
        "mul",
        "a"
      ],
      [
        "Ġli",
        "f"
      ],
      [
        "Ġcau",
        "ses"
      ],
      [
        "Ġtak",
        "ing"
      ],
      [
        "Ġf",
        "ing"
      ],
      [
        "Ġma",
        "in"
      ],
      [
        "Ġfing",
        "er"
      ],
      [
        "Ġd",
        "ark"
      ],
      [
        "Ġa",
        "utolyse"
      ],
      [
        "Ġsl",
        "ow"
      ],
      [
        "n",
        "g"
      ],
      [
        "ak",
        "er"
      ],
      [
        "ĠB",
        "aker"
      ],
      [
        "Ġkn",
        "ow"
      ],
      [
        "i",
        "qu"
      ],
      [
        "l",
        "er"
      ],
      [
        "Ġg",
        "ive"
      ],
      [
        "Ġsti",
        "tch"
      ],
      [
        "Ġth",
        "an"
      ],
      [
        "Ġen",
        "velop"
      ],
      [
        "Ġgent",
        "ler"
      ],
      [
        "Ġenvelop",
        "e"
      ],
      [
        "v",
        "ent"
      ],
      [
        "en",
        "ted"
      ],
      [
        "Ġpre",
        "vent"
      ],
      [
        "Ġear",
        "ly"
      ],
      [
        "ferm",
        "ented"
      ],
      [
        "w",
        "ard"
      ],
      [
        "Ġto",
        "ward"
      ],
      [
        "Ġtoward",
        "s"
      ],
      [
        "g",
        "in"
      ],
      [
        "ap",
        "e"
      ],
      [
        "ree",
        "ze"
      ],
      [
        "gin",
        "ner"
      ],
      [
        "Ġm",
        "ad"
      ],
      [
        "ra",
        "te"
      ],
      [
        "Ġfeed",
        "ing"
      ],
      [
        "Ġsta",
        "y"
      ],
      [
        "Ġ7",
        "8"
      ],
      [
        "Ġingredient",
        "s"
      ],
      [
        "s",
        "ide"
      ],
      [
        "lo",
        "sed"
      ],
      [
        "Ġ",
        "ide"
      ],
      [
        "ou",
        "ble"
      ],
      [
        "Ġd",
        "ouble"
      ],
      [
        "Ġre",
        "m"
      ],
      [
        "Ġrefrig",
        "erate"
      ],
      [
        "Ġide",
        "al"
      ],
      [
        "v",
        "en"
      ],
      [
        "Ġe",
        "ven"
      ],
      [
        "Ġdevelop",
        "ed"
      ],
      [
        "Ġt",
        "ru"
      ],
      [
        "Ġli",
        "ke"
      ],
      [
        "Ġtru",
        "e"
      ],
      [
        "Ġpre",
        "s"
      ],
      [
        "m",
        "y"
      ],
      [
        "Ġg",
        "um"
      ],
      [
        "an",
        "ce"
      ],
      [
        "ten",
        "ance"
      ],
      [
        "Ġmain",
        "tenance"
      ],
      [
        "Ġgum",
        "my"
      ],
      [
        "i",
        "ll"
      ],
      [
        "Ġm",
        "an"
      ],
      [
        "ak",
        "en"
      ],
      [
        "Ġme",
        "as"
      ],
      [
        "o",
        "il"
      ],
      [
        "Ġh",
        "ole"
      ],
      [
        "Ġre",
        "g"
      ],
      [
        "Ġhole",
        "s"
      ],
      [
        "'",
        "t"
      ],
      [
        "b",
        "l"
      ],
      [
        "is",
        "ters"
      ],
      [
        "Ġac",
        "eton"
      ],
      [
        "av",
        "y"
      ],
      [
        "Ġhe",
        "avy"
      ],
      [
        "bl",
        "isters"
      ],
      [
        "Ġaceton",
        "e"
      ],
      [
        "Ġh",
        "ard"
      ],
      [
        "ate",
        "d"
      ],
      [
        "u",
        "al"
      ],
      [
        "Ġhe",
        "alt"
      ],
      [
        "Ġhealt",
        "h"
      ],
      [
        "Ġf",
        "avors"
      ],
      [
        "ee",
        "ter"
      ],
      [
        "Ġacid",
        "ic"
      ],
      [
        "Ġtin",
        "y"
      ],
      [
        "Ġgre",
        "ater"
      ],
      [
        "Ġsw",
        "eeter"
      ],
      [
        "g",
        "ar"
      ],
      [
        "l",
        "our"
      ],
      [
        "t",
        "re"
      ],
      [
        "er",
        "ving"
      ],
      [
        "Ġre",
        "leas"
      ],
      [
        "ĠF",
        "lour"
      ],
      [
        "ĠC",
        "oil"
      ],
      [
        "Ġle",
        "av"
      ],
      [
        "ĠS",
        "tre"
      ],
      [
        "Ġde",
        "lic"
      ],
      [
        "Ġstre",
        "ng"
      ],
      [
        "Ġpre",
        "ss"
      ],
      [
        "Ġroll",
        "s"
      ],
      [
        "Ġneed",
        "ed"
      ],
      [
        "Ġpull",
        "ing"
      ],
      [
        "Ġind",
        "entation"
      ],
      [
        "Ġlif",
        "ting"
      ],
      [
        "Ġslow",
        "ly"
      ],
      [
        "Ġpres",
        "erving"
      ],
      [
        "Ġreleas",
        "es"
      ],
      [
        "Ġleav",
        "ing"
      ],
      [
        "ĠStre",
        "tch"
      ],
      [
        "Ġdelic",
        "ate"
      ],
      [
        "Ġstreng",
        "th"
      ],
      [
        "in",
        "u"
      ],
      [
        "Ġw",
        "ee"
      ],
      [
        "Ġg",
        "old"
      ],
      [
        "an",
        "ge"
      ],
      [
        "Ġtra",
        "ck"
      ],
      [
        "Ġsa",
        "mple"
      ],
      [
        "Ġwee",
        "k"
      ],
      [
        "Ġgold",
        "en"
      ],
      [
        "Ġm",
        "at"
      ],
      [
        "1",
        "9"
      ],
      [
        "p",
        "s"
      ],
      [
        "z",
        "a"
      ],
      [
        "on",
        "e"
      ],
      [
        "Ġc",
        "row"
      ],
      [
        "Ġp",
        "iz"
      ],
      [
        "as",
        "ed"
      ],
      [
        "Ġr",
        "im"
      ],
      [
        "Ġst",
        "one"
      ],
      [
        "Ġ3",
        "5"
      ],
      [
        "Ġ4",
        "0"
      ],
      [
        "Ġab",
        "ove"
      ],
      [
        "ĠP",
        "roof"
      ],
      [
        "Ġpl",
        "ace"
      ],
      [
        "Ġrecip",
        "es"
      ],
      [
        "ĠSh",
        "ape"
      ],
      [
        "Ġgre",
        "ased"
      ],
      [
        "Ġslic",
        "es"
      ],
      [
        "Ġrem",
        "ove"
      ],
      [
        "19",
        "0"
      ],
      [
        "Ġcrow",
        "ns"
      ],
      [
        "Ġpiz",
        "za"
      ],
      [
        "u",
        "p"
      ],
      [
        "Ġf",
        "re"
      ],
      [
        "Ġr",
        "ice"
      ],
      [
        "Ġal",
        "iqu"
      ],
      [
        "Ġfre",
        "sh"
      ],
      [
        "Ġaliqu",
        "ot"
      ],
      [
        "2",
        "6"
      ],
      [
        "e",
        "p"
      ],
      [
        "l",
        "ia"
      ],
      [
        "Ġc",
        "overed"
      ],
      [
        "Ġg",
        "row"
      ],
      [
        "Ġre",
        "lia"
      ],
      [
        "Ġwith",
        "in"
      ],
      [
        "Ġth",
        "ere"
      ],
      [
        "Ġfeed",
        "s"
      ],
      [
        "ĠR",
        "ep"
      ],
      [
        "Ġrelia",
        "bly"
      ],
      [
        "ĠRep",
        "eat"
      ],
      [
        "Ġfor",
        "mula"
      ],
      [
        "Ġor",
        "ange"
      ],
      [
        "ile",
        "d"
      ],
      [
        "Ġdiss",
        "ol"
      ],
      [
        "%",
        ")."
      ],
      [
        "1",
        "00"
      ],
      [
        "7",
        "0"
      ],
      [
        "7",
        "2"
      ],
      [
        "i",
        "ant"
      ],
      [
        "o",
        "id"
      ],
      [
        "s",
        "lic"
      ],
      [
        "v",
        "oid"
      ],
      [
        "Ġa",
        "ir"
      ],
      [
        "gh",
        "t"
      ],
      [
        "or",
        "tions"
      ],
      [
        "ti",
        "ght"
      ],
      [
        "Ġp",
        "ortions"
      ],
      [
        "Ġ2",
        "00"
      ],
      [
        "ĠA",
        "void"
      ],
      [
        "ĠF",
        "reeze"
      ],
      [
        "ĠS",
        "tore"
      ],
      [
        "Ġ7",
        "20"
      ],
      [
        "Ġ100",
        "0"
      ],
      [
        "Ġse",
        "ale"
      ],
      [
        "Ġbo",
        "x"
      ],
      [
        "Ġbo",
        "ard"
      ],
      [
        "Ġcut",
        "ting"
      ],
      [
        "Ġdi",
        "vide"
      ],
      [
        "Ġ9",
        "70"
      ],
      [
        "Ġrubber",
        "y"
      ],
      [
        "slic",
        "ed"
      ],
      [
        "Ġair",
        "tight"
      ],
      [
        "Ġseale",
        "d"
      ],
      [
        "7",
        "8"
      ],
      [
        "b",
        "ute"
      ],
      [
        "c",
        "hed"
      ],
      [
        "c",
        "overed"
      ],
      [
        "c",
        "losed"
      ],
      [
        "t",
        "ched"
      ],
      [
        "Ġ",
        "end"
      ],
      [
        "Ġs",
        "ides"
      ],
      [
        "Ġt",
        "ight"
      ],
      [
        "in",
        "ation"
      ],
      [
        "Ġb",
        "le"
      ],
      [
        "nt",
        "inu"
      ],
      [
        "ro",
        "ss"
      ],
      [
        "Ġba",
        "ll"
      ],
      [
        "Ġ2",
        "6"
      ],
      [
        "Ġ2",
        "8"
      ],
      [
        "ĠF",
        "old"
      ],
      [
        "ĠD",
        "ist"
      ],
      [
        "Ġac",
        "ross"
      ],
      [
        "Ġco",
        "ntinu"
      ],
      [
        "ri",
        "bute"
      ],
      [
        "Ġris",
        "es"
      ],
      [
        "Ġen",
        "closed"
      ],
      [
        "Ġstre",
        "tched"
      ],
      [
        "Ġ8",
        "2"
      ],
      [
        "Ġse",
        "am"
      ],
      [
        "Ġse",
        "co"
      ],
      [
        "Ġun",
        "covered"
      ],
      [
        "Ġlam",
        "ination"
      ],
      [
        "Ġar",
        "ound"
      ],
      [
        "Ġeven",
        "ly"
      ],
      [
        "Ġble",
        "ached"
      ],
      [
        "ĠDist",
        "ribute"
      ],
      [
        "Ġcontinu",
        "es"
      ],
      [
        "Ġseco",
        "nd"
      ],
      [
        "Ġs",
        "to"
      ],
      [
        "ro",
        "pp"
      ],
      [
        "Ġl",
        "ow"
      ],
      [
        "Ġ1",
        "1"
      ],
      [
        "Ġ1",
        "4"
      ],
      [
        "ĠA",
        "ll"
      ],
      [
        "ĠD",
        "ropp"
      ],
      [
        "Ġan",
        "gle"
      ],
      [
        "Ġins",
        "tant"
      ],
      [
        "ĠB",
        "read"
      ],
      [
        "Ġbl",
        "ast"
      ],
      [
        "Ġcrumb",
        "s"
      ],
      [
        "Ġlong",
        "er"
      ],
      [
        "Ġlam",
        "e"
      ],
      [
        "Ġlow",
        "er"
      ],
      [
        "ĠDropp",
        "ing"
      ],
      [
        "c",
        "ent"
      ],
      [
        "t",
        "is"
      ],
      [
        "Ġ",
        "ed"
      ],
      [
        "Ġsh",
        "aken"
      ],
      [
        "ight",
        "ly"
      ],
      [
        "ns",
        "lu"
      ],
      [
        "ul",
        "k"
      ],
      [
        "Ġsl",
        "ightly"
      ],
      [
        "Ġtemp",
        "s"
      ],
      [
        "ff",
        "y"
      ],
      [
        "ĠB",
        "ulk"
      ],
      [
        "Ġj",
        "ig"
      ],
      [
        "Ġtra",
        "nslu"
      ],
      [
        "Ġpu",
        "ffy"
      ],
      [
        "ĠL",
        "ook"
      ],
      [
        "gle",
        "s"
      ],
      [
        "Ġround",
        "ed"
      ],
      [
        "Ġar",
        "tis"
      ],
      [
        "Ġaerate",
        "d"
      ],
      [
        "Ġed",
        "ges"
      ],
      [
        "Ġjig",
        "gles"
      ],
      [
        "Ġtranslu",
        "cent"
      ],
      [
        "Ġartis",
        "an"
      ],
      [
        "l",
        "ass"
      ],
      [
        "p",
        "re"
      ],
      [
        "Ġc",
        "lass"
      ],
      [
        "ss",
        "es"
      ],
      [
        "ĠP",
        "er"
      ],
      [
        "Ġex",
        "pre"
      ],
      [
        "Ġclass",
        "ic"
      ],
      [
        "Ġexpre",
        "sses"
      ],
      [
        "Ġc",
        "ar"
      ],
      [
        "n",
        "el"
      ],
      [
        "Ġt",
        "un"
      ],
      [
        "Ġf",
        "il"
      ],
      [
        "en",
        "se"
      ],
      [
        "Ġtun",
        "nel"
      ],
      [
        "c",
        "tions"
      ],
      [
        "e",
        "ce"
      ],
      [
        "i",
        "ece"
      ],
      [
        "p",
        "le"
      ],
      [
        "r",
        "ough"
      ],
      [
        "Ġt",
        "ri"
      ],
      [
        "Ġt",
        "ake"
      ],
      [
        "Ġf",
        "ru"
      ],
      [
        "Ġp",
        "leas"
      ],
      [
        "Ġp",
        "iece"
      ],
      [
        "it",
        "y"
      ],
      [
        "Ġl",
        "ight"
      ],
      [
        "Ġg",
        "as"
      ],
      [
        "Ġth",
        "rough"
      ],
      [
        "Ġbub",
        "bly"
      ],
      [
        "Ġcool",
        "er"
      ],
      [
        "Ġsu",
        "fficient"
      ],
      [
        "Ġdire",
        "ctions"
      ],
      [
        "Ġfail",
        "s"
      ],
      [
        "Ġstir",
        "red"
      ],
      [
        "Ġmad",
        "e"
      ],
      [
        "Ġmeas",
        "ures"
      ],
      [
        "ple",
        "s"
      ],
      [
        "Ġtri",
        "ples"
      ],
      [
        "Ġfru",
        "ity"
      ],
      [
        "Ġpleas",
        "antly"
      ],
      [
        "Ġsufficient",
        "ly"
      ],
      [
        "Ġsto",
        "p"
      ],
      [
        "K",
        "eep"
      ],
      [
        "h",
        "ol"
      ],
      [
        "p",
        "or"
      ],
      [
        "Ġ",
        "Keep"
      ],
      [
        "Ġb",
        "re"
      ],
      [
        "xt",
        "ra"
      ],
      [
        "or",
        "por"
      ],
      [
        "Ġc",
        "ast"
      ],
      [
        "Ġl",
        "av"
      ],
      [
        "Ġe",
        "xtra"
      ],
      [
        "Ġi",
        "ron"
      ],
      [
        "ĠS",
        "lu"
      ],
      [
        "Ġal",
        "co"
      ],
      [
        "Ġprov",
        "ide"
      ],
      [
        "Ġinc",
        "orpor"
      ],
      [
        "Ġmic",
        "ron"
      ],
      [
        "Ġus",
        "ual"
      ],
      [
        "Ġbre",
        "ak"
      ],
      [
        "Ġlav",
        "a"
      ],
      [
        "ĠSlu",
        "ggish"
      ],
      [
        "Ġalco",
        "hol"
      ],
      [
        "Ġincorpor",
        "ate"
      ],
      [
        "Ġmicron",
        "utrients"
      ],
      [
        "Ġusual",
        "ly"
      ],
      [
        "b",
        "on"
      ],
      [
        "i",
        "ble"
      ],
      [
        "o",
        "x"
      ],
      [
        "r",
        "is"
      ],
      [
        "x",
        "ible"
      ],
      [
        "te",
        "am"
      ],
      [
        "Ġf",
        "le"
      ],
      [
        "Ġc",
        "ris"
      ],
      [
        "Ġp",
        "o"
      ],
      [
        "Ġin",
        "iti"
      ],
      [
        "ic",
        "ro"
      ],
      [
        "ĠS",
        "team"
      ],
      [
        "ĠThe",
        "y"
      ],
      [
        "ĠM",
        "icro"
      ],
      [
        "Ġdi",
        "ox"
      ],
      [
        "Ġallow",
        "ing"
      ],
      [
        "Ġgelatiniz",
        "ed"
      ],
      [
        "Ġgelatiniz",
        "es"
      ],
      [
        "Ġhard",
        "ens"
      ],
      [
        "Ġcar",
        "bon"
      ],
      [
        "Ġfle",
        "xible"
      ],
      [
        "Ġcris",
        "p"
      ],
      [
        "Ġiniti",
        "al"
      ],
      [
        "Ġdiox",
        "ide"
      ],
      [
        "l",
        "on"
      ],
      [
        "Ġa",
        "p"
      ],
      [
        "Ġl",
        "oo"
      ],
      [
        "se",
        "ly"
      ],
      [
        "Ġon",
        "ce"
      ],
      [
        "Ġferm",
        "enting"
      ],
      [
        "Ġco",
        "lon"
      ],
      [
        "Ġse",
        "al"
      ],
      [
        "Ġhealth",
        "y"
      ],
      [
        "Ġloo",
        "sely"
      ],
      [
        "Ġcolon",
        "y"
      ],
      [
        "a",
        "ill"
      ],
      [
        "h",
        "ase"
      ],
      [
        "s",
        "u"
      ],
      [
        "s",
        "ul"
      ],
      [
        "u",
        "fficient"
      ],
      [
        "Ġp",
        "hase"
      ],
      [
        "Ġre",
        "ac"
      ],
      [
        "Ġre",
        "sul"
      ],
      [
        "Ġwh",
        "ere"
      ],
      [
        "Ġins",
        "ufficient"
      ],
      [
        "Ġcon",
        "su"
      ],
      [
        "ĠM",
        "aill"
      ],
      [
        "Ġsu",
        "gar"
      ],
      [
        "Ġcau",
        "sed"
      ],
      [
        "Ġreac",
        "tion"
      ],
      [
        "Ġresul",
        "t"
      ],
      [
        "Ġconsu",
        "med"
      ],
      [
        "ĠMaill",
        "ard"
      ],
      [
        "Ġsugar",
        "s"
      ],
      [
        "Ġbo",
        "il"
      ],
      [
        "e",
        "ss"
      ],
      [
        "i",
        "vide"
      ],
      [
        "n",
        "ce"
      ],
      [
        "p",
        "ly"
      ],
      [
        "s",
        "id"
      ],
      [
        "u",
        "ess"
      ],
      [
        "Ġ",
        "="
      ],
      [
        "ti",
        "ply"
      ],
      [
        "Ġm",
        "ul"
      ],
      [
        "Ġm",
        "ark"
      ],
      [
        "ra",
        "ight"
      ],
      [
        "Ġba",
        "nd"
      ],
      [
        "Ġstar",
        "ting"
      ],
      [
        "Ġg",
        "uess"
      ],
      [
        "Ġr",
        "ight"
      ],
      [
        "ac",
        "t"
      ],
      [
        "ĠA",
        "s"
      ],
      [
        "Ġst",
        "raight"
      ],
      [
        "ĠD",
        "ivide"
      ],
      [
        "Ġ5",
        "50"
      ],
      [
        "Ġle",
        "vel"
      ],
      [
        "ĠS",
        "ourdough"
      ],
      [
        "Ġ6",
        "8"
      ],
      [
        "Ġex",
        "act"
      ],
      [
        "Ġmix",
        "ing"
      ],
      [
        "Ġcontain",
        "er"
      ],
      [
        "Ġtak",
        "en"
      ],
      [
        "Ġsafe",
        "ly"
      ],
      [
        "sid",
        "ed"
      ],
      [
        "Ġmul",
        "tiply"
      ],
      [
        "Ġguess",
        "ing"
      ],
      [
        "l",
        "ing"
      ],
      [
        "s",
        "ta"
      ],
      [
        "w",
        "er"
      ],
      [
        "te",
        "ns"
      ],
      [
        "Ġa",
        "m"
      ],
      [
        "Ġa",
        "ssistant"
      ],
      [
        "Ġa",
        "ns"
      ],
      [
        "Ġt",
        "igh"
      ],
      [
        "Ġd",
        "ed"
      ],
      [
        "Ġfl",
        "avor"
      ],
      [
        "id",
        "ent"
      ],
      [
        "ic",
        "ated"
      ],
      [
        "Ġferm",
        "ents"
      ],
      [
        "Ġra",
        "te"
      ],
      [
        "ĠS",
        "alt"
      ],
      [
        "Ġins",
        "ip"
      ],
      [
        "Ġquestion",
        "s"
      ],
      [
        "Ġhand",
        "ling"
      ],
      [
        "ulate",
        "s"
      ],
      [
        "ĠWith",
        "out"
      ],
      [
        "Ġtaste",
        "s"
      ],
      [
        "Ġreg",
        "ulates"
      ],
      [
        "sta",
        "ndard"
      ],
      [
        "Ġans",
        "wer"
      ],
      [
        "Ġtigh",
        "tens"
      ],
      [
        "Ġded",
        "icated"
      ],
      [
        "Ġinsip",
        "id"
      ],
      [
        "a",
        "ble"
      ],
      [
        "a",
        "ge"
      ],
      [
        "e",
        "ginner"
      ],
      [
        "Ġte",
        "nder"
      ],
      [
        "Ġsp",
        "read"
      ],
      [
        "ĠB",
        "eginner"
      ],
      [
        "Ġeas",
        "y"
      ],
      [
        "ĠTh",
        "is"
      ],
      [
        "Ġman",
        "age"
      ],
      [
        "Ġspread",
        "ing"
      ],
      [
        "ĠBeginner",
        "s"
      ],
      [
        "Ġmanage",
        "able"
      ],
      [
        "2",
        "3"
      ],
      [
        "e",
        "en"
      ],
      [
        "Ġb",
        "etw"
      ],
      [
        "Ġ2",
        "5"
      ],
      [
        "Ġ4",
        "75"
      ],
      [
        "Ġ4",
        "50"
      ],
      [
        "Ġ24",
        "5"
      ],
      [
        "Ġdeep",
        "ly"
      ],
      [
        "23",
        "0"
      ],
      [
        "Ġbetw",
        "een"
      ],
      [
        "b",
        "ed"
      ],
      [
        "d",
        "iant"
      ],
      [
        "f",
        "le"
      ],
      [
        "i",
        "te"
      ],
      [
        "l",
        "ace"
      ],
      [
        "m",
        "ol"
      ],
      [
        "n",
        "me"
      ],
      [
        "s",
        "ures"
      ],
      [
        "t",
        "y"
      ],
      [
        "Ġs",
        "he"
      ],
      [
        "Ġs",
        "et"
      ],
      [
        "nd",
        "ist"
      ],
      [
        "Ġa",
        "er"
      ],
      [
        "in",
        "a"
      ],
      [
        "or",
        "nme"
      ],
      [
        "Ġc",
        "ornme"
      ],
      [
        "ar",
        "t"
      ],
      [
        "ar",
        "se"
      ],
      [
        "Ġu",
        "ndist"
      ],
      [
        "Ġe",
        "mp"
      ],
      [
        "Ġre",
        "ma"
      ],
      [
        "ur",
        "bed"
      ],
      [
        "ac",
        "ed"
      ],
      [
        "Ġwh",
        "ite"
      ],
      [
        "Ġco",
        "arse"
      ],
      [
        "Ġsp",
        "aced"
      ],
      [
        "Ġra",
        "diant"
      ],
      [
        "Ġhe",
        "at"
      ],
      [
        "Ġsl",
        "ides"
      ],
      [
        "Ġen",
        "sures"
      ],
      [
        "Ġspr",
        "ink"
      ],
      [
        "Ġde",
        "fle"
      ],
      [
        "ĠP",
        "lace"
      ],
      [
        "ĠDu",
        "st"
      ],
      [
        "Ġse",
        "mol"
      ],
      [
        "ĠThe",
        "n"
      ],
      [
        "Ġconta",
        "ins"
      ],
      [
        "Ġben",
        "eat"
      ],
      [
        "ĠR",
        "ice"
      ],
      [
        "Ġdirect",
        "ly"
      ],
      [
        "Ġclean",
        "ly"
      ],
      [
        "ĠPer",
        "form"
      ],
      [
        "Ġap",
        "art"
      ],
      [
        "Ġshe",
        "et"
      ],
      [
        "Ġset",
        "s"
      ],
      [
        "Ġaer",
        "ation"
      ],
      [
        "Ġcornme",
        "al"
      ],
      [
        "Ġundist",
        "urbed"
      ],
      [
        "Ġemp",
        "ty"
      ],
      [
        "Ġrema",
        "inder"
      ],
      [
        "Ġsprink",
        "le"
      ],
      [
        "Ġdefle",
        "ct"
      ],
      [
        "Ġsemol",
        "ina"
      ],
      [
        "Ġbeneat",
        "h"
      ],
      [
        "3",
        "8"
      ],
      [
        "c",
        "ia"
      ],
      [
        "f",
        "ul"
      ],
      [
        "s",
        "tar"
      ],
      [
        "u",
        "z"
      ],
      [
        "Ġs",
        "our"
      ],
      [
        "Ġf",
        "oc"
      ],
      [
        "Ġf",
        "uz"
      ],
      [
        "or",
        "ough"
      ],
      [
        "Ġto",
        "ss"
      ],
      [
        "Ġp",
        "en"
      ],
      [
        "Ġfl",
        "avors"
      ],
      [
        "ĠH",
        "arm"
      ],
      [
        "an",
        "iti"
      ],
      [
        "ac",
        "cia"
      ],
      [
        "et",
        "rate"
      ],
      [
        "Ġ3",
        "50"
      ],
      [
        "Ġsp",
        "ore"
      ],
      [
        "Ġk",
        "ick"
      ],
      [
        "Ġn",
        "etw"
      ],
      [
        "ĠS",
        "aniti"
      ],
      [
        "Ġth",
        "orough"
      ],
      [
        "Ġtear",
        "s"
      ],
      [
        "Ġcomple",
        "x"
      ],
      [
        "Ġstrong",
        "ly"
      ],
      [
        "Ġproduc",
        "es"
      ],
      [
        "Ġstiff",
        "ens"
      ],
      [
        "Ġdevelop",
        "s"
      ],
      [
        "ĠFerment",
        "olyse"
      ],
      [
        "ĠO",
        "ver"
      ],
      [
        "Ġgrow",
        "th"
      ],
      [
        "star",
        "ting"
      ],
      [
        "Ġfoc",
        "accia"
      ],
      [
        "Ġfuz",
        "zy"
      ],
      [
        "Ġpen",
        "etrate"
      ],
      [
        "ĠHarm",
        "ful"
      ],
      [
        "Ġspore",
        "s"
      ],
      [
        "Ġkick",
        "starting"
      ],
      [
        "Ġnetw",
        "ork"
      ],
      [
        "ĠSaniti",
        "ze"
      ],
      [
        "Ġthorough",
        "ly"
      ],
      [
        "N",
        "ever"
      ],
      [
        "a",
        "nd"
      ],
      [
        "b",
        "it"
      ],
      [
        "c",
        "oo"
      ],
      [
        "h",
        "i"
      ],
      [
        "n",
        "utrients"
      ],
      [
        "Ġ",
        "Never"
      ],
      [
        "Ġs",
        "it"
      ],
      [
        "le",
        "d"
      ],
      [
        "Ġm",
        "un"
      ],
      [
        "Ġin",
        "hi"
      ],
      [
        "Ġl",
        "ack"
      ],
      [
        "ic",
        "ip"
      ],
      [
        "am",
        "ine"
      ],
      [
        "ĠC",
        "hlor"
      ],
      [
        "Ġli",
        "ving"
      ],
      [
        "ip",
        "ate"
      ],
      [
        "Ġbo",
        "iled"
      ],
      [
        "Ġhigh",
        "er"
      ],
      [
        "Ġsu",
        "ch"
      ],
      [
        "Ġchlor",
        "ine"
      ],
      [
        "Ġchlor",
        "amine"
      ],
      [
        "Ġdiss",
        "ipate"
      ],
      [
        "Ġmicro",
        "bes"
      ],
      [
        "Ġexcess",
        "ive"
      ],
      [
        "Ġfil",
        "tered"
      ],
      [
        "coo",
        "led"
      ],
      [
        "Ġmun",
        "icip"
      ],
      [
        "Ġinhi",
        "bit"
      ],
      [
        "Ġlack",
        "s"
      ],
      [
        "ĠChlor",
        "ine"
      ],
      [
        "Ġmunicip",
        "al"
      ],
      [
        "E",
        "x"
      ],
      [
        "a",
        "ll"
      ],
      [
        "l",
        "ow"
      ],
      [
        "m",
        "es"
      ],
      [
        "p",
        "er"
      ],
      [
        "v",
        "ating"
      ],
      [
        "z",
        "or"
      ],
      [
        "Ġ",
        "Ex"
      ],
      [
        "te",
        "nd"
      ],
      [
        "Ġd",
        "ro"
      ],
      [
        "Ġp",
        "H"
      ],
      [
        "ĠH",
        "old"
      ],
      [
        "Ġsh",
        "all"
      ],
      [
        "Ġpro",
        "per"
      ],
      [
        "Ġra",
        "zor"
      ],
      [
        "Ġbe",
        "low"
      ],
      [
        "Ġ4",
        "5"
      ],
      [
        "Ġacti",
        "vating"
      ],
      [
        "Ġprote",
        "ins"
      ],
      [
        "Ġdeg",
        "ree"
      ],
      [
        "if",
        "t"
      ],
      [
        "Ġsw",
        "ift"
      ],
      [
        "Ġfail",
        "ing"
      ],
      [
        "Ġrequire",
        "s"
      ],
      [
        "ĠO",
        "nce"
      ],
      [
        "Ġenzy",
        "mes"
      ],
      [
        "Ġdissol",
        "ve"
      ],
      [
        "ĠEx",
        "tend"
      ],
      [
        "Ġdro",
        "ps"
      ],
      [
        "Ġshall",
        "ow"
      ],
      [
        "ĠExtend",
        "ed"
      ],
      [
        "f",
        "ident"
      ],
      [
        "Ġd",
        "ri"
      ],
      [
        "Ġg",
        "ood"
      ],
      [
        "ĠW",
        "et"
      ],
      [
        "ap",
        "ing"
      ],
      [
        "Ġqu",
        "ick"
      ],
      [
        "Ġmo",
        "tions"
      ],
      [
        "Ġcon",
        "fident"
      ],
      [
        "Ġkn",
        "if"
      ],
      [
        "Ġben",
        "ch"
      ],
      [
        "sh",
        "aping"
      ],
      [
        "Ġdri",
        "es"
      ],
      [
        "Ġknif",
        "e"
      ],
      [
        "f",
        "ool"
      ],
      [
        "ĠI",
        "s"
      ],
      [
        "ĠD",
        "ense"
      ],
      [
        "ri",
        "x"
      ],
      [
        "Ġmat",
        "rix"
      ],
      [
        "Ġtunnel",
        "ing"
      ],
      [
        "d",
        "own"
      ],
      [
        "e",
        "ad"
      ],
      [
        "l",
        "ly"
      ],
      [
        "u",
        "ra"
      ],
      [
        "Ġf",
        "ul"
      ],
      [
        "at",
        "ura"
      ],
      [
        "Ġn",
        "atura"
      ],
      [
        "ma",
        "tic"
      ],
      [
        "Ġbuild",
        "s"
      ],
      [
        "Ġstart",
        "s"
      ],
      [
        "Ġkn",
        "ead"
      ],
      [
        "Ġrest",
        "ing"
      ],
      [
        "Ġhydrate",
        "s"
      ],
      [
        "Ġenzy",
        "matic"
      ],
      [
        "Ġbreak",
        "down"
      ],
      [
        "Ġful",
        "ly"
      ],
      [
        "Ġnatura",
        "lly"
      ],
      [
        "Ġknead",
        "ing"
      ],
      [
        ")",
        ".<|"
      ],
      [
        "1",
        "0"
      ],
      [
        "9",
        "6"
      ],
      [
        "a",
        "ch"
      ],
      [
        "b",
        "ak"
      ],
      [
        "c",
        "ur"
      ],
      [
        "n",
        "al"
      ],
      [
        "Ġ",
        "oc"
      ],
      [
        "Ġw",
        "ire"
      ],
      [
        "ter",
        "nal"
      ],
      [
        "Ġ2",
        "10"
      ],
      [
        "Ġre",
        "ach"
      ],
      [
        "Ġ20",
        "5"
      ],
      [
        "Ġsti",
        "ll"
      ],
      [
        "Ġle",
        "ast"
      ],
      [
        "ĠIn",
        "ternal"
      ],
      [
        "ĠL",
        "et"
      ],
      [
        "Ġ9",
        "9"
      ],
      [
        "Ġslic",
        "ed"
      ],
      [
        "bak",
        "ed"
      ],
      [
        "cur",
        "s"
      ],
      [
        "Ġoc",
        "curs"
      ],
      [
        "d",
        "le"
      ],
      [
        "o",
        "nt"
      ],
      [
        "o",
        "ad"
      ],
      [
        "Ġ",
        "ont"
      ],
      [
        "Ġp",
        "our"
      ],
      [
        "Ġm",
        "id"
      ],
      [
        "Ġv",
        "enting"
      ],
      [
        "ĠL",
        "oad"
      ],
      [
        "Ġboil",
        "ing"
      ],
      [
        "Ġont",
        "o"
      ],
      [
        "Ġmid",
        "dle"
      ],
      [
        "p",
        "ro"
      ],
      [
        "Ġt",
        "an"
      ],
      [
        "Ġm",
        "ild"
      ],
      [
        "ic",
        "ating"
      ],
      [
        "Ġr",
        "un"
      ],
      [
        "Ġn",
        "e"
      ],
      [
        "Ġby",
        "pro"
      ],
      [
        "du",
        "ct"
      ],
      [
        "ĠTh",
        "at"
      ],
      [
        "Ġind",
        "icating"
      ],
      [
        "Ġtan",
        "g"
      ],
      [
        "Ġmild",
        "er"
      ],
      [
        "Ġbypro",
        "duct"
      ],
      [
        "Ġs",
        "tore"
      ],
      [
        "c",
        "re"
      ],
      [
        "c",
        "eed"
      ],
      [
        "Ġb",
        "ra"
      ],
      [
        "ic",
        "antly"
      ],
      [
        "Ġg",
        "erm"
      ],
      [
        "Ġg",
        "et"
      ],
      [
        "Ġsp",
        "el"
      ],
      [
        "Ġwhen",
        "ever"
      ],
      [
        "Ġex",
        "ceed"
      ],
      [
        "Ġbl",
        "end"
      ],
      [
        "ĠIn",
        "cre"
      ],
      [
        "if",
        "icantly"
      ],
      [
        "Ġsign",
        "ificantly"
      ],
      [
        "Ġbra",
        "n"
      ],
      [
        "Ġspel",
        "t"
      ],
      [
        "Ġexceed",
        "s"
      ],
      [
        "ĠIncre",
        "ase"
      ],
      [
        "er",
        "en"
      ],
      [
        "Ġferm",
        "ent"
      ],
      [
        "ff",
        "eren"
      ],
      [
        "Ġdi",
        "fferen"
      ],
      [
        "Ġdifferen",
        "ce"
      ],
      [
        "Ġd",
        "u"
      ],
      [
        "Ġpo",
        "ke"
      ],
      [
        "e",
        "ct"
      ],
      [
        "Ġa",
        "ff"
      ],
      [
        "Ġba",
        "s"
      ],
      [
        "Ġaff",
        "ect"
      ],
      [
        "Ġl",
        "ook"
      ],
      [
        "Ġw",
        "on"
      ],
      [
        "Ġc",
        "he"
      ],
      [
        "Ġte",
        "ll"
      ],
      [
        "Ġv",
        "s"
      ],
      [
        "i",
        "nd"
      ],
      [
        "Ġpu",
        "t"
      ],
      [
        "p",
        "an"
      ],
      [
        "Ġb",
        "et"
      ],
      [
        "Ġferment",
        "olyse"
      ],
      [
        "Ġbet",
        "ter"
      ],
      [
        "Ġb",
        "ur"
      ],
      [
        "Ġw",
        "ork"
      ],
      [
        "Ġstick",
        "ing"
      ],
      [
        "k",
        "et"
      ],
      [
        "Ġpercenta",
        "ges"
      ],
      [
        "Ġbas",
        "ket"
      ],
      [
        "Ġbaker",
        "s"
      ],
      [
        "Ġper",
        "form"
      ],
      [
        "Ġba",
        "d"
      ],
      [
        "Ġre",
        "v"
      ],
      [
        "Ġw",
        "ind"
      ],
      [
        "ow",
        "pan"
      ],
      [
        "Ġwind",
        "owpan"
      ],
      [
        "Ġwindowpan",
        "e"
      ],
      [
        "Ġfor",
        "g"
      ],
      [
        "Ġw",
        "ay"
      ],
      [
        "ĠA",
        "re"
      ],
      [
        "Ġwe",
        "ak"
      ],
      [
        "ĠB",
        "est"
      ],
      [
        "Ġc",
        "ou"
      ],
      [
        "Ġproof",
        "ed"
      ],
      [
        "p",
        "ens"
      ],
      [
        "u",
        "ggish"
      ],
      [
        "Ġh",
        "ap"
      ],
      [
        "Ġsl",
        "uggish"
      ],
      [
        "Ġhap",
        "pens"
      ],
      [
        "c",
        "ted"
      ],
      [
        "gle",
        "cted"
      ],
      [
        "Ġne",
        "glected"
      ],
      [
        "c",
        "u"
      ],
      [
        "e",
        "f"
      ],
      [
        "Ġwh",
        "at"
      ],
      [
        "Ġac",
        "cu"
      ],
      [
        "Ġsc",
        "ore"
      ],
      [
        "Ġben",
        "ef"
      ],
      [
        "Ġaccu",
        "rate"
      ],
      [
        "re",
        "es"
      ],
      [
        "Ġdeg",
        "rees"
      ],
      [
        "Ġbe",
        "ginner"
      ],
      [
        "Ġov",
        "al"
      ],
      [
        "Ġdu",
        "tch"
      ],
      [
        "ĠTh",
        "ere"
      ],
      [
        "ĠT",
        "e"
      ],
      [
        "Ġg",
        "o"
      ],
      [
        "Ġbur",
        "nt"
      ],
      [
        "Ġwh",
        "y"
      ],
      [
        "Ġh",
        "ow"
      ],
      [
        "Ġgra",
        "in"
      ],
      [
        "Ġinclu",
        "d"
      ],
      [
        "Ġdid",
        "n"
      ],
      [
        "o",
        "me"
      ],
      [
        "ĠFor",
        "mula"
      ],
      [
        "e",
        "v"
      ],
      [
        "n",
        "ight"
      ],
      [
        "o",
        "d"
      ],
      [
        "Ġm",
        "eth"
      ],
      [
        "it",
        "o"
      ],
      [
        "Ġover",
        "night"
      ],
      [
        "Ġli",
        "ev"
      ],
      [
        "Ġmad",
        "re"
      ],
      [
        "Ġman",
        "y"
      ],
      [
        "Ġmat",
        "h"
      ],
      [
        "Ġmeth",
        "od"
      ],
      [
        "Ġliev",
        "ito"
      ],
      [
        "f",
        "t"
      ],
      [
        "Ġle",
        "ft"
      ],
      [
        "Ġweight",
        "s"
      ],
      [
        "lo",
        "af"
      ],
      [
        "Ġrev",
        "ive"
      ],
      [
        "Ġdough",
        "s"
      ],
      [
        "ul",
        "ar"
      ],
      [
        "Ġfold",
        "ing"
      ],
      [
        "Ġwarm",
        "er"
      ],
      [
        "Ġstitch",
        "ing"
      ],
      [
        "Ġreg",
        "ular"
      ],
      [
        "Ġne",
        "w"
      ],
      [
        "Ġa",
        "mb"
      ],
      [
        "in",
        "ated"
      ],
      [
        "Ġf",
        "ix"
      ],
      [
        "on",
        "it"
      ],
      [
        "Ġp",
        "aste"
      ],
      [
        "Ġm",
        "onit"
      ],
      [
        "at",
        "h"
      ],
      [
        "Ġsh",
        "ot"
      ],
      [
        "Ġk",
        "ill"
      ],
      [
        "Ġgl",
        "ass"
      ],
      [
        "Ġste",
        "ps"
      ],
      [
        "Ġshould",
        "n"
      ],
      [
        "Ġrest",
        "ore"
      ],
      [
        "Ġchlor",
        "inated"
      ],
      [
        "Ġlif",
        "e"
      ],
      [
        "Ġforg",
        "et"
      ],
      [
        "Ġcou",
        "nt"
      ],
      [
        "Ġamb",
        "ient"
      ],
      [
        "Ġmonit",
        "or"
      ],
      [
        "a",
        "ve"
      ],
      [
        "b",
        "e"
      ],
      [
        "m",
        "ic"
      ],
      [
        "Ġd",
        "ent"
      ],
      [
        "ar",
        "p"
      ],
      [
        "Ġsh",
        "arp"
      ],
      [
        "Ġle",
        "ave"
      ],
      [
        "Ġshap",
        "ed"
      ],
      [
        "Ġcu",
        "be"
      ],
      [
        "Ġche",
        "ck"
      ],
      [
        "Ġche",
        "mic"
      ],
      [
        "Ġchemic",
        "al"
      ],
      [
        "i",
        "v"
      ],
      [
        "n",
        "iqu"
      ],
      [
        "Ġ",
        "old"
      ],
      [
        "Ġf",
        "reeze"
      ],
      [
        "Ġc",
        "ause"
      ],
      [
        "ch",
        "niqu"
      ],
      [
        "ot",
        "ten"
      ],
      [
        "Ġn",
        "ut"
      ],
      [
        "Ġadd",
        "ed"
      ],
      [
        "Ġseed",
        "s"
      ],
      [
        "proof",
        "ing"
      ],
      [
        "Ġsc",
        "ale"
      ],
      [
        "Ġrev",
        "iv"
      ],
      [
        "Ġforg",
        "otten"
      ]
    ]
  }
}