{
  "version": "1.0",
  "truncation": null,
  "padding": null,
  "added_tokens": [
    {
      "id": 0,
      "content": "<|endoftext|>",
      "single_word": false,
      "lstrip": false,
      "rstrip": false,
      "normalized": false,
      "special": true
    }
  ],
  "normalizer": null,
  "pre_tokenizer": {
    "type": "ByteLevel",
    "add_prefix_space": false,
    "trim_offsets": true,
    "use_regex": true
  },
  "post_processor": null,
  "decoder": {
    "type": "ByteLevel",
    "add_prefix_space": true,
    "trim_offsets": true,
    "use_regex": true
  },
  "model": {
    "type": "BPE",
    "dropout": null,
    "unk_token": null,
    "continuing_subword_prefix": null,
    "end_of_word_suffix": null,
    "fuse_unk": false,
    "byte_fallback": false,
    "ignore_merges": false,
    "vocab": {
      "<|endoftext|>": 0,
      "!": 1,
      "\"": 2,
      "#": 3,
      "$": 4,
      "%": 5,
      "&": 6,
      "'": 7,
      "(": 8,
      ")": 9,
      "*": 10,
      "+": 11,
      ",": 12,
      "-": 13,
      ".": 14,
      "/": 15,
      "0": 16,
      "1": 17,
      "2": 18,
      "3": 19,
      "4": 20,
      "5": 21,
      "6": 22,
      "7": 23,
      "8": 24,
      "9": 25,
      ":": 26,
      ";": 27,
      "<": 28,
      "=": 29,
      ">": 30,
      "?": 31,
      "@": 32,
      "A": 33,
      "B": 34,
      "C": 35,
      "D": 36,
      "E": 37,
      "F": 38,
      "G": 39,
      "H": 40,
      "I": 41,
      "J": 42,
      "K": 43,
      "L": 44,
      "M": 45,
      "N": 46,
      "O": 47,
      "P": 48,
      "Q": 49,
      "R": 50,
      "S": 51,
      "T": 52,
      "U": 53,
      "V": 54,
      "W": 55,
      "X": 56,
      "Y": 57,
      "Z": 58,
      "[": 59,
      "\\": 60,
      "]": 61,
      "^": 62,
      "_": 63,
      "`": 64,
      "a": 65,
      "b": 66,
      "c": 67,
      "d": 68,
      "e": 69,
      "f": 70,
      "g": 71,
      "h": 72,
      "i": 73,
      "j": 74,
      "k": 75,
      "l": 76,
      "m": 77,
      "n": 78,
      "o": 79,
      "p": 80,
      "q": 81,
      "r": 82,
      "s": 83,
      "t": 84,
      "u": 85,
      "v": 86,
      "w": 87,
      "x": 88,
      "y": 89,
      "z": 90,
      "{": 91,
      "|": 92,
      "}": 93,
      "~": 94,
      "¡": 95,
      "¢": 96,
      "£": 97,
      "¤": 98,
      "¥": 99,
      "¦": 100,
      "§": 101,
      "¨": 102,
      "©": 103,
      "ª": 104,
      "«": 105,
      "¬": 106,
      "®": 107,
      "¯": 108,
      "°": 109,
      "±": 110,
      "²": 111,
      "³": 112,
      "´": 113,
      "µ": 114,
      "¶": 115,
      "·": 116,
      "¸": 117,
      "¹": 118,
      "º": 119,
      "»": 120,
      "¼": 121,
      "½": 122,
      "¾": 123,
      "¿": 124,
      "À": 125,
      "Á": 126,
      "Â": 127,
      "Ã": 128,
      "Ä": 129,
      "Å": 130,
      "Æ": 131,
      "Ç": 132,
      "È": 133,
      "É": 134,
      "Ê": 135,
      "Ë": 136,
      "Ì": 137,
      "Í": 138,
      "Î": 139,
      "Ï": 140,
      "Ð": 141,
      "Ñ": 142,
      "Ò": 143,
      "Ó": 144,
      "Ô": 145,
      "Õ": 146,
      "Ö": 147,
      "×": 148,
      "Ø": 149,
      "Ù": 150,
      "Ú": 151,
      "Û": 152,
      "Ü": 153,
      "Ý": 154,
      "Þ": 155,
      "ß": 156,
      "à": 157,
      "á": 158,
      "â": 159,
      "ã": 160,
      "ä": 161,
      "å": 162,
      "æ": 163,
      "ç": 164,
      "è": 165,
      "é": 166,
      "ê": 167,
      "ë": 168,
      "ì": 169,
      "í": 170,
      "î": 171,
      "ï": 172,
      "ð": 173,
      "ñ": 174,
      "ò": 175,
      "ó": 176,
      "ô": 177,
      "õ": 178,
      "ö": 179,
      "÷": 180,
      "ø": 181,
      "ù": 182,
      "ú": 183,
      "û": 184,
      "ü": 185,
      "ý": 186,
      "þ": 187,
      "ÿ": 188,
      "Ā": 189,
      "ā": 190,
      "Ă": 191,
      "ă": 192,
      "Ą": 193,
      "ą": 194,
      "Ć": 195,
      "ć": 196,
      "Ĉ": 197,
      "ĉ": 198,
      "Ċ": 199,
      "ċ": 200,
      "Č": 201,
      "č": 202,
      "Ď": 203,
      "ď": 204,
      "Đ": 205,
      "đ": 206,
      "Ē": 207,
      "ē": 208,
      "Ĕ": 209,
      "ĕ": 210,
      "Ė": 211,
      "ė": 212,
      "Ę": 213,
      "ę": 214,
      "Ě": 215,
      "ě": 216,
      "Ĝ": 217,
      "ĝ": 218,
      "Ğ": 219,
      "ğ": 220,
      "Ġ": 221,
      "ġ": 222,
      "Ģ": 223,
      "ģ": 224,
      "Ĥ": 225,
      "ĥ": 226,
      "Ħ": 227,
      "ħ": 228,
      "Ĩ": 229,
      "ĩ": 230,
      "Ī": 231,
      "ī": 232,
      "Ĭ": 233,
      "ĭ": 234,
      "Į": 235,
      "į": 236,
      "İ": 237,
      "ı": 238,
      "Ĳ": 239,
      "ĳ": 240,
      "Ĵ": 241,
      "ĵ": 242,
      "Ķ": 243,
      "ķ": 244,
      "ĸ": 245,
      "Ĺ": 246,
      "ĺ": 247,
      "Ļ": 248,
      "ļ": 249,
      "Ľ": 250,
      "ľ": 251,
      "Ŀ": 252,
      "ŀ": 253,
      "Ł": 254,
      "ł": 255,
      "Ń": 256,
      "te": 257,
      "en": 258,
      "ou": 259,
      "in": 260,
      "Ġs": 261,
      "Ġa": 262,
      "Ġt": 263,
      "er": 264,
      "Ġf": 265,
      "of": 266,
      "ta": 267,
      "Ġb": 268,
      "Ġd": 269,
      "re": 270,
      "is": 271,
      "Ġw": 272,
      "on": 273,
      "end": 274,
      "ofte": 275,
      "xt": 276,
      "Ġc": 277,
      "<|": 278,
      "|>": 279,
      "endofte": 280,
      "endoftext": 281,
      "ing": 282,
      "gh": 283,
      "or": 284,
      "our": 285,
      "nd": 286,
      "he": 287,
      "ough": 288,
      "ti": 289,
      "ter": 290,
      "Ġto": 291,
      "ss": 292,
      "Ġp": 293,
      "Ġand": 294,
      "es": 295,
      "Ġthe": 296,
      "nt": 297,
      "Ġm": 298,
      "Us": 299,
      "ha": 300,
      "ed": 301,
      "ol": 302,
      "tant": 303,
      "ssis": 304,
      "ssistant": 305,
      "Ġl": 306,
      ".<|": 307,
      "Assistant": 308,
      "User": 309,
      "Ġin": 310,
      "it": 311,
      "ar": 312,
      "ly": 313,
      "al": 314,
      "ro": 315,
      "tion": 316,
      "ak": 317,
      "ra": 318,
      "ourd": 319,
      "Ġ1": 320,
      "ourdough": 321,
      "Ġh": 322,
      "tar": 323,
      "Ġu": 324,
      "Ġfl": 325,
      "Ġdough": 326,
      "ow": 327,
      "Ġsourdough": 328,
      "at": 329,
      "ic": 330,
      "an": 331,
      "Ġfor": 332,
      "id": 333,
      "Ġg": 334,
      "as": 335,
      "Ġstar": 336,
      "ĠI": 337,
      "Ġis": 338,
      "le": 339,
      "Ġflour": 340,
      "Ġor": 341,
      "ith": 342,
      "Ġstarter": 343,
      "old": 344,
      "Ġo": 345,
      "Ġwith": 346,
      "Ġre": 347,
      "Ġbak": 348,
      "ch": 349,
      "ad": 350,
      "Ġ2": 351,
      "ent": 352,
      "Â°": 353,
      "ul": 354,
      "ater": 355,
      "ru": 356,
      "Ġy": 357,
      "et": 358,
      "Ġe": 359,
      "il": 360,
      "Ġwater": 361,
      "ĠW": 362,
      "ac": 363,
      "Ġwh": 364,
      "erm": 365,
      "Ġof": 366,
      "st": 367,
      "Ġon": 368,
      "ur": 369,
      "se": 370,
      "ate": 371,
      "Ġov": 372,
      "ot": 373,
      "enta": 374,
      "ute": 375,
      "Ġ(": 376,
      "ĠH": 377,
      "Ġdo": 378,
      "Ġr": 379,
      "el": 380,
      "Ġte": 381,
      "igh": 382,
      "ĠA": 383,
      "eed": 384,
      "mp": 385,
      "hat": 386,
      "Ġha": 387,
      "read": 388,
      "qu": 389,
      "Ġit": 390,
      "Ġcru": 391,
      "Ġferm": 392,
      "to": 393,
      "Ġ10": 394,
      "Ġpro": 395,
      "Ġco": 396,
      "ure": 397,
      "entation": 398,
      "ĠT": 399,
      "ĠD": 400,
      "ve": 401,
      "ĠF": 402,
      "Ġsha": 403,
      "Ġbread": 404,
      "Ġi": 405,
      "Ġ3": 406,
      "Ġsp": 407,
      "ĠS": 408,
      "ck": 409,
      "Ġgl": 410,
      "Ġst": 411,
      "Ġlo": 412,
      "Ġat": 413,
      "ĠHow": 414,
      "Ġcon": 415,
      "Ġfermentation": 416,
      "Ġac": 417,
      "ight": 418,
      "Ġde": 419,
      "Ġbe": 420,
      "out": 421,
      "ĠC": 422,
      "ri": 423,
      "Ġra": 424,
      "Ġoven": 425,
      "ore": 426,
      "uten": 427,
      "Ġgluten": 428,
      "ns": 429,
      "Ġth": 430,
      "af": 431,
      "Ġn": 432,
      "ge": 433,
      "Ġmy": 434,
      "dra": 435,
      "Ġ20": 436,
      "ydra": 437,
      "ast": 438,
      "Ġshap": 439,
      "Ġbaking": 440,
      "Ġad": 441,
      "Ġan": 442,
      "Ġun": 443,
      "ide": 444,
      "ild": 445,
      "ver": 446,
      "Ġbu": 447,
      "Ġhour": 448,
      "ĠWhat": 449,
      "am": 450,
      "Ġ4": 451,
      "Ġyour": 452,
      "Ġhydra": 453,
      "ay": 454,
      "Ġfold": 455,
      "Ġuse": 456,
      "Ġby": 457,
      "ard": 458,
      "av": 459,
      "Ġcrust": 460,
      "ĠB": 461,
      "ut": 462,
      "Ġsti": 463,
      "ep": 464,
      "Ġhours": 465,
      "Ġqu": 466,
      "Ġwe": 467,
      "nder": 468,
      "Ġbake": 469,
      "Ġcan": 470,
      "Ġk": 471,
      "erat": 472,
      "ulk": 473,
      "Ġhydration": 474,
      "ir": 475,
      "ĠP": 476,
      "Ġloaf": 477,
      "ip": 478,
      "Ġ5": 479,
      "Ġcold": 480,
      "Ġunder": 481,
      "Ġfro": 482,
      "mb": 483,
      "Ġdi": 484,
      "ĠWh": 485,
      "Ġdis": 486,
      "Ġsh": 487,
      "Ġfrom": 488,
      "ion": 489,
      "Ġex": 490,
      "ll": 491,
      "ice": 492,
      "east": 493,
      "ct": 494,
      "Ġover": 495,
      "Ġmin": 496,
      "Ġli": 497,
      "Ġtemp": 498,
      "uring": 499,
      "ff": 500,
      "ong": 501,
      "ap": 502,
      "ain": 503,
      "oul": 504,
      "ould": 505,
      "us": 506,
      "Ġinto": 507,
      "Ġhe": 508,
      "im": 509,
      "tic": 510,
      "les": 511,
      "Ġpre": 512,
      "estion": 513,
      "Ġwhen": 514,
      "Ġquestion": 515,
      "utes": 516,
      "Ġduring": 517,
      "um": 518,
      "Ġbulk": 519,
      "Ġyeast": 520,
      "Ġper": 521,
      "alt": 522,
      "ise": 523,
      "Ġ7": 524,
      "ring": 525,
      "),": 526,
      "Ġminutes": 527,
      "Ġsl": 528,
      "Ġj": 529,
      "Ġwithout": 530,
      "Ġfeed": 531,
      "Ġsc": 532,
      "Ġ100": 533,
      "Ġen": 534,
      "Ġle": 535,
      "Ġsm": 536,
      "Ġhand": 537,
      "erature": 538,
      "Ġtemperature": 539,
      "ole": 540,
      "Ġv": 541,
      "Ġins": 542,
      "Ġshould": 543,
      "fore": 544,
      "Ġspring": 545,
      "Ġshaping": 546,
      "Ġcrumb": 547,
      "ĠFor": 548,
      "tal": 549,
      "arm": 550,
      "Ġste": 551,
      "Ġyou": 552,
      "ays": 553,
      "pp": 554,
      "ĠM": 555,
      "red": 556,
      "ace": 557,
      "Ġbefore": 558,
      "ce": 559,
      "Ġro": 560,
      "ine": 561,
      "Ġpar": 562,
      "tch": 563,
      "ack": 564,
      "Ġweight": 565,
      "til": 566,
      "Ġuntil": 567,
      "om": 568,
      "ated": 569,
      "eep": 570,
      "Ġdoes": 571,
      "ĠCan": 572,
      "Ġwarm": 573,
      "ĠWhy": 574,
      "Ġadv": 575,
      "Ġbuild": 576,
      "Ġbl": 577,
      "ix": 578,
      "ake": 579,
      "all": 580,
      "bles": 581,
      "Ġrise": 582,
      "Ġfolds": 583,
      "ĠUs": 584,
      "Ġse": 585,
      "Ġstick": 586,
      "Ġ9": 587,
      "Ġbot": 588,
      "Ġ50": 589,
      "Ġperc": 590,
      "Ġsalt": 591,
      "Ġ30": 592,
      "ble": 593,
      "Ġsta": 594,
      "ase": 595,
      "ted": 596,
      "uc": 597,
      "tard": 598,
      "Ġacid": 599,
      "ke": 600,
      "Ġwhole": 601,
      "ia": 602,
      "ry": 603,
      "Ġtotal": 604,
      "up": 605,
      "Ġpercenta": 606,
      "oo": 607,
      "Ġ6": 608,
      "Ġstre": 609,
      "ently": 610,
      "Ġwhi": 611,
      "Ġsteam": 612,
      "Ġca": 613,
      "heat": 614,
      "Ġhigh": 615,
      "Ġup": 616,
      "Ġmix": 617,
      "op": 618,
      "ond": 619,
      "Ġ12": 620,
      "th": 621,
      "Ġas": 622,
      "ye": 623,
      "Ġadd": 624,
      "ne": 625,
      "Ġba": 626,
      "ath": 627,
      "Ġfr": 628,
      "Ġfir": 629,
      "ts": 630,
      "tain": 631,
      "ill": 632,
      "med": 633,
      "Ġal": 634,
      "Ġmo": 635,
      "fter": 636,
      "mple": 637,
      "Ġsticky": 638,
      "Ġwet": 639,
      "Ġthat": 640,
      "Ġme": 641,
      "ick": 642,
      "Ġseed": 643,
      "Ġlong": 644,
      "ents": 645,
      "own": 646,
      "tom": 647,
      "Ġcool": 648,
      "??": 649,
      "Ġbottom": 650,
      "Ġrye": 651,
      "oll": 652,
      "Ġstretch": 653,
      "card": 654,
      "Ġben": 655,
      "Ġrec": 656,
      "ell": 657,
      "Ġthen": 658,
      "ary": 659,
      "idge": 660,
      "Ġfridge": 661,
      "Ġbaker": 662,
      "oot": 663,
      "aves": 664,
      "Ġref": 665,
      "Ġkeep": 666,
      "iz": 667,
      "Ġsur": 668,
      "Ġsurf": 669,
      "Ġout": 670,
      "Ġinc": 671,
      "ĠIt": 672,
      "han": 673,
      "Ġadvice": 674,
      "vel": 675,
      "ĠL": 676,
      "Ġtens": 677,
      "Ġtension": 678,
      "rig": 679,
      "ation": 680,
      "Ġlet": 681,
      "Ġrefrig": 682,
      "ting": 683,
      "ally": 684,
      "Ġlike": 685,
      "ive": 686,
      "Ġjar": 687,
      "Ġ24": 688,
      "Ġdire": 689,
      "ĠR": 690,
      "Ġtra": 691,
      "Ġcup": 692,
      "Ġexp": 693,
      "tein": 694,
      ").": 695,
      "Ġhow": 696,
      "ates": 697,
      "ĠAn": 698,
      "Ġif": 699,
      "vide": 700,
      "Ġacti": 701,
      "Ġ/": 702,
      "Ġcaus": 703,
      "Ġdry": 704,
      "Ġnot": 705,
      "Ġsk": 706,
      "pro": 707,
      "Ġab": 708,
      "ound": 709,
      "Ġhas": 710,
      "Ġpercentage": 711,
      "Ġshape": 712,
      "Ġoff": 713,
      "au": 714,
      "Ġall": 715,
      "velop": 716,
      "Ġlow": 717,
      "Ġroom": 718,
      "ens": 719,
      "row": 720,
      "avor": 721,
      "ĠUse": 722,
      "Ġsurface": 723,
      "Ġch": 724,
      "Ġus": 725,
      "Ġsu": 726,
      "Ġbub": 727,
      "utch": 728,
      "Ġrecip": 729,
      "'s": 730,
      "ĠTh": 731,
      "if": 732,
      "ist": 733,
      "Ġhands": 734,
      "Ġcre": 735,
      "ĠIf": 736,
      "50": 737,
      "Ġdeg": 738,
      "ans": 739,
      "Ġ8": 740,
      "ven": 741,
      "Ġ=": 742,
      "Ġcontain": 743,
      "Ġdown": 744,
      "ree": 745,
      "Ġwild": 746,
      "oly": 747,
      "rong": 748,
      "Ġgra": 749,
      "Ġwhile": 750,
      "ily": 751,
      "olyse": 752,
      "duc": 753,
      "Ġcle": 754,
      "Ġfirst": 755,
      "Ġdirect": 756,
      "Ġclean": 757,
      "ever": 758,
      "Ġ75": 759,
      "eton": 760,
      "ferm": 761,
      "Ġproof": 762,
      "ey": 763,
      "Ġwheat": 764,
      "ood": 765,
      "oubles": 766,
      "Ġgently": 767,
      "Ġflat": 768,
      "ich": 769,
      "Ġcons": 770,
      "Ġdays": 771,
      "Ġbac": 772,
      "Ġbacter": 773,
      "and": 774,
      "75": 775,
      "ers": 776,
      "ĠDutch": 777,
      "cul": 778,
      "pen": 779,
      "Ġtear": 780,
      "Ġare": 781,
      "ume": 782,
      "lor": 783,
      "Ġsmell": 784,
      "Ġskin": 785,
      "Ġru": 786,
      "Ġafter": 787,
      "lus": 788,
      "ant": 789,
      "vain": 790,
      "Ġmu": 791,
      "Ġbench": 792,
      "Ġform": 793,
      "Ġtop": 794,
      "Ġstand": 795,
      "de": 796,
      "Ġprotein": 797,
      "Ġbacteria": 798,
      "Ġmain": 799,
      "ĠIn": 800,
      "Ġlevain": 801,
      "Ġtur": 802,
      "hed": 803,
      "edic": 804,
      "Ġdiscard": 805,
      "ks": 806,
      "per": 807,
      "sh": 808,
      "iste": 809,
      "aking": 810,
      "ges": 811,
      "Ġsaf": 812,
      "ides": 813,
      "Ġthan": 814,
      "Ġopen": 815,
      "der": 816,
      "Ġwhat": 817,
      "Ġretard": 818,
      "Ġdeep": 819,
      "Ġ90": 820,
      "ways": 821,
      "ling": 822,
      "ere": 823,
      "Ġequ": 824,
      "ĠThis": 825,
      "Ġtoo": 826,
      "Ġcomple": 827,
      "ĠDo": 828,
      "Ġequal": 829,
      "Ġonly": 830,
      "ĠSourdough": 831,
      "Ġdirectly": 832,
      "Ġpl": 833,
      "tions": 834,
      "neton": 835,
      "Ġban": 836,
      "Ġbanneton": 837,
      "ĠThe": 838,
      "Ġbec": 839,
      "Ġmold": 840,
      "mmed": 841,
      "ment": 842,
      "Ġflavor": 843,
      "Ġkn": 844,
      "ĠN": 845,
      "tead": 846,
      "inal": 847,
      "Ġhold": 848,
      "Ġproduc": 849,
      "Ġinstead": 850,
      "Ġlar": 851,
      "Ġtap": 852,
      "ĠPre": 853,
      "Ġgas": 854,
      "enter": 855,
      "Ġcenter": 856,
      "ause": 857,
      "ĠAny": 858,
      "Ġactive": 859,
      "Ġtim": 860,
      "Ġtime": 861,
      "hap": 862,
      "ions": 863,
      "lusions": 864,
      "ass": 865,
      "ig": 866,
      "Ġbecause": 867,
      "alcul": 868,
      "utolyse": 869,
      "Ġinch": 870,
      "Ġso": 871,
      "Ġear": 872,
      "Ġbatard": 873,
      "iate": 874,
      "tio": 875,
      "Ġdevelop": 876,
      "Ġratio": 877,
      "Ġsafe": 878,
      "ĠK": 879,
      "Ġrack": 880,
      "redi": 881,
      "Ġbubbles": 882,
      "Ġmic": 883,
      "Ġscore": 884,
      "ust": 885,
      "erated": 886,
      "Ġche": 887,
      "Ġone": 888,
      "co": 889,
      "lease": 890,
      "ft": 891,
      "Ġrest": 892,
      "Ġferment": 893,
      "mmediate": 894,
      "ink": 895,
      "ins": 896,
      "aste": 897,
      "erator": 898,
      "Ġrefrigerator": 899,
      "ĠO": 900,
      "Ġback": 901,
      "est": 902,
      "olume": 903,
      "Ġvolume": 904,
      "Ġing": 905,
      "Ġfood": 906,
      "Ġingredi": 907,
      "we": 908,
      "Ġimmediate": 909,
      "ĠMy": 910,
      "Ġadding": 911,
      "Ġimmediately": 912,
      "Ġround": 913,
      "Ġhave": 914,
      "Ġcaused": 915,
      "Ġlower": 916,
      "Ġloaves": 917,
      "Ġdri": 918,
      "Ġset": 919,
      "ity": 920,
      "als": 921,
      "Ġparts": 922,
      "Ġlac": 923,
      "ented": 924,
      "Ġrecipe": 925,
      "Ġcoil": 926,
      "Ġtearing": 927,
      "Ġfeeding": 928,
      "ale": 929,
      "chment": 930,
      "eth": 931,
      "ffer": 932,
      "pped": 933,
      "Ġparchment": 934,
      "ult": 935,
      "Ġcl": 936,
      "Ġ15": 937,
      "very": 938,
      "os": 939,
      "Ġam": 940,
      "Ġchlor": 941,
      "ron": 942,
      "Ġbow": 943,
      "Ġwill": 944,
      "Ġpap": 945,
      "ĠAl": 946,
      "ĠTo": 947,
      "cess": 948,
      "Ġbowl": 949,
      "Ġpaper": 950,
      "Ġbaked": 951,
      "???": 952,
      "uff": 953,
      "ici": 954,
      "ĠHey": 955,
      "bly": 956,
      "Ġbo": 957,
      "Ġcalcul": 958,
      "ric": 959,
      "ula": 960,
      "ruct": 961,
      "Ġstruct": 962,
      "Ġneed": 963,
      "un": 964,
      "Ġmake": 965,
      "atin": 966,
      "elatin": 967,
      "hoot": 968,
      "roubles": 969,
      "oft": 970,
      "hooting": 971,
      "roubleshooting": 972,
      "Ġinclusions": 973,
      "not": 974,
      "pid": 975,
      "Ġsoft": 976,
      "Ġfinal": 977,
      "Ġlid": 978,
      "Ġgelatin": 979,
      "Ġrapid": 980,
      "Ġcannot": 981,
      "ips": 982,
      "Ġrapidly": 983,
      "ze": 984,
      "hes": 985,
      "tern": 986,
      "ĠAlways": 987,
      "ning": 988,
      "Ġstarters": 989,
      "Ġcomplete": 990,
      "ire": 991,
      "Ġlactic": 992,
      "inn": 993,
      "Ġtin": 994,
      "Ġmore": 995,
      "Ġroll": 996,
      "ĠDis": 997,
      "Ġheat": 998,
      "Ġsmoot": 999,
      "Ġsmooth": 1000,
      "Ġany": 1001,
      "llow": 1002,
      "Ġsa": 1003,
      "Ġcou": 1004,
      "Ġhot": 1005,
      "Ġmoist": 1006,
      "zy": 1007,
      "Ġeas": 1008,
      "Ġshallow": 1009,
      "Ġda": 1010,
      "Ġwhy": 1011,
      "ife": 1012,
      "Ġknife": 1013,
      "akes": 1014,
      "Ġwhich": 1015,
      "ures": 1016,
      "ginn": 1017,
      "Ġwrong": 1018,
      "astic": 1019,
      "ĠUsing": 1020,
      "Ġed": 1021,
      "Ġscor": 1022,
      "Ġsmall": 1023,
      "Ġformula": 1024,
      "60": 1025,
      "Ġair": 1026,
      "ok": 1027,
      "Ġ500": 1028,
      "led": 1029,
      "ĠBe": 1030,
      "Ġstandard": 1031,
      "Ġrem": 1032,
      "Ġhapp": 1033,
      "Ġthin": 1034,
      "proof": 1035,
      "lim": 1036,
      "tial": 1037,
      "nead": 1038,
      "limin": 1039,
      "lp": 1040,
      "ters": 1041,
      "Ġhelp": 1042,
      "Ġmixing": 1043,
      "ĠKeep": 1044,
      "Ġwent": 1045,
      "ating": 1046,
      "ĠFeed": 1047,
      "Ġlarge": 1048,
      "Ġshe": 1049,
      "Ġfil": 1050,
      "haping": 1051,
      "ork": 1052,
      "Ġtake": 1053,
      "Ġtips": 1054,
      "vered": 1055,
      "Ġ~": 1056,
      "Ġar": 1057,
      "ows": 1058,
      "Ġprev": 1059,
      "ax": 1060,
      "zor": 1061,
      "Ġrazor": 1062,
      "Ġ48": 1063,
      "Ġ70": 1064,
      "Ġlam": 1065,
      "Ġstart": 1066,
      "gul": 1067,
      "mm": 1068,
      "Ġdel": 1069,
      "Ġris": 1070,
      "ĠPlease": 1071,
      "Ġadvise": 1072,
      "isters": 1073,
      "izes": 1074,
      "Ġsto": 1075,
      "Ġmuch": 1076,
      "Ġmicro": 1077,
      "%),": 1078,
      "eat": 1079,
      "nter": 1080,
      "Ġend": 1081,
      "ress": 1082,
      "ark": 1083,
      "quid": 1084,
      "Ġliquid": 1085,
      "Ġcounter": 1086,
      "Ġscoring": 1087,
      "Ġhappens": 1088,
      "ible": 1089,
      "Ġrequ": 1090,
      "Ġusing": 1091,
      "Ġsour": 1092,
      "ering": 1093,
      "Ġdou": 1094,
      "Ġind": 1095,
      "fermented": 1096,
      "Ġproofing": 1097,
      "Ġprevent": 1098,
      "ose": 1099,
      "Ġbest": 1100,
      "Ġeven": 1101,
      "Ġprovide": 1102,
      "Ġbag": 1103,
      "Ġtest": 1104,
      "tan": 1105,
      "Ġpo": 1106,
      "Ġits": 1107,
      "ĠBulk": 1108,
      "shaping": 1109,
      "Ġstiff": 1110,
      "Ġstructure": 1111,
      "ten": 1112,
      "Ġspread": 1113,
      "rease": 1114,
      "Ġcr": 1115,
      "Ġcut": 1116,
      "Ġpe": 1117,
      "Ġevery": 1118,
      "Ġcontains": 1119,
      "etic": 1120,
      "oc": 1121,
      "orm": 1122,
      "Ġpan": 1123,
      "Ġacetic": 1124,
      "Ġpat": 1125,
      "Ġ65": 1126,
      "Ġcreates": 1127,
      "reeze": 1128,
      "sol": 1129,
      "Ġbet": 1130,
      "Ġbond": 1131,
      "ĠTe": 1132,
      "Ġ375": 1133,
      "Ġquick": 1134,
      "Ġcleanly": 1135,
      "Ġoil": 1136,
      "Ġwhere": 1137,
      "Ġcalculate": 1138,
      "Ġspreading": 1139,
      "ually": 1140,
      "Ġhealt": 1141,
      "Ġbuilds": 1142,
      "Ġhealth": 1143,
      "20": 1144,
      "par": 1145,
      "Ġread": 1146,
      "Ġsmells": 1147,
      "Ġingredients": 1148,
      "Ġmoisture": 1149,
      "inder": 1150,
      "ached": 1151,
      "Ġunderne": 1152,
      "Ġrequire": 1153,
      "Ġunderneath": 1154,
      "10": 1155,
      "24": 1156,
      "Ġassistant": 1157,
      "Ġflakes": 1158,
      "Ġpart": 1159,
      "Ġfru": 1160,
      "Ġpale": 1161,
      "Ġmedic": 1162,
      "eeds": 1163,
      "Ġslack": 1164,
      "Ġedges": 1165,
      "Ġpeak": 1166,
      "ght": 1167,
      "tight": 1168,
      "Ġlight": 1169,
      "ade": 1170,
      "ĠAfter": 1171,
      "cking": 1172,
      "ĠWhen": 1173,
      "Ġ80": 1174,
      "Ġairtight": 1175,
      "proofed": 1176,
      "oid": 1177,
      "ove": 1178,
      "void": 1179,
      "ĠY": 1180,
      "rees": 1181,
      "ĠWith": 1182,
      "Ġiron": 1183,
      "Ġdegrees": 1184,
      "fermentation": 1185,
      "Ġtrapped": 1186,
      "ĠInc": 1187,
      "ĠTemp": 1188,
      "%.": 1189,
      "ving": 1190,
      "Ġdomed": 1191,
      "Ġstrong": 1192,
      "Ġwhite": 1193,
      "ĠNever": 1194,
      "Ġcris": 1195,
      "ĠE": 1196,
      "oule": 1197,
      "Ġboule": 1198,
      "Ġpul": 1199,
      "Ġcook": 1200,
      "Ġenough": 1201,
      "Ġinside": 1202,
      "Ġdaily": 1203,
      "ĠFerm": 1204,
      "Ġne": 1205,
      "ĠPl": 1206,
      "Ġeasily": 1207,
      "iqu": 1208,
      "often": 1209,
      "atch": 1210,
      "leas": 1211,
      "ĠAt": 1212,
      "Ġno": 1213,
      "amine": 1214,
      "Ġblo": 1215,
      "Ġoften": 1216,
      "Ġbas": 1217,
      "Ġcast": 1218,
      "Ġmade": 1219,
      "ross": 1220,
      "Ġrel": 1221,
      "Ġtemperatures": 1222,
      "Ġrock": 1223,
      "vides": 1224,
      "ward": 1225,
      "Ġautolyse": 1226,
      "Ġprovides": 1227,
      "Ġfolding": 1228,
      "Ġplastic": 1229,
      "so": 1230,
      "atur": 1231,
      "Ġnatur": 1232,
      "Ġcompletely": 1233,
      "ginner": 1234,
      "gle": 1235,
      "side": 1236,
      "Ġhar": 1237,
      "Ġdried": 1238,
      "ess": 1239,
      "ren": 1240,
      "reak": 1241,
      "elow": 1242,
      "ĠDi": 1243,
      "Ġexpans": 1244,
      "Ġgrains": 1245,
      "Ġsheet": 1246,
      "Ġexpansion": 1247,
      "ger": 1248,
      "Ġlin": 1249,
      "aken": 1250,
      "Ġearly": 1251,
      "ĠDiscard": 1252,
      "ĠPlace": 1253,
      "gra": 1254,
      "night": 1255,
      "erate": 1256,
      "Ġovernight": 1257,
      "68": 1258,
      "Ġdark": 1259,
      "Ġmon": 1260,
      "Ġimp": 1261,
      "Ġcauses": 1262,
      "ternal": 1263,
      "Ġnaturally": 1264,
      ").<|": 1265,
      "lour": 1266,
      "ous": 1267,
      "Ġdec": 1268,
      "ses": 1269,
      "tent": 1270,
      "ĠDough": 1271,
      "Ġcontent": 1272,
      "Ġbliste": 1273,
      "ondering": 1274,
      "Ġblistered": 1275,
      "are": 1276,
      "hydra": 1277,
      "ost": 1278,
      "Ġgrow": 1279,
      "Ġproducing": 1280,
      "resh": 1281,
      "Ġ25": 1282,
      "Ġ78": 1283,
      "Ġalso": 1284,
      "Ġmeas": 1285,
      "Ġbene": 1286,
      "und": 1287,
      "tend": 1288,
      "Ġexcess": 1289,
      "Ġcooler": 1290,
      "Ġabund": 1291,
      "Ġabundant": 1292,
      "form": 1293,
      "aster": 1294,
      "Ġhal": 1295,
      "Ġ40": 1296,
      "Ġfirm": 1297,
      "Ġrecipes": 1298,
      "Ġcreate": 1299,
      "Ġrising": 1300,
      "Ġmonth": 1301,
      "Ġfing": 1302,
      "Ġbelow": 1303,
      "Ġenzy": 1304,
      "Ġsec": 1305,
      "Ġenzym": 1306,
      "hould": 1307,
      "ars": 1308,
      "ully": 1309,
      "ĠShould": 1310,
      "Ġdisc": 1311,
      "Ġpercentages": 1312,
      "Ġseeds": 1313,
      "ction": 1314,
      "Ġgre": 1315,
      "Ġactiv": 1316,
      "Ġ900": 1317,
      "wards": 1318,
      "Ġhalf": 1319,
      "Ġtight": 1320,
      "rad": 1321,
      "Ġwithin": 1322,
      "imum": 1323,
      "Ġdegrad": 1324,
      "Ġrub": 1325,
      "Ġholds": 1326,
      "Ġproduces": 1327,
      "Ġfully": 1328,
      "Ġbuilding": 1329,
      "rap": 1330,
      "ĠCo": 1331,
      "Ġready": 1332,
      "Ġsecond": 1333,
      "12": 1334,
      "ps": 1335,
      "sor": 1336,
      "ub": 1337,
      "ination": 1338,
      "Ġcar": 1339,
      "Ġrep": 1340,
      "Ġabsor": 1341,
      "Ġabsorb": 1342,
      "Ġans": 1343,
      "Ġdedic": 1344,
      "Ġpink": 1345,
      "Ġelimin": 1346,
      "ĠThan": 1347,
      "Ġdiffer": 1348,
      "Ġlift": 1349,
      "Ġmeans": 1350,
      "Ġdoub": 1351,
      "Ġansw": 1352,
      "Ġdedicated": 1353,
      "ĠThanks": 1354,
      "Ġtall": 1355,
      "Ġ160": 1356,
      "ĠIs": 1357,
      "Ġhandling": 1358,
      "Ġturns": 1359,
      "gular": 1360,
      "ches": 1361,
      "uice": 1362,
      "Ġstarches": 1363,
      "Ġstra": 1364,
      "ĠPour": 1365,
      "Ġslow": 1366,
      "Ġjuice": 1367,
      "resses": 1368,
      "Ġide": 1369,
      "Ġfresh": 1370,
      "Ġfaster": 1371,
      "Ġexpand": 1372,
      "Ġends": 1373,
      "Ġsourd": 1374,
      "Ġheav": 1375,
      "umm": 1376,
      "Ġgram": 1377,
      "ĠDivide": 1378,
      "ense": 1379,
      "Ġchees": 1380,
      "ween": 1381,
      "icient": 1382,
      "Ġbetween": 1383,
      "tin": 1384,
      "Ġaerated": 1385,
      "eral": 1386,
      "one": 1387,
      "oles": 1388,
      "Ġholes": 1389,
      "Ġrice": 1390,
      "Ġmonths": 1391,
      "ial": 1392,
      "ential": 1393,
      "ssential": 1394,
      "Ġmass": 1395,
      "icate": 1396,
      "Ġessential": 1397,
      "ĠSl": 1398,
      "Ġangle": 1399,
      "Ġslic": 1400,
      "Ġ60": 1401,
      "Ġsupp": 1402,
      "Ġdelicate": 1403,
      "ĠYou": 1404,
      "ies": 1405,
      "tly": 1406,
      "Ġdid": 1407,
      "vection": 1408,
      "Ġwee": 1409,
      "Ġdish": 1410,
      "Ġenc": 1411,
      "Ġturn": 1412,
      "Ġplace": 1413,
      "Ġgrowth": 1414,
      "Ġrepeat": 1415,
      "Ġanswer": 1416,
      "Ġideal": 1417,
      "94": 1418,
      "Ġtw": 1419,
      "Ġfat": 1420,
      "Ġ14": 1421,
      "ĠFreeze": 1422,
      "Ġleaves": 1423,
      "Ġinsuff": 1424,
      "Ġbubbly": 1425,
      "Ġrubb": 1426,
      "Ġfats": 1427,
      "Ġinsufficient": 1428,
      "tional": 1429,
      "Ġcovered": 1430,
      "Ġstay": 1431,
      "Ġrefrigerated": 1432,
      "perly": 1433,
      "oup": 1434,
      "Ġsw": 1435,
      "Ġsoup": 1436,
      "Ġtroubleshooting": 1437,
      "Ġbrow": 1438,
      "Ġdoubles": 1439,
      "Ġmax": 1440,
      "ĠBaking": 1441,
      "Ġweaken": 1442,
      "Ġens": 1443,
      "Ġchloramine": 1444,
      "Ġmaximum": 1445,
      "ach": 1446,
      "ail": 1447,
      "du": 1448,
      "Ġou": 1449,
      "Ġtan": 1450,
      "tire": 1451,
      "Ġshows": 1452,
      "Ġentire": 1453,
      "Ġseal": 1454,
      "wee": 1455,
      "Ġouter": 1456,
      "Ġtang": 1457,
      "ample": 1458,
      "Ġsig": 1459,
      "Ġproble": 1460,
      "Ġacross": 1461,
      "ĠChe": 1462,
      "Ġexample": 1463,
      "Ġgelatinizes": 1464,
      "Ġproblem": 1465,
      "%).": 1466,
      "por": 1467,
      "rough": 1468,
      "orough": 1469,
      "orpor": 1470,
      "less": 1471,
      "Ġreac": 1472,
      "Ġstric": 1473,
      "Ġthrough": 1474,
      "Ġthorough": 1475,
      "Ġinstant": 1476,
      "iant": 1477,
      "icks": 1478,
      "Ġincorpor": 1479,
      "ĠLet": 1480,
      "Ġbonds": 1481,
      "Ġtwo": 1482,
      "Ġstrictly": 1483,
      "gry": 1484,
      "inary": 1485,
      "Ġtaste": 1486,
      "ery": 1487,
      "ish": 1488,
      "Ġwork": 1489,
      "Ġhun": 1490,
      "Ġflo": 1491,
      "ĠAutolyse": 1492,
      "Ġshaped": 1493,
      "Ġdissol": 1494,
      "Ġchill": 1495,
      "Ġboil": 1496,
      "ĠIncrease": 1497,
      "Ġhungry": 1498,
      "xy": 1499,
      "Ġcur": 1500,
      "Ġprogra": 1501,
      "Ġspeeds": 1502,
      "Ġhydrate": 1503,
      "bleached": 1504,
      "Ġdevelops": 1505,
      "Ġbags": 1506,
      "Ġmedical": 1507,
      "ect": 1508,
      "gan": 1509,
      "Ġorgan": 1510,
      "ĠWondering": 1511,
      "Ġblisters": 1512,
      "Ġbeneath": 1513,
      "Ġfloat": 1514,
      "linder": 1515,
      "rink": 1516,
      "ylinder": 1517,
      "Ġavoid": 1518,
      "Ġcylinder": 1519,
      "ĠTroubleshooting": 1520,
      "Ġseam": 1521,
      "ĠLe": 1522,
      "Ġconsiste": 1523,
      "ag": 1524,
      "geth": 1525,
      "Ġbatch": 1526,
      "Ġtogeth": 1527,
      "Ġmath": 1528,
      "Ġres": 1529,
      "Ġ350": 1530,
      "Ġconf": 1531,
      "Ġknead": 1532,
      "ooch": 1533,
      "Ġlonger": 1534,
      "antly": 1535,
      "ĠNeed": 1536,
      "Ġchlorine": 1537,
      "Ġrocks": 1538,
      "Ġtogether": 1539,
      "ple": 1540,
      "ence": 1541,
      "Ġdra": 1542,
      "Ġ27": 1543,
      "Ġshak": 1544,
      "Ġrad": 1545,
      "Ġstir": 1546,
      "ffect": 1547,
      "apple": 1548,
      "Ġprepar": 1549,
      "Ġjig": 1550,
      "ineapple": 1551,
      "ati": 1552,
      "Ġhooch": 1553,
      "ĠHi": 1554,
      "nsl": 1555,
      "Ġextend": 1556,
      "Ġacidity": 1557,
      "protein": 1558,
      "Ġevenly": 1559,
      "Ġfruit": 1560,
      "ĠFerment": 1561,
      "hydration": 1562,
      "Ġsign": 1563,
      "72": 1564,
      "son": 1565,
      "Ġfavor": 1566,
      "Ġdro": 1567,
      "ĠSc": 1568,
      "Ġquestions": 1569,
      "Ġperson": 1570,
      "Ġstore": 1571,
      "Ġrequires": 1572,
      "Ġliner": 1573,
      "'t": 1574,
      "ful": 1575,
      "pur": 1576,
      "pose": 1577,
      "Ġice": 1578,
      "onost": 1579,
      "Ġpineapple": 1580,
      "Ġreleas": 1581,
      "Ġ450": 1582,
      "Ġdivide": 1583,
      "uconost": 1584,
      "Ġmixes": 1585,
      "Ġbrown": 1586,
      "ĠLeuconost": 1587,
      "purpose": 1588,
      "Ġreleases": 1589,
      "ĠLeuconostoc": 1590,
      "age": 1591,
      "gles": 1592,
      "Ġwaste": 1593,
      "Ġmat": 1594,
      "ĠWater": 1595,
      "rib": 1596,
      "Ġrate": 1597,
      "Ġ45": 1598,
      "utri": 1599,
      "Ġvs": 1600,
      "Ġmotions": 1601,
      "Ġallow": 1602,
      "Ġquickly": 1603,
      "Ġpull": 1604,
      "Ġshaken": 1605,
      "Ġjiggles": 1606,
      "Qu": 1607,
      "gen": 1608,
      "mall": 1609,
      "ĠQu": 1610,
      "Ġwin": 1611,
      "Ġcul": 1612,
      "Ġoxy": 1613,
      "ĠSti": 1614,
      "Ġexc": 1615,
      "pping": 1616,
      "ucent": 1617,
      "Ġtransl": 1618,
      "Ġhard": 1619,
      "Ġmeasures": 1620,
      "ĠQuick": 1621,
      "Ġculinary": 1622,
      "Ġoxygen": 1623,
      "Ġtranslucent": 1624,
      "Ġz": 1625,
      "Ġbar": 1626,
      "Ġble": 1627,
      "oration": 1628,
      "ĠpH": 1629,
      "Ġpack": 1630,
      "oloration": 1631,
      "ident": 1632,
      "ĠHel": 1633,
      "Ġpress": 1634,
      "ther": 1635,
      "ness": 1636,
      "Ġkeeps": 1637,
      "Ġkeeping": 1638,
      "ift": 1639,
      "Ġremove": 1640,
      "Ġexcessive": 1641,
      "Ġdiscoloration": 1642,
      "Ġswift": 1643,
      "Ġradiant": 1644,
      "ĠHelp": 1645,
      "Ġmild": 1646,
      "ance": 1647,
      "Ġrim": 1648,
      "Ġlif": 1649,
      "Ġash": 1650,
      "ized": 1651,
      "Ġcontainer": 1652,
      "Ġrun": 1653,
      "Ġart": 1654,
      "ative": 1655,
      "96": 1656,
      "cial": 1657,
      "down": 1658,
      "gg": 1659,
      "Ġfe": 1660,
      "Ġpor": 1661,
      "Ġ210": 1662,
      "ĠHold": 1663,
      "Ġ205": 1664,
      "Ġunbleached": 1665,
      "Ġvent": 1666,
      "Ġ99": 1667,
      "Ġrooms": 1668,
      "Ġconfident": 1669,
      "utrients": 1670,
      "Ġfail": 1671,
      "Ġcoll": 1672,
      "Ġmaking": 1673,
      "ĠDro": 1674,
      "ĠHowever": 1675,
      "ĠCh": 1676,
      "ĠDoes": 1677,
      "Ġcollap": 1678,
      "bon": 1679,
      "iv": 1680,
      "Ġ+": 1681,
      "xtra": 1682,
      "Ġextra": 1683,
      "Ġonto": 1684,
      "mpt": 1685,
      "ĠBake": 1686,
      "ĠWhole": 1687,
      "Ġsave": 1688,
      "Ġaround": 1689,
      "Ġcarbon": 1690,
      "ired": 1691,
      "Ġdon": 1692,
      "aker": 1693,
      "ĠBaker": 1694,
      "ĠPro": 1695,
      "ĠPreheat": 1696,
      "Ġfermenting": 1697,
      "ĠBeginner": 1698,
      "Ġremain": 1699,
      "di": 1700,
      "knead": 1701,
      "Ġbur": 1702,
      "Ġcomp": 1703,
      "Ġstitch": 1704,
      "Ġscra": 1705,
      "Ġweights": 1706,
      "Ġsee": 1707,
      "Ġdries": 1708,
      "cessary": 1709,
      "Ġnecessary": 1710,
      "iquot": 1711,
      "ib": 1712,
      "oss": 1713,
      "Ġsit": 1714,
      "Ġsides": 1715,
      "Ġaffect": 1716,
      "Ġsprings": 1717,
      "Ġtiny": 1718,
      "atic": 1719,
      "Ġbreak": 1720,
      "Ġcub": 1721,
      "oth": 1722,
      "ĠFlour": 1723,
      "Ġstill": 1724,
      "Ġartis": 1725,
      "ĠDropping": 1726,
      "78": 1727,
      "ds": 1728,
      "ike": 1729,
      "like": 1730,
      "ugg": 1731,
      "Ġtru": 1732,
      "Ġcult": 1733,
      "ash": 1734,
      "Ġ26": 1735,
      "Ġpres": 1736,
      "ĠChlor": 1737,
      "uggish": 1738,
      "Ġtrue": 1739,
      "heated": 1740,
      "Ġgumm": 1741,
      "Ġaliquot": 1742,
      "Ġconsult": 1743,
      "Ġneeded": 1744,
      "Ġsoupy": 1745,
      "Ġgummy": 1746,
      "ie": 1747,
      "way": 1748,
      "Ġaway": 1749,
      "orative": 1750,
      "Ġinternal": 1751,
      "Ġgive": 1752,
      "Ġsteel": 1753,
      "Ġsticking": 1754,
      "Ġdecorative": 1755,
      "Ġfeel": 1756,
      "Ġcollapses": 1757,
      "ets": 1758,
      "Ġbeen": 1759,
      "Ġslash": 1760,
      "Ġscraper": 1761,
      "cc": 1762,
      "get": 1763,
      "hib": 1764,
      "mic": 1765,
      "ttan": 1766,
      "Ġlast": 1767,
      "Ġinhib": 1768,
      "ĠHell": 1769,
      "Ġrattan": 1770,
      "Ġchemic": 1771,
      "ĠChecking": 1772,
      "Ġinhibit": 1773,
      "ĠHello": 1774,
      "rate": 1775,
      "Ġocc": 1776,
      "urs": 1777,
      "Ġbuffer": 1778,
      "Ġperform": 1779,
      "Ġlarger": 1780,
      "Ġingredient": 1781,
      "Ġfilm": 1782,
      "Ġlamination": 1783,
      "Ġheavy": 1784,
      "Ġoccurs": 1785,
      "gth": 1786,
      "od": 1787,
      "Ġpri": 1788,
      "Ġstren": 1789,
      "Ġstone": 1790,
      "Ġskip": 1791,
      "Ġdifference": 1792,
      "Ġstrength": 1793,
      "hol": 1794,
      "Ġph": 1795,
      "Ġjust": 1796,
      "Ġalco": 1797,
      "ollow": 1798,
      "Ġcloth": 1799,
      "Ġcrisp": 1800,
      "Ġstraight": 1801,
      "Ġkneading": 1802,
      "Ġcubes": 1803,
      "Ġpreser": 1804,
      "Ġalcohol": 1805,
      "Ġdoughs": 1806,
      "act": 1807,
      "Ġright": 1808,
      "Ġacc": 1809,
      "Ġthick": 1810,
      "Ġthere": 1811,
      "Ġbloom": 1812,
      "ĠCoil": 1813,
      "32": 1814,
      "listers": 1815,
      "min": 1816,
      "og": 1817,
      "Ġsaves": 1818,
      "Ġtaking": 1819,
      "Ġwrap": 1820,
      "Ġmeth": 1821,
      "ran": 1822,
      "Ġgo": 1823,
      "ĠTra": 1824,
      "Ġboth": 1825,
      "Ġabout": 1826,
      "Ġtears": 1827,
      "Ġblock": 1828,
      "Ġmethod": 1829,
      "SP": 1830,
      "wich": 1831,
      "Ġol": 1832,
      "Ġsand": 1833,
      "Ġbad": 1834,
      "Ġdense": 1835,
      "tim": 1836,
      "esired": 1837,
      "itch": 1838,
      "Ġgold": 1839,
      "Ġhey": 1840,
      "Ġless": 1841,
      "Ġuses": 1842,
      "osed": 1843,
      "ĠESP": 1844,
      "Ġenzymatic": 1845,
      "Ġdegraded": 1846,
      "Ġdissolv": 1847,
      "Ġdraft": 1848,
      "Ġartisan": 1849,
      "Ġolive": 1850,
      "Ġsandwich": 1851,
      "Ġgolden": 1852,
      "me": 1853,
      "Ġuns": 1854,
      "Ġcondi": 1855,
      "Ġcane": 1856,
      "Ġalways": 1857,
      "Ġknow": 1858,
      "Ġconditions": 1859,
      "ched": 1860,
      "mary": 1861,
      "uild": 1862,
      "Ġold": 1863,
      "Ġfan": 1864,
      "Ġwas": 1865,
      "Ġstarch": 1866,
      "ĠSte": 1867,
      "ries": 1868,
      "ĠBuild": 1869,
      "Ġmineral": 1870,
      "aintain": 1871,
      "Ġscale": 1872,
      "ĠMaintain": 1873,
      "hape": 1874,
      "Ġsetting": 1875,
      "Ġrelax": 1876,
      "Ġeliminates": 1877,
      "Ġpreparing": 1878,
      "Ġprimary": 1879,
      "ces": 1880,
      "ply": 1881,
      "ue": 1882,
      "xic": 1883,
      "ĠG": 1884,
      "Ġdust": 1885,
      "Ġcha": 1886,
      "tiply": 1887,
      "Ġmul": 1888,
      "Ġcover": 1889,
      "Ġ36": 1890,
      "Ġdef": 1891,
      "Ġ68": 1892,
      "Ġgrain": 1893,
      "Ġbask": 1894,
      "Ġcheese": 1895,
      "Ġmultiply": 1896,
      "80": 1897,
      "itial": 1898,
      "ual": 1899,
      "Ġpow": 1900,
      "Ġinitial": 1901,
      "Ġ120": 1902,
      "Ġconsume": 1903,
      "Ġsets": 1904,
      "Ġlame": 1905,
      "Ġstop": 1906,
      "Ġchemicals": 1907,
      "Ġpowder": 1908,
      "aill": 1909,
      "free": 1910,
      "gars": 1911,
      "Ġgood": 1912,
      "Ġunco": 1913,
      "ĠPer": 1914,
      "umed": 1915,
      "ĠMaill": 1916,
      "Ġsugars": 1917,
      "Ġconsumed": 1918,
      "Ġscores": 1919,
      "Ġfinger": 1920,
      "Ġtightly": 1921,
      "Ġuncovered": 1922,
      "ĠMaillard": 1923,
      "blisters": 1924,
      "day": 1925,
      "nc": 1926,
      "ĠU": 1927,
      "eness": 1928,
      "Ġfu": 1929,
      "Ġbran": 1930,
      "Ġday": 1931,
      "Ġtowards": 1932,
      "esting": 1933,
      "Ġgent": 1934,
      "ĠFren": 1935,
      "ckets": 1936,
      "Ġconvection": 1937,
      "Ġkitch": 1938,
      "Ġprelimin": 1939,
      "Ġhigher": 1940,
      "ĠResting": 1941,
      "Ġmainten": 1942,
      "Ġcomplex": 1943,
      "mming": 1944,
      "Ġpockets": 1945,
      "Ġgrams": 1946,
      "Ġweeks": 1947,
      "Ġprogramming": 1948,
      "Ġorganizes": 1949,
      "Ġdoneness": 1950,
      "ĠTrapped": 1951,
      "Ġrelaxes": 1952,
      "ĠFrench": 1953,
      "Ġkitchen": 1954,
      "Ġpreliminary": 1955,
      "Ġmaintenance": 1956,
      "23": 1957,
      "ah": 1958,
      "able": 1959,
      "no": 1960,
      "za": 1961,
      "zzy": 1962,
      "Ġassis": 1963,
      "eration": 1964,
      "tate": 1965,
      "Ġbase": 1966,
      "Ġpiz": 1967,
      "idd": 1968,
      "ific": 1969,
      "Ġafterno": 1970,
      "Ġfingers": 1971,
      "Ġdoubled": 1972,
      "ahm": 1973,
      "Ġpizza": 1974,
      "Ġafternoon": 1975,
      "65": 1976,
      "ears": 1977,
      "terns": 1978,
      "Ġget": 1979,
      "Ġrev": 1980,
      "chn": 1981,
      "Ġconven": 1982,
      "rip": 1983,
      "Ġrather": 1984,
      "Ġdies": 1985,
      "Ġsafely": 1986,
      "Ġpatterns": 1987,
      "Ġsuppresses": 1988,
      "Ġ140": 1989,
      "Ġconventional": 1990,
      "26": 1991,
      "dd": 1992,
      "iac": 1993,
      "nel": 1994,
      "rin": 1995,
      "Ġside": 1996,
      "Ġtu": 1997,
      "Ġtha": 1998,
      "Ġcel": 1999,
      "Ġtoxic": 2000,
      "Ġman": 2001,
      "oler": 2002,
      "aling": 2003,
      "Ġgu": 2004,
      "Ġflours": 2005,
      "Ġempt": 2006,
      "Ġspir": 2007,
      "Ġdeta": 2008,
      "ĠCold": 2009,
      "ĠBare": 2010,
      "Ġrotate": 2011,
      "Ġblack": 2012,
      "Ġshallowly": 2013,
      "Ġsealed": 2014,
      "Ġconsistent": 2015,
      "Ġassist": 2016,
      "Ġthaw": 2017,
      "Ġceliac": 2018,
      "Ġempty": 2019,
      "bak": 2020,
      "ital": 2021,
      "line": 2022,
      "ys": 2023,
      "Ġfed": 2024,
      "Ġdue": 2025,
      "Ġcor": 2026,
      "Ġinter": 2027,
      "rumb": 2028,
      "ĠAll": 2029,
      "Ġcomb": 2030,
      "Ġcontin": 2031,
      "ĠCrumb": 2032,
      "Ġthis": 2033,
      "Ġoffline": 2034,
      "Ġcutting": 2035,
      "ĠGently": 2036,
      "chniqu": 2037,
      "baked": 2038,
      "Ġcorn": 2039,
      "Ġcombo": 2040,
      "Ġcontinu": 2041,
      "even": 2042,
      "gain": 2043,
      "ler": 2044,
      "ptim": 2045,
      "rre": 2046,
      "tre": 2047,
      "tered": 2048,
      "Ġagain": 2049,
      "Ġcir": 2050,
      "Ġhollow": 2051,
      "ower": 2052,
      "ased": 2053,
      "Ġirre": 2054,
      "ĠStre": 2055,
      "Ġuneven": 2056,
      "usually": 2057,
      "Ġupwards": 2058,
      "Ġincrease": 2059,
      "develop": 2060,
      "ĠKahm": 2061,
      "ĠOptim": 2062,
      "Ġsample": 2063,
      "Ġgreased": 2064,
      "Ġmassive": 2065,
      "Ġpersonal": 2066,
      "Ġgentler": 2067,
      "230": 2068,
      "Ġcircul": 2069,
      "Ġirregular": 2070,
      "ĠStretch": 2071,
      "ĠOptimal": 2072,
      "%+": 2073,
      "71": 2074,
      "gital": 2075,
      "wan": 2076,
      "Ġser": 2077,
      "Ġsol": 2078,
      "Ġapar": 2079,
      "ourag": 2080,
      "Ġpr": 2081,
      "Ġperm": 2082,
      "anently": 2083,
      "Ġcomm": 2084,
      "ĠSp": 2085,
      "ĠCon": 2086,
      "Ġunwan": 2087,
      "Ġdigital": 2088,
      "Ġstale": 2089,
      "Ġmode": 2090,
      "Ġbakers": 2091,
      "ize": 2092,
      "Ġlowers": 2093,
      "Ġusual": 2094,
      "ĠThey": 2095,
      "Ġgases": 2096,
      "Ġresting": 2097,
      "ĠOven": 2098,
      "Ġclay": 2099,
      "Ġindic": 2100,
      "tened": 2101,
      "Ġdoubling": 2102,
      "Ġencourag": 2103,
      "weetened": 2104,
      "ĠStir": 2105,
      "Ġbreakdown": 2106,
      "Ġunsweetened": 2107,
      "Ġfuzzy": 2108,
      "Ġsolid": 2109,
      "Ġapart": 2110,
      "Ġpermanently": 2111,
      "Ġunwanted": 2112,
      "Ġencouraging": 2113,
      "38": 2114,
      "ctions": 2115,
      "fts": 2116,
      "nous": 2117,
      "tens": 2118,
      "Ġpha": 2119,
      "Ġlack": 2120,
      "ightly": 2121,
      "Ġdep": 2122,
      "vernous": 2123,
      "Ġ72": 2124,
      "Ġslightly": 2125,
      "Ġcavernous": 2126,
      "Ġsuff": 2127,
      "ĠInternal": 2128,
      "Ġflavors": 2129,
      "Ġstiffens": 2130,
      "Ġreaction": 2131,
      "Ġresult": 2132,
      "Ġpreserving": 2133,
      "Ġphase": 2134,
      "34": 2135,
      "64": 2136,
      "ave": 2137,
      "lic": 2138,
      "oh": 2139,
      "sum": 2140,
      "yp": 2141,
      "Ġvery": 2142,
      "Ġsum": 2143,
      "Ġtun": 2144,
      "ero": 2145,
      "tand": 2146,
      "Ġlav": 2147,
      "Ġregul": 2148,
      "ading": 2149,
      "Ġfermented": 2150,
      "ĠFinal": 2151,
      "Ġ334": 2152,
      "Ġbeginner": 2153,
      "Ġ464": 2154,
      "Ġ550": 2155,
      "Ġoverr": 2156,
      "imals": 2157,
      "ome": 2158,
      "alls": 2159,
      "Ġ93": 2160,
      "etone": 2161,
      "Ġrounded": 2162,
      "Ġbox": 2163,
      "ĠDissol": 2164,
      "Ġdecimals": 2165,
      "Ġsecondary": 2166,
      "duce": 2167,
      "Ġtastes": 2168,
      "Ġzero": 2169,
      "Ġconsistently": 2170,
      "Ġtunnel": 2171,
      "tandard": 2172,
      "Ġlava": 2173,
      "ĠDissolve": 2174,
      "ease": 2175,
      "gar": 2176,
      "ior": 2177,
      "iving": 2178,
      "losed": 2179,
      "mol": 2180,
      "tr": 2181,
      "tched": 2182,
      "ina": 2183,
      "Ġplease": 2184,
      "arse": 2185,
      "Ġhinder": 2186,
      "tarter": 2187,
      "icip": 2188,
      "ange": 2189,
      "lect": 2190,
      "Ġorange": 2191,
      "Ġreach": 2192,
      "Ġferments": 2193,
      "Ġcoarse": 2194,
      "ĠDist": 2195,
      "ĠFold": 2196,
      "Ġ38": 2197,
      "Ġsprink": 2198,
      "ĠSalt": 2199,
      "Ġglide": 2200,
      "Ġloses": 2201,
      "Ġacetone": 2202,
      "ĠCup": 2203,
      "rier": 2204,
      "Ġthrow": 2205,
      "ĠBey": 2206,
      "Ġdisease": 2207,
      "inegar": 2208,
      "Ġsemol": 2209,
      "ook": 2210,
      "Ġstretched": 2211,
      "ĠLight": 2212,
      "Ġrefrigerate": 2213,
      "Ġgelatinized": 2214,
      "Ġsmoothly": 2215,
      "Ġfiltered": 2216,
      "Ġbonding": 2217,
      "Ġdegrades": 2218,
      "Ġenclosed": 2219,
      "Ġweakening": 2220,
      "Ġensure": 2221,
      "Ġensures": 2222,
      "ribute": 2223,
      "Ġwinter": 2224,
      "Ġbarrier": 2225,
      "Ġdissolved": 2226,
      "meal": 2227,
      "Ġdeflect": 2228,
      "Ġinterior": 2229,
      "ĠCrumbly": 2230,
      "Ġcornmeal": 2231,
      "developed": 2232,
      "Ġcircular": 2233,
      "icipal": 2234,
      "ĠDistribute": 2235,
      "Ġsprinkle": 2236,
      "ĠBeyond": 2237,
      "Ġsemolina": 2238,
      "19": 2239,
      "be": 2240,
      "wheat": 2241,
      "enger": 2242,
      "Ġtre": 2243,
      "oney": 2244,
      "Ġhoney": 2245,
      "Ġgen": 2246,
      "Ġyears": 2247,
      "Ġspe": 2248,
      "Ġspot": 2249,
      "ĠShape": 2250,
      "Ġkicks": 2251,
      "llenger": 2252,
      "Ġslows": 2253,
      "Ġenvelop": 2254,
      "ĠMake": 2255,
      "Ġmotion": 2256,
      "Ġoutside": 2257,
      "aud": 2258,
      "Ġturning": 2259,
      "Ġholding": 2260,
      "ĠPrefermented": 2261,
      "comb": 2262,
      "Ġrestric": 2263,
      "Ġboard": 2264,
      "Ġrolls": 2265,
      "Ġpulling": 2266,
      "Ġfreshly": 2267,
      "Ġsourdoh": 2268,
      "ĠSlide": 2269,
      "Ġincorporates": 2270,
      "Ġchilled": 2271,
      "Ġcurl": 2272,
      "Ġlifting": 2273,
      "Ġbasket": 2274,
      "ĠPerform": 2275,
      "Ġdetach": 2276,
      "Ġunevenly": 2277,
      "190": 2278,
      "Ġhoneycomb": 2279,
      "Ġkickstar": 2280,
      "Ġenvelope": 2281,
      "36": 2282,
      "bed": 2283,
      "flour": 2284,
      "gree": 2285,
      "iti": 2286,
      "vic": 2287,
      "Ġtrip": 2288,
      "Ġwicks": 2289,
      "ending": 2290,
      "ndist": 2291,
      "tiful": 2292,
      "aries": 2293,
      "arget": 2294,
      "rated": 2295,
      "Ġundist": 2296,
      "Ġfluff": 2297,
      "aniti": 2298,
      "Ġstarts": 2299,
      "Ġ236": 2300,
      "urbed": 2301,
      "Ġ(>": 2302,
      "ĠSto": 2303,
      "Ġbeau": 2304,
      "ĠCha": 2305,
      "Ġbypro": 2306,
      "epeat": 2307,
      "irt": 2308,
      "Ġdistin": 2309,
      "Ġfeeds": 2310,
      "Ġvaries": 2311,
      "iably": 2312,
      "ĠRepeat": 2313,
      "Ġusually": 2314,
      "Ġcrevic": 2315,
      "degree": 2316,
      "Ġmicron": 2317,
      "iciently": 2318,
      "240": 2319,
      "Ġcookers": 2320,
      "Ġreliably": 2321,
      "Ġimprin": 2322,
      "Ġenzymes": 2323,
      "125": 2324,
      "Ġeliminate": 2325,
      "ĠSluggish": 2326,
      "duct": 2327,
      "Ġincorporate": 2328,
      "Ġhydrates": 2329,
      "Ġdrop": 2330,
      "Ġbleached": 2331,
      "Ġpacking": 2332,
      "Ġmilder": 2333,
      "Ġspirals": 2334,
      "Ġlacks": 2335,
      "Ġdepending": 2336,
      "Ġsufficiently": 2337,
      "Ġthrowing": 2338,
      "Ġundisturbed": 2339,
      "Ġfluffed": 2340,
      "Ġbeautiful": 2341,
      "Ġbyproduct": 2342,
      "Ġdistinct": 2343,
      "Ġcrevices": 2344,
      "Ġmicronutrients": 2345,
      "Ġimprints": 2346,
      "13": 2347,
      "DT": 2348,
      "iel": 2349,
      "mend": 2350,
      "ox": 2351,
      "Ġcap": 2352,
      "Ġpuff": 2353,
      "Ġmidd": 2354,
      "icro": 2355,
      "acc": 2356,
      "Ġonce": 2357,
      "ĠHigh": 2358,
      "ĠAsh": 2359,
      "ĠDDT": 2360,
      "Ġthir": 2361,
      "Ġdiox": 2362,
      "Ġtemps": 2363,
      "ĠMicro": 2364,
      "Ġacidic": 2365,
      "ĠLook": 2366,
      "Ġexpresses": 2367,
      "ĠOver": 2368,
      "ĠBefore": 2369,
      "Ġdelay": 2370,
      "rape": 2371,
      "Ġslowly": 2372,
      "Ġthoroughly": 2373,
      "ĠFermentolyse": 2374,
      "ĠUn": 2375,
      "Ġagainst": 2376,
      "%+),": 2377,
      "Ġpuffy": 2378,
      "Ġmiddle": 2379,
      "Ġdioxide": 2380,
      "mat": 2381,
      "ool": 2382,
      "ping": 2383,
      "slic": 2384,
      "Ġswee": 2385,
      "Ġaeration": 2386,
      "ercial": 2387,
      "Ġfreeze": 2388,
      "xture": 2389,
      "terday": 2390,
      "Ġpleas": 2391,
      "esterday": 2392,
      "Ġleast": 2393,
      "ical": 2394,
      "Ġgerm": 2395,
      "Ġyesterday": 2396,
      "aced": 2397,
      "elt": 2398,
      "Ġtender": 2399,
      "Ġtechniqu": 2400,
      "Ġtexture": 2401,
      "ĠAvoid": 2402,
      "mples": 2403,
      "Ġproper": 2404,
      "Ġspaced": 2405,
      "Ġspelt": 2406,
      "ĠSmall": 2407,
      "Ġpremat": 2408,
      "Ġwhenever": 2409,
      "Ġvis": 2410,
      "Ġblend": 2411,
      "ĠThen": 2412,
      "Ġproteins": 2413,
      "assic": 2414,
      "Ġclassic": 2415,
      "Ġsamples": 2416,
      "ginners": 2417,
      "Ġfruity": 2418,
      "Ġgreater": 2419,
      "Ġsliced": 2420,
      "Ġrubbery": 2421,
      "Ġboiling": 2422,
      "Ġstirred": 2423,
      "Ġsignific": 2424,
      "Ġfavors": 2425,
      "Ġexceeds": 2426,
      "Ġfails": 2427,
      "Ġremainder": 2428,
      "ĠSteam": 2429,
      "Ġtucking": 2430,
      "Ġcommercial": 2431,
      "Ġtriples": 2432,
      "ĠStore": 2433,
      "sliced": 2434,
      "Ġsweeter": 2435,
      "Ġpleasantly": 2436,
      "Ġpremature": 2437,
      "Ġsignificantly": 2438,
      "con": 2439,
      "lastic": 2440,
      "standard": 2441,
      "Ġtigh": 2442,
      "ert": 2443,
      "Ġdutch": 2444,
      "Ġcol": 2445,
      "Ġpot": 2446,
      "Ġput": 2447,
      "rafts": 2448,
      "Ġ11": 2449,
      "etw": 2450,
      "Ġelastic": 2451,
      "aces": 2452,
      "Ġteeth": 2453,
      "ĠAs": 2454,
      "ĠThat": 2455,
      "ĠDrafts": 2456,
      "Ġnetw": 2457,
      "ĠBread": 2458,
      "ipid": 2459,
      "Ġshower": 2460,
      "Ġleath": 2461,
      "Ġinsipid": 2462,
      "Ġcrumbs": 2463,
      "Ġcrumbly": 2464,
      "Ġsurfaces": 2465,
      "ĠRe": 2466,
      "Ġrounding": 2467,
      "Ġdouble": 2468,
      "ĠWithout": 2469,
      "Ġturned": 2470,
      "Ġreaches": 2471,
      "Ġportion": 2472,
      "Ġpowdery": 2473,
      "Ġcontinues": 2474,
      "Ġindicating": 2475,
      "Ġregulates": 2476,
      "troll": 2477,
      "Ġrestricts": 2478,
      "ĠChallenger": 2479,
      "controll": 2480,
      "Ġtightens": 2481,
      "Ġleathery": 2482,
      "bo": 2483,
      "gn": 2484,
      "ite": 2485,
      "Ġcrow": 2486,
      "owy": 2487,
      "Ġev": 2488,
      "Ġrole": 2489,
      "Ġtell": 2490,
      "Ġ35": 2491,
      "Ġspeed": 2492,
      "Ġ200": 2493,
      "aving": 2494,
      "ĠBreak": 2495,
      "Ġleaving": 2496,
      "Ġtray": 2497,
      "Ġcupbo": 2498,
      "Ġdrying": 2499,
      "Ġabove": 2500,
      "Ġproofed": 2501,
      "isten": 2502,
      "Ġdeveloped": 2503,
      "Ġcalculated": 2504,
      "Ġthinly": 2505,
      "Ġharm": 2506,
      "Ġcheesy": 2507,
      "Ġslices": 2508,
      "Ġweek": 2509,
      "Ġhardens": 2510,
      "ĠProof": 2511,
      "Ġfeels": 2512,
      "ĠSpread": 2513,
      "ĠConvection": 2514,
      "Ġkickstarting": 2515,
      "Ġcrowns": 2516,
      "Ġcupboard": 2517,
      "bes": 2518,
      "oak": 2519,
      "enet": 2520,
      "Ġtyp": 2521,
      "Ġbre": 2522,
      "Ġwrink": 2523,
      "ony": 2524,
      "Ġpenet": 2525,
      "ically": 2526,
      "ĠIns": 2527,
      "ural": 2528,
      "ĠDuring": 2529,
      "ĠDust": 2530,
      "ĠSoak": 2531,
      "Ġ475": 2532,
      "Ġmixed": 2533,
      "Ġmixers": 2534,
      "Ġ245": 2535,
      "Ġmaintain": 2536,
      "Ġdeeply": 2537,
      "Ġstructural": 2538,
      "Ġlids": 2539,
      "Ġdamp": 2540,
      "Ġhelps": 2541,
      "Ġmicrobes": 2542,
      "Ġsourness": 2543,
      "ĠEx": 2544,
      "ĠFermentation": 2545,
      "Ġexpands": 2546,
      "Ġallowing": 2547,
      "Ġoverride": 2548,
      "irtually": 2549,
      "Ġcolony": 2550,
      "Ġtypically": 2551,
      "Ġbrew": 2552,
      "Ġwrinkled": 2553,
      "Ġpenetrate": 2554,
      "175": 2555,
      "nicipal": 2556,
      "rents": 2557,
      "sip": 2558,
      "vice": 2559,
      "Ġsofte": 2560,
      "ofess": 2561,
      "Ġball": 2562,
      "Ġwire": 2563,
      "oled": 2564,
      "top": 2565,
      "rix": 2566,
      "Ġunless": 2567,
      "Ġdissip": 2568,
      "apor": 2569,
      "Ġleft": 2570,
      "Ġrectan": 2571,
      "ĠRye": 2572,
      "Ġsuch": 2573,
      "Ġmunicipal": 2574,
      "cooled": 2575,
      "Ġcountertop": 2576,
      "ĠCooler": 2577,
      "Ġdifferent": 2578,
      "Ġboiled": 2579,
      "Ġcurrents": 2580,
      "Ġmatrix": 2581,
      "ĠChlorine": 2582,
      "Ġserrated": 2583,
      "Ġprofess": 2584,
      "Ġgeneral": 2585,
      "anitize": 2586,
      "Ġevapor": 2587,
      "Ġsoftens": 2588,
      "Ġdissipate": 2589,
      "Ġrectangular": 2590,
      "Ġprofession": 2591,
      "nge": 2592,
      "set": 2593,
      "ware": 2594,
      "Ġsound": 2595,
      "Ġfoc": 2596,
      "Ġpans": 2597,
      "Ġprobe": 2598,
      "Ġunheated": 2599,
      "ipper": 2600,
      "Ġslides": 2601,
      "Ġscall": 2602,
      "Ġ1000": 2603,
      "Ġleave": 2604,
      "oped": 2605,
      "Ġlets": 2606,
      "ĠRice": 2607,
      "Ġtrack": 2608,
      "Ġoffset": 2609,
      "Ġtapping": 2610,
      "Ġeasy": 2611,
      "ĠBeginners": 2612,
      "Ġbetter": 2613,
      "Ġstrange": 2614,
      "Ġdrops": 2615,
      "ageable": 2616,
      "Ġculture": 2617,
      "Ġmanageable": 2618,
      "ĠInsert": 2619,
      "Ġsounds": 2620,
      "Ġscalloped": 2621,
      "70": 2622,
      "ex": 2623,
      "hical": 2624,
      "ile": 2625,
      "mo": 2626,
      "pred": 2627,
      "stic": 2628,
      "Ġsole": 2629,
      "Ġsize": 2630,
      "tably": 2631,
      "ors": 2632,
      "Ġtoss": 2633,
      "Ġmar": 2634,
      "Ġhus": 2635,
      "Ġflex": 2636,
      "ictably": 2637,
      "Ġ28": 2638,
      "Ġemo": 2639,
      "ilos": 2640,
      "ĠHarm": 2641,
      "ĠHand": 2642,
      "Ġrich": 2643,
      "elerate": 2644,
      "ĠDesired": 2645,
      "Ġspore": 2646,
      "ĠSanitize": 2647,
      "Ġdeter": 2648,
      "Ġunpred": 2649,
      "verns": 2650,
      "Ġbut": 2651,
      "Ġvom": 2652,
      "ophical": 2653,
      "ĠLam": 2654,
      "ively": 2655,
      "Ġtrap": 2656,
      "Ġoffer": 2657,
      "Ġ82": 2658,
      "Ġrustic": 2659,
      "lusively": 2660,
      "device": 2661,
      "shmall": 2662,
      "Ġrises": 2663,
      "Ġmicrocontroll": 2664,
      "Ġmedically": 2665,
      "Ġsuppress": 2666,
      "Ġexclusively": 2667,
      "Ġphilos": 2668,
      "Ġaccelerate": 2669,
      "Ġgoverns": 2670,
      "ĠHigher": 2671,
      "Ġthirds": 2672,
      "Ġprematurely": 2673,
      "Ġelasticity": 2674,
      "Ġsolely": 2675,
      "Ġmarshmall": 2676,
      "Ġhusk": 2677,
      "Ġflexible": 2678,
      "Ġemotional": 2679,
      "ĠHarmful": 2680,
      "Ġricher": 2681,
      "Ġspores": 2682,
      "Ġunpredictably": 2683,
      "Ġvomit": 2684,
      "Ġmicrocontroller": 2685,
      "Ġphilosophical": 2686,
      "Ġmarshmallowy": 2687,
      "bs": 2688,
      "ings": 2689,
      "Ġpie": 2690,
      "Ġreduce": 2691,
      "Ġgloss": 2692,
      "Ġstring": 2693,
      "Ġloose": 2694,
      "Ġloading": 2695,
      "llo": 2696,
      "Ġhello": 2697,
      "Ġvirtually": 2698,
      "ĠForm": 2699,
      "ĠMix": 2700,
      "Ġmoisten": 2701,
      "Ġdirections": 2702,
      "ĠRun": 2703,
      "Ġequals": 2704,
      "Ġshear": 2705,
      "Ġindentation": 2706,
      "Ġhealthy": 2707,
      "ĠInclusions": 2708,
      "Ġcrisps": 2709,
      "Ġimposs": 2710,
      "ĠScaling": 2711,
      "Ġrunning": 2712,
      "Ġchains": 2713,
      "accia": 2714,
      "Ġtechnique": 2715,
      "Ġfocaccia": 2716,
      "Ġpiece": 2717,
      "Ġglossy": 2718,
      "Ġstringy": 2719,
      "Ġloosely": 2720,
      "Ġimpossible": 2721,
      "Ġwon": 2722,
      "Ġwalls": 2723,
      "iction": 2724,
      "ĠWhile": 2725,
      "Ġ720": 2726,
      "Ġlevel": 2727,
      "Ġ970": 2728,
      "Ġpercent": 2729,
      "Ġfriction": 2730,
      "Ġdegree": 2731,
      "ĠFeeding": 2732,
      "Ġfilter": 2733,
      "100": 2734,
      "Ġbases": 2735,
      "Ġactivated": 2736,
      "Ġportions": 2737,
      "Ġburning": 2738,
      "Ġblooms": 2739,
      "Ġvisible": 2740,
      "Ġevaporate": 2741,
      "Ġprofessional": 2742,
      "15": 2743,
      "aw": 2744,
      "cer": 2745,
      "ced": 2746,
      "fool": 2747,
      "kes": 2748,
      "trib": 2749,
      "inted": 2750,
      "Ġaerate": 2751,
      "Ġpent": 2752,
      "rokes": 2753,
      "Ġforced": 2754,
      "Ġgiving": 2755,
      "Ġcrush": 2756,
      "ĠDense": 2757,
      "ĠSaw": 2758,
      "Ġstrokes": 2759,
      "Ġbeer": 2760,
      "Ġdistrib": 2761,
      "Ġblow": 2762,
      "Ġblast": 2763,
      "Ġstatic": 2764,
      "Ġstretching": 2765,
      "Ġletter": 2766,
      "Ġexpos": 2767,
      "Ġformation": 2768,
      "osans": 2769,
      "Ġpointed": 2770,
      "Ġheavily": 2771,
      "Ġworking": 2772,
      "Ġconsistenc": 2773,
      "ĠScrape": 2774,
      "Ġbleach": 2775,
      "Ġpressing": 2776,
      "actor": 2777,
      "Ġtunneling": 2778,
      "Ġtremend": 2779,
      "Ġspecial": 2780,
      "Ġharmless": 2781,
      "ĠLamination": 2782,
      "Ġsuppressing": 2783,
      "Ġpentosans": 2784,
      "Ġcrushing": 2785,
      "Ġdistributes": 2786,
      "Ġexposure": 2787,
      "Ġconsistency": 2788,
      "Ġtremendous": 2789,
      "dow": 2790,
      "hour": 2791,
      "lays": 2792,
      "plays": 2793,
      "vinegar": 2794,
      "wel": 2795,
      "yog": 2796,
      "yiel": 2797,
      "Ġfly": 2798,
      "Ġbul": 2799,
      "Ġtowel": 2800,
      "Ġpour": 2801,
      "aks": 2802,
      "ration": 2803,
      "ics": 2804,
      "Ġod": 2805,
      "ĠWet": 2806,
      "urt": 2807,
      "total": 2808,
      "Ġconta": 2809,
      "Ġdisplays": 2810,
      "ffins": 2811,
      "Ġseedling": 2812,
      "ĠRest": 2813,
      "ĠRub": 2814,
      "Ġmuffins": 2815,
      "Ġfermentolyse": 2816,
      "ĠOn": 2817,
      "Ġlinen": 2818,
      "Ġwindow": 2819,
      "Ġmildness": 2820,
      "ĠProperly": 2821,
      "Ġrevive": 2822,
      "yogurt": 2823,
      "yields": 2824,
      "Ġflying": 2825,
      "Ġbulb": 2826,
      "ĠRubaud": 2827,
      "18": 2828,
      "etar": 2829,
      "most": 2830,
      "nutrients": 2831,
      "rd": 2832,
      "ule": 2833,
      "uals": 2834,
      "wage": 2835,
      "orary": 2836,
      "orning": 2837,
      "Ġthese": 2838,
      "Ġmot": 2839,
      "Ġmatch": 2840,
      "Ġmorning": 2841,
      "hard": 2842,
      "iduals": 2843,
      "ley": 2844,
      "ĠWork": 2845,
      "ĠAI": 2846,
      "Ġproperly": 2847,
      "cked": 2848,
      "Ġconduc": 2849,
      "Ġdietar": 2850,
      "Ġliving": 2851,
      "Ġtemporary": 2852,
      "Ġsched": 2853,
      "Ġhandled": 2854,
      "ĠMore": 2855,
      "Ġsewage": 2856,
      "Ġalmost": 2857,
      "ĠLo": 2858,
      "Ġindiv": 2859,
      "ĠYeast": 2860,
      "Ġstrongly": 2861,
      "Ġcookies": 2862,
      "Ġcookie": 2863,
      "Ġorganic": 2864,
      "Ġbarley": 2865,
      "Ġrimmed": 2866,
      "Ġlife": 2867,
      "Ġcultures": 2868,
      "Ġnetwork": 2869,
      "Ġdeterg": 2870,
      "Ġodors": 2871,
      "ĠOnce": 2872,
      "Ġmotor": 2873,
      "ĠWorking": 2874,
      "Ġconducted": 2875,
      "Ġdietary": 2876,
      "Ġschedule": 2877,
      "Ġindividuals": 2878,
      "ogh": 2879,
      "uter": 2880,
      "uogh": 2881,
      "ety": 2882,
      "uts": 2883,
      "Ġsafety": 2884,
      "Ġzipper": 2885,
      "Ġventing": 2886,
      "Ġcomputer": 2887,
      "ĠChloramine": 2888,
      "ĠLoad": 2889,
      "Ro": 2890,
      "gine": 2891,
      "uss": 2892,
      "Ġ-": 2893,
      "Ġx": 2894,
      "Ġsumm": 2895,
      "Ġcakes": 2896,
      "Ġpast": 2897,
      "ĠTarget": 2898,
      "ĠFric": 2899,
      "ĠFactor": 2900,
      "Ġlook": 2901,
      "Ġengine": 2902,
      "Ġband": 2903,
      "produc": 2904,
      "Ġtopics": 2905,
      "Ġbatards": 2906,
      "Ġdiscuss": 2907,
      "Ġsourduogh": 2908,
      "Ġrubber": 2909,
      "ives": 2910,
      "ĠUnlike": 2911,
      "Room": 2912,
      "Ġsummer": 2913,
      "Ġpastries": 2914,
      "ĠFriction": 2915,
      "Ġengineering": 2916,
      "Ġpas": 2917,
      "ĠCalcul": 2918,
      "Ġnuts": 2919,
      "Ġdiag": 2920,
      "Ġthanks": 2921,
      "Ġbannetons": 2922,
      "grade": 2923,
      "Ġpasta": 2924,
      "ĠCalculating": 2925,
      "Ġdiagn": 2926,
      "bor": 2927,
      "iries": 2928,
      "Ġpath": 2929,
      "Ġinqu": 2930,
      "roperly": 2931,
      "ĠSever": 2932,
      "rite": 2933,
      "rive": 2934,
      "Ġthrive": 2935,
      "Ġadmin": 2936,
      "Ġcrusty": 2937,
      "Ġstagn": 2938,
      "istration": 2939,
      "Ġmoldy": 2940,
      "Ġfoodbor": 2941,
      "Ġsoftware": 2942,
      "Ġlamin": 2943,
      "Ġimproperly": 2944,
      "tended": 2945,
      "Ġactivating": 2946,
      "Ġdissolve": 2947,
      "Ġfailing": 2948,
      "minated": 2949,
      "ogens": 2950,
      "ĠExtended": 2951,
      "Ġbrewing": 2952,
      "Ġspecialized": 2953,
      "Ġcontaminated": 2954,
      "Ġpathogens": 2955,
      "Ġinquiries": 2956,
      "ĠSevere": 2957,
      "Ġadministration": 2958,
      "Ġstagnant": 2959,
      "Ġfoodborne": 2960,
      "cross": 2961,
      "tled": 2962,
      "Ġwondering": 2963,
      "ort": 2964,
      "orks": 2965,
      "Ġreproduc": 2966,
      "Ġconver": 2967,
      "rial": 2968,
      "tching": 2969,
      "Ġbottled": 2970,
      "Ġupside": 2971,
      "Ġaltern": 2972,
      "ĠPreheated": 2973,
      "ustrial": 2974,
      "Ġindustrial": 2975,
      "Ġpattern": 2976,
      "Ġcriss": 2977,
      "ĠStitching": 2978,
      "Ġsitting": 2979,
      "Ġinhibits": 2980,
      "Ġreproduction": 2981,
      "Ġalternate": 2982,
      "ments": 2983,
      "Ġtool": 2984,
      "Ġlic": 2985,
      "ull": 2986,
      "Ġconcer": 2987,
      "ixing": 2988,
      "ensed": 2989,
      "Ġsubs": 2990,
      "ician": 2991,
      "tances": 2992,
      "Ġpoke": 2993,
      "Ġmeasure": 2994,
      "Ġphys": 2995,
      "Ġdiagnose": 2996,
      "Ġlicensed": 2997,
      "Ġconcerns": 2998,
      "Ġsubstances": 2999,
      "Ġphysician": 3000,
      "cip": 3001,
      "ien": 3002,
      "iol": 3003,
      "pan": 3004,
      "sid": 3005,
      "Ġtaken": 3006,
      "erien": 3007,
      "Ġdes": 3008,
      "Ġmark": 3009,
      "Ġstarting": 3010,
      "Ġother": 3011,
      "Ġadhes": 3012,
      "Ġexact": 3013,
      "Ġsluggish": 3014,
      "Ġviol": 3015,
      "Ġcare": 3016,
      "Ġexperien": 3017,
      "Ġsudd": 3018,
      "Ġruin": 3019,
      "Ġforming": 3020,
      "Ġedible": 3021,
      "essing": 3022,
      "Ġbenef": 3023,
      "Ġactivity": 3024,
      "Ġpreparation": 3025,
      "Ġguessing": 3026,
      "ĠRecip": 3027,
      "Ġwindowpan": 3028,
      "Ġdetergents": 3029,
      "Ġconvert": 3030,
      "sided": 3031,
      "Ġadhesives": 3032,
      "Ġviolent": 3033,
      "Ġexperiences": 3034,
      "Ġsudden": 3035,
      "ĠRecipe": 3036,
      "Ġwindowpane": 3037,
      "Ġfin": 3038,
      "Ġoval": 3039,
      "ĠStarter": 3040,
      "ĠThere": 3041,
      "ĠChecked": 3042,
      "cted": 3043,
      "Ġter": 3044,
      "oug": 3045,
      "Ġdesired": 3046,
      "ĠTips": 3047,
      "Ġsteaks": 3048,
      "ĠOpen": 3049,
      "Ġcount": 3050,
      "Ġsourdoug": 3051,
      "Ġprogrammed": 3052,
      "pass": 3053,
      "tem": 3054,
      "Ġsim": 3055,
      "ulate": 3056,
      "Ġprompt": 3057,
      "ĠFixing": 3058,
      "Ġdehydra": 3059,
      "Ġbypass": 3060,
      "Ġstep": 3061,
      "igns": 3062,
      "Ġburnt": 3063,
      "ystem": 3064,
      "Ġsimulate": 3065,
      "nch": 3066,
      "starter": 3067,
      "Ġstarer": 3068,
      "ulating": 3069,
      "Ġcrunch": 3070,
      "Ġprefermented": 3071,
      "Ġslap": 3072,
      "Ġhandle": 3073,
      "Ġrubbing": 3074,
      "Ġstays": 3075,
      "lu": 3076,
      "Ġwrite": 3077,
      "Ġpop": 3078,
      "Ġhi": 3079,
      "Ġcore": 3080,
      "Ġglass": 3081,
      "Ġkill": 3082,
      "tical": 3083,
      "Ġinclu": 3084,
      "Ġchecking": 3085,
      "Ġpersonas": 3086,
      "use": 3087,
      "Ġbring": 3088,
      "eliz": 3089,
      "ĠAdd": 3090,
      "Ġnon": 3091,
      "Ġnorm": 3092,
      "ameliz": 3093,
      "Ġrose": 3094,
      "Ġbacterial": 3095,
      "Ġdevelopment": 3096,
      "fference": 3097,
      "ĠDifference": 3098,
      "Ġcarameliz": 3099,
      "Ġguar": 3100,
      "Ġlaminate": 3101,
      "Ġnormal": 3102,
      "fin": 3103,
      "urate": 3104,
      "Ġsome": 3105,
      "Ġdent": 3106,
      "Ġway": 3107,
      "Ġinde": 3108,
      "its": 3109,
      "Ġeat": 3110,
      "Ġslice": 3111,
      "Ġcups": 3112,
      "Ġnegle": 3113,
      "itely": 3114,
      "Ġcrunchy": 3115,
      "finitely": 3116,
      "Ġindefinitely": 3117,
      "Ġneglected": 3118,
      "ding": 3119,
      "ient": 3120,
      "rp": 3121,
      "vid": 3122,
      "Ġamb": 3123,
      "Ġwell": 3124,
      "Ġworks": 3125,
      "ory": 3126,
      "Ġsharp": 3127,
      "rible": 3128,
      "Ġweak": 3129,
      "Ġweigh": 3130,
      "Ġdivid": 3131,
      "Ġalong": 3132,
      "Ġdegass": 3133,
      "Ġmust": 3134,
      "Ġactivate": 3135,
      "Ġdidn": 3136,
      "Ġcompare": 3137,
      "Ġbreaks": 3138,
      "ĠFormula": 3139,
      "ĠFormulating": 3140,
      "Ġterrible": 3141,
      "Ġambient": 3142,
      "Ġdividing": 3143,
      "Ġdegassing": 3144,
      "Ġver": 3145,
      "Ġdoing": 3146,
      "Ġtherm": 3147,
      "vere": 3148,
      "Ġsevere": 3149,
      "Ġadded": 3150,
      "Ġbare": 3151,
      "ĠDoing": 3152,
      "Ġmeasurements": 3153,
      "Ġdesigns": 3154,
      "Ġvertical": 3155,
      "umb": 3156,
      "ench": 3157,
      "ished": 3158,
      "Ġwood": 3159,
      "Ġpaste": 3160,
      "Ġshot": 3161,
      "Ġscaling": 3162,
      "ĠMath": 3163,
      "Ġmean": 3164,
      "Ġscorch": 3165,
      "Ġnew": 3166,
      "Ġstitching": 3167,
      "Ġfinished": 3168,
      "eÃ": 3169,
      "fed": 3170,
      "wall": 3171,
      "waste": 3172,
      "±o": 3173,
      "Ġsep": 3174,
      "Ġsort": 3175,
      "Ġsystem": 3176,
      "olong": 3177,
      "arate": 3178,
      "alap": 3179,
      "eline": 3180,
      "Ġovens": 3181,
      "Ġthough": 3182,
      "Ġunfed": 3183,
      "ĠBest": 3184,
      "Ġjalap": 3185,
      "Ġpanc": 3186,
      "Ġbaseline": 3187,
      "Ġgreen": 3188,
      "Ġpreserve": 3189,
      "eÃ±o": 3190,
      "Ġseparate": 3191,
      "ĠjalapeÃ±o": 3192,
      "92": 3193,
      "man": 3194,
      "sing": 3195,
      "tle": 3196,
      "Ġtough": 3197,
      "Ġtarget": 3198,
      "Ġdull": 3199,
      "oling": 3200,
      "ittle": 3201,
      "Ġforget": 3202,
      "ults": 3203,
      "ĠShaping": 3204,
      "Ġunre": 3205,
      "aint": 3206,
      "Ġcause": 3207,
      "Ġclosed": 3208,
      "Ġpooling": 3209,
      "Ġentirely": 3210,
      "Ġresults": 3211,
      "Ġburns": 3212,
      "Ġdissolves": 3213,
      "Ġmany": 3214,
      "Ġbutter": 3215,
      "Ġcaramelization": 3216,
      "toler": 3217,
      "Ġbal": 3218,
      "Ġcure": 3219,
      "Ġthem": 3220,
      "Ġmis": 3221,
      "Ġintoler": 3222,
      "Ġflou": 3223,
      "Ġgap": 3224,
      "Ġreheat": 3225,
      "Ġregular": 3226,
      "Ġvia": 3227,
      "Ġvinegar": 3228,
      "icial": 3229,
      "Ġrequired": 3230,
      "Ġslicing": 3231,
      "Ġputting": 3232,
      "Ġbeneficial": 3233,
      "Ġweighed": 3234,
      "Ġpancake": 3235,
      "Ġintolerance": 3236,
      "%)": 3237,
      "fer": 3238,
      "got": 3239,
      "here": 3240,
      "mine": 3241,
      "zen": 3242,
      "inated": 3243,
      "Ġstal": 3244,
      "Ġfix": 3245,
      "Ġdone": 3246,
      "reas": 3247,
      "Ġcu": 3248,
      "Ġinst": 3249,
      "ante": 3250,
      "Ġforgot": 3251,
      "ulates": 3252,
      "ructions": 3253,
      "Ġeff": 3254,
      "stric": 3255,
      "Ġprote": 3256,
      "cks": 3257,
      "nsure": 3258,
      "Ġunbaked": 3259,
      "ĠPull": 3260,
      "Ġfrozen": 3261,
      "Ġmixer": 3262,
      "ations": 3263,
      "Ġallows": 3264,
      "ĠNo": 3265,
      "inkly": 3266,
      "Ġhappen": 3267,
      "Ġcrinkly": 3268,
      "ĠEnsure": 3269,
      "Ġrubaud": 3270,
      "ffects": 3271,
      "ived": 3272,
      "Ġbaskets": 3273,
      "Ġrevived": 3274,
      "gnore": 3275,
      "ortless": 3276,
      "Ġbenefits": 3277,
      "Ġdehydrated": 3278,
      "Ġguarante": 3279,
      "Ġscorching": 3280,
      "Ġunrestric": 3281,
      "Ġstalks": 3282,
      "reasing": 3283,
      "Ġinstructions": 3284,
      "Ġforgotten": 3285,
      "Ġeffortless": 3286,
      "ĠPullman": 3287,
      "Ġunrestricted": 3288,
      "cific": 3289,
      "yth": 3290,
      "ounc": 3291,
      "Ġaim": 3292,
      "Ġfit": 3293,
      "ista": 3294,
      "Ġpi": 3295,
      "Ġpure": 3296,
      "Ġpron": 3297,
      "olate": 3298,
      "Ġhit": 3299,
      "Ġhome": 3300,
      "Ġgiant": 3301,
      "ĠWill": 3302,
      "ĠDep": 3303,
      "vers": 3304,
      "Ġminimum": 3305,
      "iness": 3306,
      "Ġacids": 3307,
      "Ġchip": 3308,
      "Ġchoc": 3309,
      "Ġbrowning": 3310,
      "Ġthroughout": 3311,
      "Ġaccurate": 3312,
      "Ġdefl": 3313,
      "Ġtreat": 3314,
      "Ġspecific": 3315,
      "ĠUnbleached": 3316,
      "ĠExp": 3317,
      "ython": 3318,
      "ounced": 3319,
      "Ġpronounced": 3320,
      "ĠDepth": 3321,
      "Ġchocolate": 3322,
      "assis": 3323,
      "centa": 3324,
      "ement": 3325,
      "lk": 3326,
      "matic": 3327,
      "ng": 3328,
      "ton": 3329,
      "tra": 3330,
      "uck": 3331,
      "ind": 3332,
      "Ġcement": 3333,
      "orage": 3334,
      "Ġtore": 3335,
      "Ġpol": 3336,
      "Ġlay": 3337,
      "Ġhidd": 3338,
      "leading": 3339,
      "Ġproduce": 3340,
      "Ġstuck": 3341,
      "Ġstorage": 3342,
      "afe": 3343,
      "Ġweb": 3344,
      "Ġkind": 3345,
      "ĠPython": 3346,
      "Ġslide": 3347,
      "Ġyoung": 3348,
      "Ġwarmer": 3349,
      "Ġdrywall": 3350,
      "Ġdegas": 3351,
      "Ġ85": 3352,
      "Ġmud": 3353,
      "Ġdeeper": 3354,
      "Ġplay": 3355,
      "Ġreadings": 3356,
      "Ġfirms": 3357,
      "Ġabsorbs": 3358,
      "Ġdramatic": 3359,
      "Ġartistic": 3360,
      "times": 3361,
      "Ġdrafty": 3362,
      "Ġchalk": 3363,
      "ĠPercenta": 3364,
      "Ġprolong": 3365,
      "Ġdehydrate": 3366,
      "Ġinclude": 3367,
      "Ġsometimes": 3368,
      "Ġmisleading": 3369,
      "assisted": 3370,
      "Ġhidden": 3371,
      "ĠPercentage": 3372,
      "++": 3373,
      "cre": 3374,
      "gard": 3375,
      "gies": 3376,
      "ivers": 3377,
      "just": 3378,
      "lo": 3379,
      "ner": 3380,
      "numb": 3381,
      "tten": 3382,
      "uge": 3383,
      "viving": 3384,
      "Ġtree": 3385,
      "erates": 3386,
      "erals": 3387,
      "eries": 3388,
      "ergies": 3389,
      "Ġfree": 3390,
      "Ġbir": 3391,
      "Ġbinary": 3392,
      "regard": 3393,
      "isin": 3394,
      "Ġcake": 3395,
      "Ġpaint": 3396,
      "Ġtheir": 3397,
      "Ġlone": 3398,
      "Ġlittle": 3399,
      "arch": 3400,
      "Ġhuge": 3401,
      "anion": 3402,
      "anill": 3403,
      "lements": 3404,
      "ules": 3405,
      "Ġelements": 3406,
      "sting": 3407,
      "Ġrules": 3408,
      "ĠAre": 3409,
      "Ġhack": 3410,
      "Ġcome": 3411,
      "Ġranc": 3412,
      "Ġraisin": 3413,
      "Ġthinn": 3414,
      "Ġadjust": 3415,
      "Ġunivers": 3416,
      "ĠBelow": 3417,
      "ĠBench": 3418,
      "Ġqueries": 3419,
      "Ġwebs": 3420,
      "Ġfrosting": 3421,
      "Ġminerals": 3422,
      "Ġprefer": 3423,
      "Ġscrape": 3424,
      "Ġvanill": 3425,
      "ĠMove": 3426,
      "Ġrotten": 3427,
      "ommend": 3428,
      "Ġsearch": 3429,
      "Ġstreaks": 3430,
      "thday": 3431,
      "Ġrecommend": 3432,
      "Ġincreasing": 3433,
      "ationsh": 3434,
      "Ġdirection": 3435,
      "Ġcausing": 3436,
      "Ġallergies": 3437,
      "rowave": 3438,
      "Ġflatter": 3439,
      "ands": 3440,
      "Ġdiscarding": 3441,
      "Ġsodi": 3442,
      "Ġmicrowave": 3443,
      "Ġbackup": 3444,
      "Ġheating": 3445,
      "Ġpartner": 3446,
      "ĠEffects": 3447,
      "Ġrelationsh": 3448,
      "Ġprogram": 3449,
      "Ġcompanion": 3450,
      "Ġchemical": 3451,
      "Ġcrispy": 3452,
      "ĠSteps": 3453,
      "Ġtuck": 3454,
      "Ġcontinuous": 3455,
      "ometer": 3456,
      "Ġnetworks": 3457,
      "ĠReviving": 3458,
      "Ġcareer": 3459,
      "Ġthermometer": 3460,
      "Ġbuttercre": 3461,
      "Ġdeflating": 3462,
      "loaf": 3463,
      "numbers": 3464,
      "Ġfreely": 3465,
      "Ġbirthday": 3466,
      "Ġlonely": 3467,
      "Ġrancid": 3468,
      "Ġthinner": 3469,
      "Ġuniversal": 3470,
      "Ġwebsite": 3471,
      "Ġvanilla": 3472,
      "Ġrecommendations": 3473,
      "Ġsodium": 3474,
      "Ġrelationship": 3475,
      "Ġbuttercream": 3476,
      "back": 3477,
      "gin": 3478,
      "ma": 3479,
      "oil": 3480,
      "pite": 3481,
      "sents": 3482,
      "sant": 3483,
      "shape": 3484,
      "Ġaro": 3485,
      "Ġtal": 3486,
      "Ġfool": 3487,
      "rect": 3488,
      "resents": 3489,
      "issant": 3490,
      "ends": 3491,
      "Ġcro": 3492,
      "Ġcra": 3493,
      "orrect": 3494,
      "Ġthey": 3495,
      "Ġrever": 3496,
      "Ġreally": 3497,
      "Ġdoct": 3498,
      "Ġhad": 3499,
      "Ġproxy": 3500,
      "ĠDay": 3501,
      "Ġignore": 3502,
      "Ġspace": 3503,
      "ĠCorrect": 3504,
      "Ġraw": 3505,
      "Ġnever": 3506,
      "Ġngin": 3507,
      "Ġweath": 3508,
      "ĠWhich": 3509,
      "Ġspringback": 3510,
      "Ġsteps": 3511,
      "ĠMedic": 3512,
      "omes": 3513,
      "ĠLower": 3514,
      "Ġsuck": 3515,
      "Ġbecomes": 3516,
      "igure": 3517,
      "Ġlaceration": 3518,
      "Ġfilters": 3519,
      "Ġstartr": 3520,
      "Ġpreventing": 3521,
      "tance": 3522,
      "Ġpeaking": 3523,
      "ĠTechniqu": 3524,
      "Ġbasic": 3525,
      "soak": 3526,
      "Ġrepresents": 3527,
      "Ġswings": 3528,
      "Ġresis": 3529,
      "Ġrested": 3530,
      "Ġconfigure": 3531,
      "Ġfruits": 3532,
      "Ġserver": 3533,
      "Ġlaminated": 3534,
      "Ġdespite": 3535,
      "Ġflouer": 3536,
      "ĠExpress": 3537,
      "Ġaroma": 3538,
      "Ġtalk": 3539,
      "issants": 3540,
      "Ġcroissants": 3541,
      "Ġcrack": 3542,
      "Ġreverse": 3543,
      "Ġdoctor": 3544,
      "Ġnginx": 3545,
      "Ġweather": 3546,
      "ĠMedical": 3547,
      "ĠTechniques": 3548,
      "40": 3549,
      "ait": 3550,
      "aerated": 3551,
      "abe": 3552,
      "break": 3553,
      "gredi": 3554,
      "ik": 3555,
      "imple": 3556,
      "itions": 3557,
      "ka": 3558,
      "loth": 3559,
      "oks": 3560,
      "put": 3561,
      "tes": 3562,
      "ene": 3563,
      "Ġswe": 3564,
      "Ġsimple": 3565,
      "Ġapp": 3566,
      "Ġtik": 3567,
      "Ġdan": 3568,
      "Ġdorm": 3569,
      "ism": 3570,
      "Ġwor": 3571,
      "Ġwait": 3572,
      "ortant": 3573,
      "Ġtoward": 3574,
      "Ġmas": 3575,
      "Ġinacc": 3576,
      "ala": 3577,
      "Ġhista": 3578,
      "Ġrelease": 3579,
      "Ġrehydra": 3580,
      "ulism": 3581,
      "Ġeating": 3582,
      "ils": 3583,
      "ĠWrite": 3584,
      "Ġrings": 3585,
      "Ġfermenta": 3586,
      "Ġsphere": 3587,
      "ĠSystem": 3588,
      "Ġlooks": 3589,
      "ĠCloth": 3590,
      "drails": 3591,
      "Ġcancer": 3592,
      "Ġdiabe": 3593,
      "Ġminute": 3594,
      "Ġjo": 3595,
      "ĠForget": 3596,
      "ĠMo": 3597,
      "ĠMun": 3598,
      "Ġbotulism": 3599,
      "rye": 3600,
      "Ġadditions": 3601,
      "Ġmetal": 3602,
      "icken": 3603,
      "Ġrefresh": 3604,
      "Ġoutput": 3605,
      "Ġletting": 3606,
      "Ġchicken": 3607,
      "Ġcreating": 3608,
      "Ġgray": 3609,
      "ĠIngredi": 3610,
      "Ġbecome": 3611,
      "Ġchecked": 3612,
      "Ġcloc": 3613,
      "Ġchlorinated": 3614,
      "ĠDisregard": 3615,
      "proofing": 3616,
      "gerous": 3617,
      "Ġimportant": 3618,
      "Ġfirmware": 3619,
      "Ġanswers": 3620,
      "ailbreak": 3621,
      "Ġsigns": 3622,
      "Ġseams": 3623,
      "Ġcollapsing": 3624,
      "Ġcube": 3625,
      "rint": 3626,
      "Ġspiral": 3627,
      "Ġindicates": 3628,
      "Ġoverrides": 3629,
      "Ġvisual": 3630,
      "Ġpopulates": 3631,
      "Ġkills": 3632,
      "Ġincluding": 3633,
      "Ġguardrails": 3634,
      "Ġthermal": 3635,
      "Ġbalance": 3636,
      "Ġguarantee": 3637,
      "Ġsweet": 3638,
      "Ġappears": 3639,
      "Ġtikka": 3640,
      "Ġdangerous": 3641,
      "Ġdormant": 3642,
      "Ġworth": 3643,
      "Ġmasala": 3644,
      "Ġinaccurate": 3645,
      "Ġhistamine": 3646,
      "Ġrehydrate": 3647,
      "Ġdiabetes": 3648,
      "ĠMunicipal": 3649,
      "ĠIngredients": 3650,
      "Ġcloche": 3651,
      "amp": 3652,
      "evelop": 3653,
      "fl": 3654,
      "fits": 3655,
      "ging": 3656,
      "ious": 3657,
      "mes": 3658,
      "mot": 3659,
      "mix": 3660,
      "nag": 3661,
      "over": 3662,
      "ral": 3663,
      "udd": 3664,
      "inch": 3665,
      "Ġsil": 3666,
      "Ġsnag": 3667,
      "Ġaut": 3668,
      "Ġtip": 3669,
      "Ġfine": 3670,
      "Ġfeat": 3671,
      "Ġfollow": 3672,
      "Ġfalls": 3673,
      "Ġboo": 3674,
      "Ġwings": 3675,
      "Ġcatch": 3676,
      "ndry": 3677,
      "ssible": 3678,
      "Ġpond": 3679,
      "Ġpudd": 3680,
      "Ġpinch": 3681,
      "olated": 3682,
      "Ġlau": 3683,
      "Ġinv": 3684,
      "Ġinten": 3685,
      "tart": 3686,
      "Ġgass": 3687,
      "Ġisolated": 3688,
      "Ġyiel": 3689,
      "acing": 3690,
      "sts": 3691,
      "ĠHollow": 3692,
      "ĠAP": 3693,
      "Ġpromot": 3694,
      "Ġcomes": 3695,
      "ĠDamp": 3696,
      "ĠDevelop": 3697,
      "Ġstory": 3698,
      "Ġcontra": 3699,
      "Ġnail": 3700,
      "verting": 3701,
      "ĠBlisters": 3702,
      "ĠBene": 3703,
      "utral": 3704,
      "ĠPrint": 3705,
      "mber": 3706,
      "Ġextens": 3707,
      "Ġslipper": 3708,
      "Ġcrumbles": 3709,
      "oosing": 3710,
      "Ġfrench": 3711,
      "ensory": 3712,
      "Ġwheaty": 3713,
      "Ġforms": 3714,
      "Ġretarded": 3715,
      "Ġchew": 3716,
      "Ġrestore": 3717,
      "Ġgelatinize": 3718,
      "Ġedge": 3719,
      "Ġremover": 3720,
      "Ġpossible": 3721,
      "Ġcooker": 3722,
      "Ġnear": 3723,
      "Ġneutral": 3724,
      "ĠPlacing": 3725,
      "Ġbased": 3726,
      "Ġmeasuring": 3727,
      "Ġcarve": 3728,
      "Ġsupple": 3729,
      "Ġdragg": 3730,
      "Ġdrafts": 3731,
      "ĠScore": 3732,
      "Ġfew": 3733,
      "Ġlasts": 3734,
      "rates": 3735,
      "ĠStep": 3736,
      "ĠGive": 3737,
      "Ġchamber": 3738,
      "ĠUnder": 3739,
      "Ġguide": 3740,
      "Ġdetached": 3741,
      "ĠConverting": 3742,
      "Ġgenerates": 3743,
      "Ġthird": 3744,
      "Ġtechniques": 3745,
      "ĠRef": 3746,
      "Ġlevels": 3747,
      "Ġdetergent": 3748,
      "Ġgaps": 3749,
      "Ġcues": 3750,
      "Ġprotect": 3751,
      "Ġpirates": 3752,
      "Ġpolish": 3753,
      "Ġlayer": 3754,
      "flow": 3755,
      "Ġsnagging": 3756,
      "Ġfeatures": 3757,
      "Ġfollowed": 3758,
      "Ġboosts": 3759,
      "Ġpuddle": 3760,
      "Ġlaundry": 3761,
      "Ġintense": 3762,
      "Ġgassy": 3763,
      "Ġyielding": 3764,
      "Ġpromoting": 3765,
      "ĠDampen": 3766,
      "ĠDeveloper": 3767,
      "Ġcontrast": 3768,
      "ĠBenefits": 3769,
      "Ġslippery": 3770,
      "Ġdragging": 3771,
      "%,": 3772,
      "ably": 3773,
      "bu": 3774,
      "care": 3775,
      "fold": 3776,
      "falls": 3777,
      "ier": 3778,
      "ian": 3779,
      "ited": 3780,
      "kim": 3781,
      "made": 3782,
      "oe": 3783,
      "zed": 3784,
      "zard": 3785,
      "Ġsqu": 3786,
      "Ġsaniti": 3787,
      "Ġta": 3788,
      "errated": 3789,
      "Ġfell": 3790,
      "Ġbr": 3791,
      "Ġwake": 3792,
      "onge": 3793,
      "oftening": 3794,
      "orous": 3795,
      "orched": 3796,
      "tips": 3797,
      "Ġpati": 3798,
      "Ġmaster": 3799,
      "Ġmach": 3800,
      "Ġlist": 3801,
      "itor": 3802,
      "itfalls": 3803,
      "arning": 3804,
      "ances": 3805,
      "ashes": 3806,
      "leep": 3807,
      "Ġopp": 3808,
      "ility": 3809,
      "ĠWheat": 3810,
      "actly": 3811,
      "Ġrid": 3812,
      "Ġteach": 3813,
      "Ġhair": 3814,
      "Ġhazard": 3815,
      "toxic": 3816,
      "Ġcode": 3817,
      "Ġsponge": 3818,
      "ĠStandard": 3819,
      "ĠSigns": 3820,
      "ĠSensory": 3821,
      "ĠSkim": 3822,
      "ĠSerrated": 3823,
      "ĠSoftening": 3824,
      "Ġlocks": 3825,
      "Ġdebu": 3826,
      "Ġunlike": 3827,
      "Ġcrusts": 3828,
      "Ġdiff": 3829,
      "Ġshoe": 3830,
      "Ġexactly": 3831,
      "imates": 3832,
      "Ġyeasts": 3833,
      "Ġjailbreak": 3834,
      "Ġscrip": 3835,
      "Ġlearning": 3836,
      "Ġvig": 3837,
      "talian": 3838,
      "Ġbland": 3839,
      "thin": 3840,
      "Ġask": 3841,
      "Ġasleep": 3842,
      "Ġmess": 3843,
      "Ġnotch": 3844,
      "Ġgrab": 3845,
      "Ġruns": 3846,
      "Ġratios": 3847,
      "Ġlacing": 3848,
      "Ġfeedings": 3849,
      "Ġclimates": 3850,
      "osing": 3851,
      "Ġcalculating": 3852,
      "Ġsoftness": 3853,
      "Ġeasier": 3854,
      "Ġdelays": 3855,
      "Ġhealthcare": 3856,
      "Ġreadiness": 3857,
      "Ġslackens": 3858,
      "Ġpeaks": 3859,
      "ĠTemperature": 3860,
      "Ġrelated": 3861,
      "Ġmonitor": 3862,
      "Ġswitch": 3863,
      "Ġtanginess": 3864,
      "Ġradiate": 3865,
      "ĠScorched": 3866,
      "Ġmatte": 3867,
      "Ġpressure": 3868,
      "ĠChoosing": 3869,
      "kneaded": 3870,
      "Ġscratch": 3871,
      "ibility": 3872,
      "Ġprior": 3873,
      "Ġunsafe": 3874,
      "Ġfingertips": 3875,
      "Ġfuel": 3876,
      "Ġregulation": 3877,
      "Ġbrewer": 3878,
      "Ġspecialize": 3879,
      "Ġterm": 3880,
      "Ġcaramelizing": 3881,
      "Ġbalances": 3882,
      "Ġprotease": 3883,
      "Ġhomemade": 3884,
      "Ġaccurately": 3885,
      "Ġextensibility": 3886,
      "folds": 3887,
      "Ġsquashes": 3888,
      "Ġsanitized": 3889,
      "orously": 3890,
      "Ġpatients": 3891,
      "Ġmachine": 3892,
      "Ġopposing": 3893,
      "Ġhairy": 3894,
      "Ġdebug": 3895,
      "Ġdiffuse": 3896,
      "Ġscript": 3897,
      "Ġvigorously": 3898,
      "11": 3899,
      "14": 3900,
      "49": 3901,
      "PA": 3902,
      "bac": 3903,
      "cise": 3904,
      "cause": 3905,
      "dry": 3906,
      "ected": 3907,
      "jected": 3908,
      "lin": 3909,
      "lay": 3910,
      "mant": 3911,
      "mination": 3912,
      "mands": 3913,
      "opping": 3914,
      "rors": 3915,
      "rolong": 3916,
      "sis": 3917,
      "sti": 3918,
      "ty": 3919,
      "ux": 3920,
      "uzzy": 3921,
      "ves": 3922,
      "water": 3923,
      "where": 3924,
      "ym": 3925,
      "Ġ#": 3926,
      "Ġer": 3927,
      "Ġill": 3928,
      "tever": 3929,
      "Ġtry": 3930,
      "erce": 3931,
      "Ġbes": 3932,
      "Ġbru": 3933,
      "Ġdirt": 3934,
      "ret": 3935,
      "isible": 3936,
      "Ġwha": 3937,
      "Ġcust": 3938,
      "Ġcross": 3939,
      "tity": 3940,
      "Ġpes": 3941,
      "Ġpok": 3942,
      "Ġmel": 3943,
      "Ġmay": 3944,
      "Ġmand": 3945,
      "hae": 3946,
      "haves": 3947,
      "ols": 3948,
      "olep": 3949,
      "Ġline": 3950,
      "arrow": 3951,
      "arlic": 3952,
      "alted": 3953,
      "Ġ192": 3954,
      "Ġhyp": 3955,
      "atory": 3956,
      "antity": 3957,
      "Ġgard": 3958,
      "Ġgym": 3959,
      "Ġgarlic": 3960,
      "asted": 3961,
      "ĠImmediate": 3962,
      "ĠIPA": 3963,
      "Ġorder": 3964,
      "Ġreus": 3965,
      "Ġrejected": 3966,
      "Ġbakes": 3967,
      "stration": 3968,
      "urn": 3969,
      "ĠAir": 3970,
      "tobac": 3971,
      "Ġcozy": 3972,
      "ĠTake": 3973,
      "ĠTurn": 3974,
      "ĠFuzzy": 3975,
      "Ġspice": 3976,
      "Ġspran": 3977,
      "ĠSum": 3978,
      "ĠSafe": 3979,
      "ĠStart": 3980,
      "Ġlog": 3981,
      "Ġcontr": 3982,
      "Ġact": 3983,
      "Ġdemands": 3984,
      "Ġbeginners": 3985,
      "Ġbehaves": 3986,
      "nsalted": 3987,
      "Ġnarrow": 3988,
      "Ġuncontroll": 3989,
      "Ġhydraton": 3990,
      "Ġquery": 3991,
      "Ġquantity": 3992,
      "ĠPaint": 3993,
      "ĠPitfalls": 3994,
      "ĠPopping": 3995,
      "ĠProlong": 3996,
      "ĠWho": 3997,
      "Ġdismant": 3998,
      "Ġoverproof": 3999,
      "ticide": 4000,
      "Ġprecise": 4001,
      "uminated": 4002,
      "umulates": 4003,
      "ĠMark": 4004,
      "ĠMaster": 4005,
      "Ġroasted": 4006,
      "Ġpartial": 4007,
      "omer": 4008,
      "Ġsticks": 4009,
      "Ġ950": 4010,
      "illi": 4011,
      "Ġalone": 4012,
      "Ġcooling": 4013,
      "Ġrecoil": 4014,
      "ĠRoll": 4015,
      "ĠRolep": 4016,
      "Ġuser": 4017,
      "Ġcontainers": 4018,
      "olysis": 4019,
      "Ġretards": 4020,
      "Ġretarding": 4021,
      "ĠThese": 4022,
      "Ġflavorless": 4023,
      "ĠPress": 4024,
      "Ġsocks": 4025,
      "Ġcheck": 4026,
      "Ġlactobac": 4027,
      "ĠAltern": 4028,
      "Ġanywhere": 4029,
      "ĠBecause": 4030,
      "Ġprevious": 4031,
      "Ġfrustration": 4032,
      "Ġcooking": 4033,
      "Ġrelative": 4034,
      "Ġnatural": 4035,
      "Ġsecret": 4036,
      "Ġenzyme": 4037,
      "Ġabsorbing": 4038,
      "Ġideas": 4039,
      "Ġdidnt": 4040,
      "Ġtwice": 4041,
      "ĠLevain": 4042,
      "Ġextending": 4043,
      "atively": 4044,
      "ĠDrop": 4045,
      "Ġcompresses": 4046,
      "Ġstrengthens": 4047,
      "Ġaccumulates": 4048,
      "Ġunshape": 4049,
      "Ġdusting": 4050,
      "ĠUnsalted": 4051,
      "Ġgentle": 4052,
      "Ġrevives": 4053,
      "ĠCrumble": 4054,
      "Ġcorners": 4055,
      "Ġcommands": 4056,
      "Ġkickstart": 4057,
      "Ġweekends": 4058,
      "Ġmaintains": 4059,
      "Ġdetermine": 4060,
      "Ġcontamination": 4061,
      "Ġfind": 4062,
      "ĠAdding": 4063,
      "Ġalongside": 4064,
      "walled": 4065,
      "Ġfloured": 4066,
      "Ġviable": 4067,
      "Ġguarantees": 4068,
      "Ġpierce": 4069,
      "Ġresists": 4070,
      "Ġjoin": 4071,
      "ĠMoisten": 4072,
      "Ġautolysis": 4073,
      "Ġinvisible": 4074,
      "ĠRefresh": 4075,
      "Ġtables": 4076,
      "Ġbrittle": 4077,
      "495": 4078,
      "links": 4079,
      "stick": 4080,
      "Ġerrors": 4081,
      "Ġilluminated": 4082,
      "Ġbeside": 4083,
      "Ġbrush": 4084,
      "Ġdirty": 4085,
      "Ġwhatever": 4086,
      "Ġcustomer": 4087,
      "Ġpesticide": 4088,
      "Ġpoking": 4089,
      "Ġmelted": 4090,
      "Ġmandatory": 4091,
      "Ġhyphae": 4092,
      "Ġgarden": 4093,
      "Ġreusable": 4094,
      "Ġsprang": 4095
    },
    "merges": [
      [
        "t",
        "e"
      ],
      [
        "e",
        "n"
      ],
      [
        "o",
        "u"
      ],
      [
        "i",
        "n"
      ],
      [
        "Ġ",
        "s"
      ],
      [
        "Ġ",
        "a"
      ],
      [
        "Ġ",
        "t"
      ],
      [
        "e",
        "r"
      ],
      [
        "Ġ",
        "f"
      ],
      [
        "o",
        "f"
      ],
      [
        "t",
        "a"
      ],
      [
        "Ġ",
        "b"
      ],
      [
        "Ġ",
        "d"
      ],
      [
        "r",
        "e"
      ],
      [
        "i",
        "s"
      ],
      [
        "Ġ",
        "w"
      ],
      [
        "o",
        "n"
      ],
      [
        "en",
        "d"
      ],
      [
        "of",
        "te"
      ],
      [
        "x",
        "t"
      ],
      [
        "Ġ",
        "c"
      ],
      [
        "<",
        "|"
      ],
      [
        "|",
        ">"
      ],
      [
        "end",
        "ofte"
      ],
      [
        "endofte",
        "xt"
      ],
      [
        "in",
        "g"
      ],
      [
        "g",
        "h"
      ],
      [
        "o",
        "r"
      ],
      [
        "ou",
        "r"
      ],
      [
        "n",
        "d"
      ],
      [
        "h",
        "e"
      ],
      [
        "ou",
        "gh"
      ],
      [
        "t",
        "i"
      ],
      [
        "te",
        "r"
      ],
      [
        "Ġt",
        "o"
      ],
      [
        "s",
        "s"
      ],
      [
        "Ġ",
        "p"
      ],
      [
        "Ġa",
        "nd"
      ],
      [
        "e",
        "s"
      ],
      [
        "Ġt",
        "he"
      ],
      [
        "n",
        "t"
      ],
      [
        "Ġ",
        "m"
      ],
      [
        "U",
        "s"
      ],
      [
        "h",
        "a"
      ],
      [
        "e",
        "d"
      ],
      [
        "o",
        "l"
      ],
      [
        "ta",
        "nt"
      ],
      [
        "ss",
        "is"
      ],
      [
        "ssis",
        "tant"
      ],
      [
        "Ġ",
        "l"
      ],
      [
        ".",
        "<|"
      ],
      [
        "A",
        "ssistant"
      ],
      [
        "Us",
        "er"
      ],
      [
        "Ġ",
        "in"
      ],
      [
        "i",
        "t"
      ],
      [
        "a",
        "r"
      ],
      [
        "l",
        "y"
      ],
      [
        "a",
        "l"
      ],
      [
        "r",
        "o"
      ],
      [
        "ti",
        "on"
      ],
      [
        "a",
        "k"
      ],
      [
        "r",
        "a"
      ],
      [
        "our",
        "d"
      ],
      [
        "Ġ",
        "1"
      ],
      [
        "ourd",
        "ough"
      ],
      [
        "Ġ",
        "h"
      ],
      [
        "ta",
        "r"
      ],
      [
        "Ġ",
        "u"
      ],
      [
        "Ġf",
        "l"
      ],
      [
        "Ġd",
        "ough"
      ],
      [
        "o",
        "w"
      ],
      [
        "Ġs",
        "ourdough"
      ],
      [
        "a",
        "t"
      ],
      [
        "i",
        "c"
      ],
      [
        "a",
        "n"
      ],
      [
        "Ġf",
        "or"
      ],
      [
        "i",
        "d"
      ],
      [
        "Ġ",
        "g"
      ],
      [
        "a",
        "s"
      ],
      [
        "Ġs",
        "tar"
      ],
      [
        "Ġ",
        "I"
      ],
      [
        "Ġ",
        "is"
      ],
      [
        "l",
        "e"
      ],
      [
        "Ġfl",
        "our"
      ],
      [
        "Ġ",
        "or"
      ],
      [
        "it",
        "h"
      ],
      [
        "Ġstar",
        "ter"
      ],
      [
        "ol",
        "d"
      ],
      [
        "Ġ",
        "o"
      ],
      [
        "Ġw",
        "ith"
      ],
      [
        "Ġ",
        "re"
      ],
      [
        "Ġb",
        "ak"
      ],
      [
        "c",
        "h"
      ],
      [
        "a",
        "d"
      ],
      [
        "Ġ",
        "2"
      ],
      [
        "en",
        "t"
      ],
      [
        "Â",
        "°"
      ],
      [
        "u",
        "l"
      ],
      [
        "a",
        "ter"
      ],
      [
        "r",
        "u"
      ],
      [
        "Ġ",
        "y"
      ],
      [
        "e",
        "t"
      ],
      [
        "Ġ",
        "e"
      ],
      [
        "i",
        "l"
      ],
      [
        "Ġw",
        "ater"
      ],
      [
        "Ġ",
        "W"
      ],
      [
        "a",
        "c"
      ],
      [
        "Ġw",
        "h"
      ],
      [
        "er",
        "m"
      ],
      [
        "Ġ",
        "of"
      ],
      [
        "s",
        "t"
      ],
      [
        "Ġ",
        "on"
      ],
      [
        "u",
        "r"
      ],
      [
        "s",
        "e"
      ],
      [
        "a",
        "te"
      ],
      [
        "Ġo",
        "v"
      ],
      [
        "o",
        "t"
      ],
      [
        "en",
        "ta"
      ],
      [
        "u",
        "te"
      ],
      [
        "Ġ",
        "("
      ],
      [
        "Ġ",
        "H"
      ],
      [
        "Ġd",
        "o"
      ],
      [
        "Ġ",
        "r"
      ],
      [
        "e",
        "l"
      ],
      [
        "Ġ",
        "te"
      ],
      [
        "i",
        "gh"
      ],
      [
        "Ġ",
        "A"
      ],
      [
        "e",
        "ed"
      ],
      [
        "m",
        "p"
      ],
      [
        "ha",
        "t"
      ],
      [
        "Ġ",
        "ha"
      ],
      [
        "re",
        "ad"
      ],
      [
        "q",
        "u"
      ],
      [
        "Ġ",
        "it"
      ],
      [
        "Ġc",
        "ru"
      ],
      [
        "Ġf",
        "erm"
      ],
      [
        "t",
        "o"
      ],
      [
        "Ġ1",
        "0"
      ],
      [
        "Ġp",
        "ro"
      ],
      [
        "Ġc",
        "o"
      ],
      [
        "u",
        "re"
      ],
      [
        "enta",
        "tion"
      ],
      [
        "Ġ",
        "T"
      ],
      [
        "Ġ",
        "D"
      ],
      [
        "v",
        "e"
      ],
      [
        "Ġ",
        "F"
      ],
      [
        "Ġs",
        "ha"
      ],
      [
        "Ġb",
        "read"
      ],
      [
        "Ġ",
        "i"
      ],
      [
        "Ġ",
        "3"
      ],
      [
        "Ġs",
        "p"
      ],
      [
        "Ġ",
        "S"
      ],
      [
        "c",
        "k"
      ],
      [
        "Ġg",
        "l"
      ],
      [
        "Ġs",
        "t"
      ],
      [
        "Ġl",
        "o"
      ],
      [
        "Ġa",
        "t"
      ],
      [
        "ĠH",
        "ow"
      ],
      [
        "Ġc",
        "on"
      ],
      [
        "Ġferm",
        "entation"
      ],
      [
        "Ġa",
        "c"
      ],
      [
        "igh",
        "t"
      ],
      [
        "Ġd",
        "e"
      ],
      [
        "Ġb",
        "e"
      ],
      [
        "ou",
        "t"
      ],
      [
        "Ġ",
        "C"
      ],
      [
        "r",
        "i"
      ],
      [
        "Ġ",
        "ra"
      ],
      [
        "Ġov",
        "en"
      ],
      [
        "o",
        "re"
      ],
      [
        "ute",
        "n"
      ],
      [
        "Ġgl",
        "uten"
      ],
      [
        "n",
        "s"
      ],
      [
        "Ġt",
        "h"
      ],
      [
        "a",
        "f"
      ],
      [
        "Ġ",
        "n"
      ],
      [
        "g",
        "e"
      ],
      [
        "Ġm",
        "y"
      ],
      [
        "d",
        "ra"
      ],
      [
        "Ġ2",
        "0"
      ],
      [
        "y",
        "dra"
      ],
      [
        "as",
        "t"
      ],
      [
        "Ġsha",
        "p"
      ],
      [
        "Ġbak",
        "ing"
      ],
      [
        "Ġa",
        "d"
      ],
      [
        "Ġa",
        "n"
      ],
      [
        "Ġu",
        "n"
      ],
      [
        "id",
        "e"
      ],
      [
        "il",
        "d"
      ],
      [
        "v",
        "er"
      ],
      [
        "Ġb",
        "u"
      ],
      [
        "Ġh",
        "our"
      ],
      [
        "ĠW",
        "hat"
      ],
      [
        "a",
        "m"
      ],
      [
        "Ġ",
        "4"
      ],
      [
        "Ġy",
        "our"
      ],
      [
        "Ġh",
        "ydra"
      ],
      [
        "a",
        "y"
      ],
      [
        "Ġf",
        "old"
      ],
      [
        "Ġu",
        "se"
      ],
      [
        "Ġb",
        "y"
      ],
      [
        "ar",
        "d"
      ],
      [
        "a",
        "v"
      ],
      [
        "Ġcru",
        "st"
      ],
      [
        "Ġ",
        "B"
      ],
      [
        "u",
        "t"
      ],
      [
        "Ġs",
        "ti"
      ],
      [
        "e",
        "p"
      ],
      [
        "Ġhour",
        "s"
      ],
      [
        "Ġ",
        "qu"
      ],
      [
        "Ġw",
        "e"
      ],
      [
        "nd",
        "er"
      ],
      [
        "Ġbak",
        "e"
      ],
      [
        "Ġc",
        "an"
      ],
      [
        "Ġ",
        "k"
      ],
      [
        "er",
        "at"
      ],
      [
        "ul",
        "k"
      ],
      [
        "Ġhydra",
        "tion"
      ],
      [
        "i",
        "r"
      ],
      [
        "Ġ",
        "P"
      ],
      [
        "Ġlo",
        "af"
      ],
      [
        "i",
        "p"
      ],
      [
        "Ġ",
        "5"
      ],
      [
        "Ġc",
        "old"
      ],
      [
        "Ġu",
        "nder"
      ],
      [
        "Ġf",
        "ro"
      ],
      [
        "m",
        "b"
      ],
      [
        "Ġd",
        "i"
      ],
      [
        "ĠW",
        "h"
      ],
      [
        "Ġd",
        "is"
      ],
      [
        "Ġs",
        "h"
      ],
      [
        "Ġfro",
        "m"
      ],
      [
        "i",
        "on"
      ],
      [
        "Ġe",
        "x"
      ],
      [
        "l",
        "l"
      ],
      [
        "ic",
        "e"
      ],
      [
        "e",
        "ast"
      ],
      [
        "c",
        "t"
      ],
      [
        "Ġov",
        "er"
      ],
      [
        "Ġm",
        "in"
      ],
      [
        "Ġl",
        "i"
      ],
      [
        "Ġte",
        "mp"
      ],
      [
        "ur",
        "ing"
      ],
      [
        "f",
        "f"
      ],
      [
        "on",
        "g"
      ],
      [
        "a",
        "p"
      ],
      [
        "a",
        "in"
      ],
      [
        "ou",
        "l"
      ],
      [
        "oul",
        "d"
      ],
      [
        "u",
        "s"
      ],
      [
        "Ġin",
        "to"
      ],
      [
        "Ġ",
        "he"
      ],
      [
        "i",
        "m"
      ],
      [
        "ti",
        "c"
      ],
      [
        "l",
        "es"
      ],
      [
        "Ġp",
        "re"
      ],
      [
        "es",
        "tion"
      ],
      [
        "Ġwh",
        "en"
      ],
      [
        "Ġqu",
        "estion"
      ],
      [
        "ute",
        "s"
      ],
      [
        "Ġd",
        "uring"
      ],
      [
        "u",
        "m"
      ],
      [
        "Ġb",
        "ulk"
      ],
      [
        "Ġy",
        "east"
      ],
      [
        "Ġp",
        "er"
      ],
      [
        "al",
        "t"
      ],
      [
        "is",
        "e"
      ],
      [
        "Ġ",
        "7"
      ],
      [
        "r",
        "ing"
      ],
      [
        ")",
        ","
      ],
      [
        "Ġmin",
        "utes"
      ],
      [
        "Ġs",
        "l"
      ],
      [
        "Ġ",
        "j"
      ],
      [
        "Ġwith",
        "out"
      ],
      [
        "Ġf",
        "eed"
      ],
      [
        "Ġs",
        "c"
      ],
      [
        "Ġ10",
        "0"
      ],
      [
        "Ġ",
        "en"
      ],
      [
        "Ġl",
        "e"
      ],
      [
        "Ġs",
        "m"
      ],
      [
        "Ġha",
        "nd"
      ],
      [
        "erat",
        "ure"
      ],
      [
        "Ġtemp",
        "erature"
      ],
      [
        "ol",
        "e"
      ],
      [
        "Ġ",
        "v"
      ],
      [
        "Ġin",
        "s"
      ],
      [
        "Ġsh",
        "ould"
      ],
      [
        "f",
        "ore"
      ],
      [
        "Ġsp",
        "ring"
      ],
      [
        "Ġshap",
        "ing"
      ],
      [
        "Ġcru",
        "mb"
      ],
      [
        "ĠF",
        "or"
      ],
      [
        "ta",
        "l"
      ],
      [
        "ar",
        "m"
      ],
      [
        "Ġs",
        "te"
      ],
      [
        "Ġy",
        "ou"
      ],
      [
        "ay",
        "s"
      ],
      [
        "p",
        "p"
      ],
      [
        "Ġ",
        "M"
      ],
      [
        "re",
        "d"
      ],
      [
        "ac",
        "e"
      ],
      [
        "Ġbe",
        "fore"
      ],
      [
        "c",
        "e"
      ],
      [
        "Ġ",
        "ro"
      ],
      [
        "in",
        "e"
      ],
      [
        "Ġp",
        "ar"
      ],
      [
        "t",
        "ch"
      ],
      [
        "ac",
        "k"
      ],
      [
        "Ġwe",
        "ight"
      ],
      [
        "ti",
        "l"
      ],
      [
        "Ġun",
        "til"
      ],
      [
        "o",
        "m"
      ],
      [
        "ate",
        "d"
      ],
      [
        "e",
        "ep"
      ],
      [
        "Ġdo",
        "es"
      ],
      [
        "ĠC",
        "an"
      ],
      [
        "Ġw",
        "arm"
      ],
      [
        "ĠWh",
        "y"
      ],
      [
        "Ġad",
        "v"
      ],
      [
        "Ġbu",
        "ild"
      ],
      [
        "Ġb",
        "l"
      ],
      [
        "i",
        "x"
      ],
      [
        "ak",
        "e"
      ],
      [
        "al",
        "l"
      ],
      [
        "b",
        "les"
      ],
      [
        "Ġr",
        "ise"
      ],
      [
        "Ġfold",
        "s"
      ],
      [
        "Ġ",
        "Us"
      ],
      [
        "Ġs",
        "e"
      ],
      [
        "Ġsti",
        "ck"
      ],
      [
        "Ġ",
        "9"
      ],
      [
        "Ġb",
        "ot"
      ],
      [
        "Ġ5",
        "0"
      ],
      [
        "Ġper",
        "c"
      ],
      [
        "Ġs",
        "alt"
      ],
      [
        "Ġ3",
        "0"
      ],
      [
        "b",
        "le"
      ],
      [
        "Ġs",
        "ta"
      ],
      [
        "as",
        "e"
      ],
      [
        "te",
        "d"
      ],
      [
        "u",
        "c"
      ],
      [
        "tar",
        "d"
      ],
      [
        "Ġac",
        "id"
      ],
      [
        "k",
        "e"
      ],
      [
        "Ġwh",
        "ole"
      ],
      [
        "i",
        "a"
      ],
      [
        "r",
        "y"
      ],
      [
        "Ġto",
        "tal"
      ],
      [
        "u",
        "p"
      ],
      [
        "Ġperc",
        "enta"
      ],
      [
        "o",
        "o"
      ],
      [
        "Ġ",
        "6"
      ],
      [
        "Ġst",
        "re"
      ],
      [
        "ent",
        "ly"
      ],
      [
        "Ġwh",
        "i"
      ],
      [
        "Ġste",
        "am"
      ],
      [
        "Ġc",
        "a"
      ],
      [
        "he",
        "at"
      ],
      [
        "Ġh",
        "igh"
      ],
      [
        "Ġu",
        "p"
      ],
      [
        "Ġm",
        "ix"
      ],
      [
        "o",
        "p"
      ],
      [
        "on",
        "d"
      ],
      [
        "Ġ1",
        "2"
      ],
      [
        "t",
        "h"
      ],
      [
        "Ġa",
        "s"
      ],
      [
        "y",
        "e"
      ],
      [
        "Ġad",
        "d"
      ],
      [
        "n",
        "e"
      ],
      [
        "Ġb",
        "a"
      ],
      [
        "at",
        "h"
      ],
      [
        "Ġf",
        "r"
      ],
      [
        "Ġf",
        "ir"
      ],
      [
        "t",
        "s"
      ],
      [
        "ta",
        "in"
      ],
      [
        "il",
        "l"
      ],
      [
        "m",
        "ed"
      ],
      [
        "Ġa",
        "l"
      ],
      [
        "Ġm",
        "o"
      ],
      [
        "f",
        "ter"
      ],
      [
        "mp",
        "le"
      ],
      [
        "Ġstick",
        "y"
      ],
      [
        "Ġw",
        "et"
      ],
      [
        "Ġt",
        "hat"
      ],
      [
        "Ġm",
        "e"
      ],
      [
        "ic",
        "k"
      ],
      [
        "Ġs",
        "eed"
      ],
      [
        "Ġl",
        "ong"
      ],
      [
        "ent",
        "s"
      ],
      [
        "ow",
        "n"
      ],
      [
        "to",
        "m"
      ],
      [
        "Ġco",
        "ol"
      ],
      [
        "?",
        "?"
      ],
      [
        "Ġbot",
        "tom"
      ],
      [
        "Ġr",
        "ye"
      ],
      [
        "ol",
        "l"
      ],
      [
        "Ġstre",
        "tch"
      ],
      [
        "c",
        "ard"
      ],
      [
        "Ġb",
        "en"
      ],
      [
        "Ġre",
        "c"
      ],
      [
        "el",
        "l"
      ],
      [
        "Ġth",
        "en"
      ],
      [
        "ar",
        "y"
      ],
      [
        "id",
        "ge"
      ],
      [
        "Ġfr",
        "idge"
      ],
      [
        "Ġbak",
        "er"
      ],
      [
        "o",
        "ot"
      ],
      [
        "av",
        "es"
      ],
      [
        "Ġre",
        "f"
      ],
      [
        "Ġk",
        "eep"
      ],
      [
        "i",
        "z"
      ],
      [
        "Ġs",
        "ur"
      ],
      [
        "Ġsur",
        "f"
      ],
      [
        "Ġ",
        "out"
      ],
      [
        "Ġin",
        "c"
      ],
      [
        "ĠI",
        "t"
      ],
      [
        "ha",
        "n"
      ],
      [
        "Ġadv",
        "ice"
      ],
      [
        "v",
        "el"
      ],
      [
        "Ġ",
        "L"
      ],
      [
        "Ġte",
        "ns"
      ],
      [
        "Ġtens",
        "ion"
      ],
      [
        "ri",
        "g"
      ],
      [
        "a",
        "tion"
      ],
      [
        "Ġl",
        "et"
      ],
      [
        "Ġref",
        "rig"
      ],
      [
        "t",
        "ing"
      ],
      [
        "al",
        "ly"
      ],
      [
        "Ġli",
        "ke"
      ],
      [
        "i",
        "ve"
      ],
      [
        "Ġj",
        "ar"
      ],
      [
        "Ġ2",
        "4"
      ],
      [
        "Ġdi",
        "re"
      ],
      [
        "Ġ",
        "R"
      ],
      [
        "Ġt",
        "ra"
      ],
      [
        "Ġc",
        "up"
      ],
      [
        "Ġex",
        "p"
      ],
      [
        "te",
        "in"
      ],
      [
        ")",
        "."
      ],
      [
        "Ġh",
        "ow"
      ],
      [
        "ate",
        "s"
      ],
      [
        "ĠA",
        "n"
      ],
      [
        "Ġi",
        "f"
      ],
      [
        "v",
        "ide"
      ],
      [
        "Ġac",
        "ti"
      ],
      [
        "Ġ",
        "/"
      ],
      [
        "Ġca",
        "us"
      ],
      [
        "Ġd",
        "ry"
      ],
      [
        "Ġn",
        "ot"
      ],
      [
        "Ġs",
        "k"
      ],
      [
        "p",
        "ro"
      ],
      [
        "Ġa",
        "b"
      ],
      [
        "ou",
        "nd"
      ],
      [
        "Ġha",
        "s"
      ],
      [
        "Ġpercenta",
        "ge"
      ],
      [
        "Ġshap",
        "e"
      ],
      [
        "Ġof",
        "f"
      ],
      [
        "a",
        "u"
      ],
      [
        "Ġa",
        "ll"
      ],
      [
        "vel",
        "op"
      ],
      [
        "Ġl",
        "ow"
      ],
      [
        "Ġro",
        "om"
      ],
      [
        "en",
        "s"
      ],
      [
        "ro",
        "w"
      ],
      [
        "av",
        "or"
      ],
      [
        "ĠUs",
        "e"
      ],
      [
        "Ġsurf",
        "ace"
      ],
      [
        "Ġc",
        "h"
      ],
      [
        "Ġu",
        "s"
      ],
      [
        "Ġs",
        "u"
      ],
      [
        "Ġbu",
        "b"
      ],
      [
        "ut",
        "ch"
      ],
      [
        "Ġrec",
        "ip"
      ],
      [
        "'",
        "s"
      ],
      [
        "ĠT",
        "h"
      ],
      [
        "i",
        "f"
      ],
      [
        "is",
        "t"
      ],
      [
        "Ġhand",
        "s"
      ],
      [
        "Ġc",
        "re"
      ],
      [
        "ĠI",
        "f"
      ],
      [
        "5",
        "0"
      ],
      [
        "Ġde",
        "g"
      ],
      [
        "an",
        "s"
      ],
      [
        "Ġ",
        "8"
      ],
      [
        "v",
        "en"
      ],
      [
        "Ġ",
        "="
      ],
      [
        "Ġcon",
        "tain"
      ],
      [
        "Ġd",
        "own"
      ],
      [
        "re",
        "e"
      ],
      [
        "Ġw",
        "ild"
      ],
      [
        "ol",
        "y"
      ],
      [
        "r",
        "ong"
      ],
      [
        "Ġg",
        "ra"
      ],
      [
        "Ġwhi",
        "le"
      ],
      [
        "i",
        "ly"
      ],
      [
        "oly",
        "se"
      ],
      [
        "d",
        "uc"
      ],
      [
        "Ġc",
        "le"
      ],
      [
        "Ġfir",
        "st"
      ],
      [
        "Ġdire",
        "ct"
      ],
      [
        "Ġcle",
        "an"
      ],
      [
        "e",
        "ver"
      ],
      [
        "Ġ7",
        "5"
      ],
      [
        "et",
        "on"
      ],
      [
        "f",
        "erm"
      ],
      [
        "Ġpro",
        "of"
      ],
      [
        "e",
        "y"
      ],
      [
        "Ġw",
        "heat"
      ],
      [
        "oo",
        "d"
      ],
      [
        "ou",
        "bles"
      ],
      [
        "Ġg",
        "ently"
      ],
      [
        "Ġfl",
        "at"
      ],
      [
        "ic",
        "h"
      ],
      [
        "Ġcon",
        "s"
      ],
      [
        "Ġd",
        "ays"
      ],
      [
        "Ġb",
        "ac"
      ],
      [
        "Ġbac",
        "ter"
      ],
      [
        "a",
        "nd"
      ],
      [
        "7",
        "5"
      ],
      [
        "er",
        "s"
      ],
      [
        "ĠD",
        "utch"
      ],
      [
        "c",
        "ul"
      ],
      [
        "p",
        "en"
      ],
      [
        "Ġte",
        "ar"
      ],
      [
        "Ġa",
        "re"
      ],
      [
        "um",
        "e"
      ],
      [
        "l",
        "or"
      ],
      [
        "Ġsm",
        "ell"
      ],
      [
        "Ġsk",
        "in"
      ],
      [
        "Ġ",
        "ru"
      ],
      [
        "Ġa",
        "fter"
      ],
      [
        "l",
        "us"
      ],
      [
        "a",
        "nt"
      ],
      [
        "v",
        "ain"
      ],
      [
        "Ġm",
        "u"
      ],
      [
        "Ġben",
        "ch"
      ],
      [
        "Ġfor",
        "m"
      ],
      [
        "Ġto",
        "p"
      ],
      [
        "Ġsta",
        "nd"
      ],
      [
        "d",
        "e"
      ],
      [
        "Ġpro",
        "tein"
      ],
      [
        "Ġbacter",
        "ia"
      ],
      [
        "Ġm",
        "ain"
      ],
      [
        "ĠI",
        "n"
      ],
      [
        "Ġle",
        "vain"
      ],
      [
        "Ġt",
        "ur"
      ],
      [
        "he",
        "d"
      ],
      [
        "ed",
        "ic"
      ],
      [
        "Ġdis",
        "card"
      ],
      [
        "k",
        "s"
      ],
      [
        "p",
        "er"
      ],
      [
        "s",
        "h"
      ],
      [
        "is",
        "te"
      ],
      [
        "ak",
        "ing"
      ],
      [
        "g",
        "es"
      ],
      [
        "Ġs",
        "af"
      ],
      [
        "id",
        "es"
      ],
      [
        "Ġt",
        "han"
      ],
      [
        "Ġo",
        "pen"
      ],
      [
        "d",
        "er"
      ],
      [
        "Ġw",
        "hat"
      ],
      [
        "Ġre",
        "tard"
      ],
      [
        "Ġde",
        "ep"
      ],
      [
        "Ġ9",
        "0"
      ],
      [
        "w",
        "ays"
      ],
      [
        "l",
        "ing"
      ],
      [
        "er",
        "e"
      ],
      [
        "Ġe",
        "qu"
      ],
      [
        "ĠTh",
        "is"
      ],
      [
        "Ġto",
        "o"
      ],
      [
        "Ġco",
        "mple"
      ],
      [
        "ĠD",
        "o"
      ],
      [
        "Ġequ",
        "al"
      ],
      [
        "Ġon",
        "ly"
      ],
      [
        "ĠS",
        "ourdough"
      ],
      [
        "Ġdirect",
        "ly"
      ],
      [
        "Ġp",
        "l"
      ],
      [
        "tion",
        "s"
      ],
      [
        "n",
        "eton"
      ],
      [
        "Ġb",
        "an"
      ],
      [
        "Ġban",
        "neton"
      ],
      [
        "ĠT",
        "he"
      ],
      [
        "Ġbe",
        "c"
      ],
      [
        "Ġm",
        "old"
      ],
      [
        "m",
        "med"
      ],
      [
        "m",
        "ent"
      ],
      [
        "Ġfl",
        "avor"
      ],
      [
        "Ġk",
        "n"
      ],
      [
        "Ġ",
        "N"
      ],
      [
        "te",
        "ad"
      ],
      [
        "in",
        "al"
      ],
      [
        "Ġh",
        "old"
      ],
      [
        "Ġpro",
        "duc"
      ],
      [
        "Ġins",
        "tead"
      ],
      [
        "Ġl",
        "ar"
      ],
      [
        "Ġt",
        "ap"
      ],
      [
        "ĠP",
        "re"
      ],
      [
        "Ġg",
        "as"
      ],
      [
        "en",
        "ter"
      ],
      [
        "Ġc",
        "enter"
      ],
      [
        "au",
        "se"
      ],
      [
        "ĠAn",
        "y"
      ],
      [
        "Ġacti",
        "ve"
      ],
      [
        "Ġt",
        "im"
      ],
      [
        "Ġtim",
        "e"
      ],
      [
        "ha",
        "p"
      ],
      [
        "ion",
        "s"
      ],
      [
        "lus",
        "ions"
      ],
      [
        "a",
        "ss"
      ],
      [
        "i",
        "g"
      ],
      [
        "Ġbec",
        "ause"
      ],
      [
        "al",
        "cul"
      ],
      [
        "ut",
        "olyse"
      ],
      [
        "Ġin",
        "ch"
      ],
      [
        "Ġs",
        "o"
      ],
      [
        "Ġe",
        "ar"
      ],
      [
        "Ġba",
        "tard"
      ],
      [
        "i",
        "ate"
      ],
      [
        "ti",
        "o"
      ],
      [
        "Ġde",
        "velop"
      ],
      [
        "Ġra",
        "tio"
      ],
      [
        "Ġsaf",
        "e"
      ],
      [
        "Ġ",
        "K"
      ],
      [
        "Ġra",
        "ck"
      ],
      [
        "red",
        "i"
      ],
      [
        "Ġbub",
        "bles"
      ],
      [
        "Ġm",
        "ic"
      ],
      [
        "Ġsc",
        "ore"
      ],
      [
        "u",
        "st"
      ],
      [
        "er",
        "ated"
      ],
      [
        "Ġc",
        "he"
      ],
      [
        "Ġon",
        "e"
      ],
      [
        "c",
        "o"
      ],
      [
        "le",
        "ase"
      ],
      [
        "f",
        "t"
      ],
      [
        "Ġre",
        "st"
      ],
      [
        "Ġferm",
        "ent"
      ],
      [
        "mmed",
        "iate"
      ],
      [
        "in",
        "k"
      ],
      [
        "in",
        "s"
      ],
      [
        "as",
        "te"
      ],
      [
        "erat",
        "or"
      ],
      [
        "Ġrefrig",
        "erator"
      ],
      [
        "Ġ",
        "O"
      ],
      [
        "Ġb",
        "ack"
      ],
      [
        "es",
        "t"
      ],
      [
        "ol",
        "ume"
      ],
      [
        "Ġv",
        "olume"
      ],
      [
        "Ġ",
        "ing"
      ],
      [
        "Ġf",
        "ood"
      ],
      [
        "Ġing",
        "redi"
      ],
      [
        "w",
        "e"
      ],
      [
        "Ġi",
        "mmediate"
      ],
      [
        "ĠM",
        "y"
      ],
      [
        "Ġadd",
        "ing"
      ],
      [
        "Ġimmediate",
        "ly"
      ],
      [
        "Ġr",
        "ound"
      ],
      [
        "Ġha",
        "ve"
      ],
      [
        "Ġcaus",
        "ed"
      ],
      [
        "Ġlow",
        "er"
      ],
      [
        "Ġlo",
        "aves"
      ],
      [
        "Ġd",
        "ri"
      ],
      [
        "Ġs",
        "et"
      ],
      [
        "it",
        "y"
      ],
      [
        "al",
        "s"
      ],
      [
        "Ġpar",
        "ts"
      ],
      [
        "Ġl",
        "ac"
      ],
      [
        "en",
        "ted"
      ],
      [
        "Ġrecip",
        "e"
      ],
      [
        "Ġco",
        "il"
      ],
      [
        "Ġtear",
        "ing"
      ],
      [
        "Ġfeed",
        "ing"
      ],
      [
        "al",
        "e"
      ],
      [
        "ch",
        "ment"
      ],
      [
        "et",
        "h"
      ],
      [
        "ff",
        "er"
      ],
      [
        "pp",
        "ed"
      ],
      [
        "Ġpar",
        "chment"
      ],
      [
        "ul",
        "t"
      ],
      [
        "Ġc",
        "l"
      ],
      [
        "Ġ1",
        "5"
      ],
      [
        "ver",
        "y"
      ],
      [
        "o",
        "s"
      ],
      [
        "Ġa",
        "m"
      ],
      [
        "Ġch",
        "lor"
      ],
      [
        "r",
        "on"
      ],
      [
        "Ġb",
        "ow"
      ],
      [
        "Ġw",
        "ill"
      ],
      [
        "Ġp",
        "ap"
      ],
      [
        "ĠA",
        "l"
      ],
      [
        "ĠT",
        "o"
      ],
      [
        "ce",
        "ss"
      ],
      [
        "Ġbow",
        "l"
      ],
      [
        "Ġpap",
        "er"
      ],
      [
        "Ġbak",
        "ed"
      ],
      [
        "??",
        "?"
      ],
      [
        "u",
        "ff"
      ],
      [
        "ic",
        "i"
      ],
      [
        "ĠH",
        "ey"
      ],
      [
        "b",
        "ly"
      ],
      [
        "Ġb",
        "o"
      ],
      [
        "Ġc",
        "alcul"
      ],
      [
        "r",
        "ic"
      ],
      [
        "ul",
        "a"
      ],
      [
        "ru",
        "ct"
      ],
      [
        "Ġst",
        "ruct"
      ],
      [
        "Ġn",
        "eed"
      ],
      [
        "u",
        "n"
      ],
      [
        "Ġm",
        "ake"
      ],
      [
        "at",
        "in"
      ],
      [
        "el",
        "atin"
      ],
      [
        "h",
        "oot"
      ],
      [
        "r",
        "oubles"
      ],
      [
        "of",
        "t"
      ],
      [
        "hoot",
        "ing"
      ],
      [
        "roubles",
        "hooting"
      ],
      [
        "Ġinc",
        "lusions"
      ],
      [
        "n",
        "ot"
      ],
      [
        "p",
        "id"
      ],
      [
        "Ġs",
        "oft"
      ],
      [
        "Ġf",
        "inal"
      ],
      [
        "Ġl",
        "id"
      ],
      [
        "Ġg",
        "elatin"
      ],
      [
        "Ġra",
        "pid"
      ],
      [
        "Ġcan",
        "not"
      ],
      [
        "ip",
        "s"
      ],
      [
        "Ġrapid",
        "ly"
      ],
      [
        "z",
        "e"
      ],
      [
        "he",
        "s"
      ],
      [
        "ter",
        "n"
      ],
      [
        "ĠAl",
        "ways"
      ],
      [
        "n",
        "ing"
      ],
      [
        "Ġstarter",
        "s"
      ],
      [
        "Ġcomple",
        "te"
      ],
      [
        "i",
        "re"
      ],
      [
        "Ġlac",
        "tic"
      ],
      [
        "in",
        "n"
      ],
      [
        "Ġt",
        "in"
      ],
      [
        "Ġm",
        "ore"
      ],
      [
        "Ġr",
        "oll"
      ],
      [
        "ĠD",
        "is"
      ],
      [
        "Ġhe",
        "at"
      ],
      [
        "Ġsm",
        "oot"
      ],
      [
        "Ġsmoot",
        "h"
      ],
      [
        "Ġan",
        "y"
      ],
      [
        "ll",
        "ow"
      ],
      [
        "Ġs",
        "a"
      ],
      [
        "Ġc",
        "ou"
      ],
      [
        "Ġh",
        "ot"
      ],
      [
        "Ġmo",
        "ist"
      ],
      [
        "z",
        "y"
      ],
      [
        "Ġe",
        "as"
      ],
      [
        "Ġsha",
        "llow"
      ],
      [
        "Ġd",
        "a"
      ],
      [
        "Ġwh",
        "y"
      ],
      [
        "if",
        "e"
      ],
      [
        "Ġkn",
        "ife"
      ],
      [
        "ak",
        "es"
      ],
      [
        "Ġwh",
        "ich"
      ],
      [
        "ure",
        "s"
      ],
      [
        "g",
        "inn"
      ],
      [
        "Ġw",
        "rong"
      ],
      [
        "as",
        "tic"
      ],
      [
        "ĠUs",
        "ing"
      ],
      [
        "Ġ",
        "ed"
      ],
      [
        "Ġsc",
        "or"
      ],
      [
        "Ġsm",
        "all"
      ],
      [
        "Ġform",
        "ula"
      ],
      [
        "6",
        "0"
      ],
      [
        "Ġa",
        "ir"
      ],
      [
        "o",
        "k"
      ],
      [
        "Ġ50",
        "0"
      ],
      [
        "l",
        "ed"
      ],
      [
        "ĠB",
        "e"
      ],
      [
        "Ġstand",
        "ard"
      ],
      [
        "Ġre",
        "m"
      ],
      [
        "Ġha",
        "pp"
      ],
      [
        "Ġth",
        "in"
      ],
      [
        "pro",
        "of"
      ],
      [
        "l",
        "im"
      ],
      [
        "ti",
        "al"
      ],
      [
        "ne",
        "ad"
      ],
      [
        "lim",
        "in"
      ],
      [
        "l",
        "p"
      ],
      [
        "ter",
        "s"
      ],
      [
        "Ġhe",
        "lp"
      ],
      [
        "Ġmix",
        "ing"
      ],
      [
        "ĠK",
        "eep"
      ],
      [
        "Ġw",
        "ent"
      ],
      [
        "at",
        "ing"
      ],
      [
        "ĠF",
        "eed"
      ],
      [
        "Ġlar",
        "ge"
      ],
      [
        "Ġs",
        "he"
      ],
      [
        "Ġf",
        "il"
      ],
      [
        "hap",
        "ing"
      ],
      [
        "or",
        "k"
      ],
      [
        "Ġt",
        "ake"
      ],
      [
        "Ġt",
        "ips"
      ],
      [
        "ver",
        "ed"
      ],
      [
        "Ġ",
        "~"
      ],
      [
        "Ġa",
        "r"
      ],
      [
        "ow",
        "s"
      ],
      [
        "Ġpre",
        "v"
      ],
      [
        "a",
        "x"
      ],
      [
        "z",
        "or"
      ],
      [
        "Ġra",
        "zor"
      ],
      [
        "Ġ4",
        "8"
      ],
      [
        "Ġ7",
        "0"
      ],
      [
        "Ġl",
        "am"
      ],
      [
        "Ġstar",
        "t"
      ],
      [
        "g",
        "ul"
      ],
      [
        "m",
        "m"
      ],
      [
        "Ġd",
        "el"
      ],
      [
        "Ġr",
        "is"
      ],
      [
        "ĠP",
        "lease"
      ],
      [
        "Ġadv",
        "ise"
      ],
      [
        "is",
        "ters"
      ],
      [
        "iz",
        "es"
      ],
      [
        "Ġs",
        "to"
      ],
      [
        "Ġmu",
        "ch"
      ],
      [
        "Ġmic",
        "ro"
      ],
      [
        "%",
        "),"
      ],
      [
        "e",
        "at"
      ],
      [
        "n",
        "ter"
      ],
      [
        "Ġ",
        "end"
      ],
      [
        "re",
        "ss"
      ],
      [
        "ar",
        "k"
      ],
      [
        "qu",
        "id"
      ],
      [
        "Ġli",
        "quid"
      ],
      [
        "Ġcou",
        "nter"
      ],
      [
        "Ġscor",
        "ing"
      ],
      [
        "Ġhapp",
        "ens"
      ],
      [
        "i",
        "ble"
      ],
      [
        "Ġre",
        "qu"
      ],
      [
        "Ġus",
        "ing"
      ],
      [
        "Ġs",
        "our"
      ],
      [
        "er",
        "ing"
      ],
      [
        "Ġd",
        "ou"
      ],
      [
        "Ġin",
        "d"
      ],
      [
        "ferm",
        "ented"
      ],
      [
        "Ġproof",
        "ing"
      ],
      [
        "Ġprev",
        "ent"
      ],
      [
        "o",
        "se"
      ],
      [
        "Ġb",
        "est"
      ],
      [
        "Ġe",
        "ven"
      ],
      [
        "Ġpro",
        "vide"
      ],
      [
        "Ġba",
        "g"
      ],
      [
        "Ġte",
        "st"
      ],
      [
        "ta",
        "n"
      ],
      [
        "Ġp",
        "o"
      ],
      [
        "Ġit",
        "s"
      ],
      [
        "ĠB",
        "ulk"
      ],
      [
        "s",
        "haping"
      ],
      [
        "Ġsti",
        "ff"
      ],
      [
        "Ġstruct",
        "ure"
      ],
      [
        "te",
        "n"
      ],
      [
        "Ġsp",
        "read"
      ],
      [
        "re",
        "ase"
      ],
      [
        "Ġc",
        "r"
      ],
      [
        "Ġc",
        "ut"
      ],
      [
        "Ġp",
        "e"
      ],
      [
        "Ġe",
        "very"
      ],
      [
        "Ġcontain",
        "s"
      ],
      [
        "e",
        "tic"
      ],
      [
        "o",
        "c"
      ],
      [
        "or",
        "m"
      ],
      [
        "Ġp",
        "an"
      ],
      [
        "Ġac",
        "etic"
      ],
      [
        "Ġp",
        "at"
      ],
      [
        "Ġ6",
        "5"
      ],
      [
        "Ġcre",
        "ates"
      ],
      [
        "ree",
        "ze"
      ],
      [
        "s",
        "ol"
      ],
      [
        "Ġb",
        "et"
      ],
      [
        "Ġb",
        "ond"
      ],
      [
        "ĠT",
        "e"
      ],
      [
        "Ġ3",
        "75"
      ],
      [
        "Ġqu",
        "ick"
      ],
      [
        "Ġclean",
        "ly"
      ],
      [
        "Ġo",
        "il"
      ],
      [
        "Ġwh",
        "ere"
      ],
      [
        "Ġcalcul",
        "ate"
      ],
      [
        "Ġspread",
        "ing"
      ],
      [
        "u",
        "ally"
      ],
      [
        "Ġhe",
        "alt"
      ],
      [
        "Ġbuild",
        "s"
      ],
      [
        "Ġhealt",
        "h"
      ],
      [
        "2",
        "0"
      ],
      [
        "p",
        "ar"
      ],
      [
        "Ġre",
        "ad"
      ],
      [
        "Ġsmell",
        "s"
      ],
      [
        "Ġingredi",
        "ents"
      ],
      [
        "Ġmoist",
        "ure"
      ],
      [
        "in",
        "der"
      ],
      [
        "ac",
        "hed"
      ],
      [
        "Ġunder",
        "ne"
      ],
      [
        "Ġrequ",
        "ire"
      ],
      [
        "Ġunderne",
        "ath"
      ],
      [
        "1",
        "0"
      ],
      [
        "2",
        "4"
      ],
      [
        "Ġa",
        "ssistant"
      ],
      [
        "Ġfl",
        "akes"
      ],
      [
        "Ġpar",
        "t"
      ],
      [
        "Ġf",
        "ru"
      ],
      [
        "Ġp",
        "ale"
      ],
      [
        "Ġm",
        "edic"
      ],
      [
        "eed",
        "s"
      ],
      [
        "Ġsl",
        "ack"
      ],
      [
        "Ġed",
        "ges"
      ],
      [
        "Ġpe",
        "ak"
      ],
      [
        "gh",
        "t"
      ],
      [
        "ti",
        "ght"
      ],
      [
        "Ġl",
        "ight"
      ],
      [
        "ad",
        "e"
      ],
      [
        "ĠA",
        "fter"
      ],
      [
        "ck",
        "ing"
      ],
      [
        "ĠWh",
        "en"
      ],
      [
        "Ġ8",
        "0"
      ],
      [
        "Ġair",
        "tight"
      ],
      [
        "proof",
        "ed"
      ],
      [
        "o",
        "id"
      ],
      [
        "o",
        "ve"
      ],
      [
        "v",
        "oid"
      ],
      [
        "Ġ",
        "Y"
      ],
      [
        "re",
        "es"
      ],
      [
        "ĠW",
        "ith"
      ],
      [
        "Ġi",
        "ron"
      ],
      [
        "Ġdeg",
        "rees"
      ],
      [
        "ferm",
        "entation"
      ],
      [
        "Ġtra",
        "pped"
      ],
      [
        "ĠIn",
        "c"
      ],
      [
        "ĠTe",
        "mp"
      ],
      [
        "%",
        "."
      ],
      [
        "v",
        "ing"
      ],
      [
        "Ġdo",
        "med"
      ],
      [
        "Ġst",
        "rong"
      ],
      [
        "Ġwhi",
        "te"
      ],
      [
        "ĠN",
        "ever"
      ],
      [
        "Ġcr",
        "is"
      ],
      [
        "Ġ",
        "E"
      ],
      [
        "ou",
        "le"
      ],
      [
        "Ġb",
        "oule"
      ],
      [
        "Ġp",
        "ul"
      ],
      [
        "Ġco",
        "ok"
      ],
      [
        "Ġen",
        "ough"
      ],
      [
        "Ġins",
        "ide"
      ],
      [
        "Ġda",
        "ily"
      ],
      [
        "ĠF",
        "erm"
      ],
      [
        "Ġn",
        "e"
      ],
      [
        "ĠP",
        "l"
      ],
      [
        "Ġeas",
        "ily"
      ],
      [
        "i",
        "qu"
      ],
      [
        "ofte",
        "n"
      ],
      [
        "at",
        "ch"
      ],
      [
        "le",
        "as"
      ],
      [
        "ĠA",
        "t"
      ],
      [
        "Ġn",
        "o"
      ],
      [
        "am",
        "ine"
      ],
      [
        "Ġbl",
        "o"
      ],
      [
        "Ġ",
        "often"
      ],
      [
        "Ġb",
        "as"
      ],
      [
        "Ġc",
        "ast"
      ],
      [
        "Ġm",
        "ade"
      ],
      [
        "ro",
        "ss"
      ],
      [
        "Ġre",
        "l"
      ],
      [
        "Ġtemperature",
        "s"
      ],
      [
        "Ġro",
        "ck"
      ],
      [
        "v",
        "ides"
      ],
      [
        "w",
        "ard"
      ],
      [
        "Ġa",
        "utolyse"
      ],
      [
        "Ġpro",
        "vides"
      ],
      [
        "Ġfold",
        "ing"
      ],
      [
        "Ġpl",
        "astic"
      ],
      [
        "s",
        "o"
      ],
      [
        "at",
        "ur"
      ],
      [
        "Ġn",
        "atur"
      ],
      [
        "Ġcomplete",
        "ly"
      ],
      [
        "ginn",
        "er"
      ],
      [
        "g",
        "le"
      ],
      [
        "s",
        "ide"
      ],
      [
        "Ġha",
        "r"
      ],
      [
        "Ġdri",
        "ed"
      ],
      [
        "e",
        "ss"
      ],
      [
        "r",
        "en"
      ],
      [
        "re",
        "ak"
      ],
      [
        "el",
        "ow"
      ],
      [
        "ĠD",
        "i"
      ],
      [
        "Ġexp",
        "ans"
      ],
      [
        "Ġgra",
        "ins"
      ],
      [
        "Ġshe",
        "et"
      ],
      [
        "Ġexpans",
        "ion"
      ],
      [
        "g",
        "er"
      ],
      [
        "Ġl",
        "in"
      ],
      [
        "ak",
        "en"
      ],
      [
        "Ġear",
        "ly"
      ],
      [
        "ĠDis",
        "card"
      ],
      [
        "ĠPl",
        "ace"
      ],
      [
        "g",
        "ra"
      ],
      [
        "n",
        "ight"
      ],
      [
        "er",
        "ate"
      ],
      [
        "Ġover",
        "night"
      ],
      [
        "6",
        "8"
      ],
      [
        "Ġd",
        "ark"
      ],
      [
        "Ġm",
        "on"
      ],
      [
        "Ġi",
        "mp"
      ],
      [
        "Ġcaus",
        "es"
      ],
      [
        "tern",
        "al"
      ],
      [
        "Ġnatur",
        "ally"
      ],
      [
        ")",
        ".<|"
      ],
      [
        "l",
        "our"
      ],
      [
        "ou",
        "s"
      ],
      [
        "Ġde",
        "c"
      ],
      [
        "s",
        "es"
      ],
      [
        "te",
        "nt"
      ],
      [
        "ĠD",
        "ough"
      ],
      [
        "Ġcon",
        "tent"
      ],
      [
        "Ġbl",
        "iste"
      ],
      [
        "ond",
        "ering"
      ],
      [
        "Ġbliste",
        "red"
      ],
      [
        "a",
        "re"
      ],
      [
        "h",
        "ydra"
      ],
      [
        "o",
        "st"
      ],
      [
        "Ġg",
        "row"
      ],
      [
        "Ġproduc",
        "ing"
      ],
      [
        "re",
        "sh"
      ],
      [
        "Ġ2",
        "5"
      ],
      [
        "Ġ7",
        "8"
      ],
      [
        "Ġal",
        "so"
      ],
      [
        "Ġme",
        "as"
      ],
      [
        "Ġben",
        "e"
      ],
      [
        "u",
        "nd"
      ],
      [
        "te",
        "nd"
      ],
      [
        "Ġex",
        "cess"
      ],
      [
        "Ġcool",
        "er"
      ],
      [
        "Ġab",
        "und"
      ],
      [
        "Ġabund",
        "ant"
      ],
      [
        "f",
        "orm"
      ],
      [
        "as",
        "ter"
      ],
      [
        "Ġha",
        "l"
      ],
      [
        "Ġ4",
        "0"
      ],
      [
        "Ġfir",
        "m"
      ],
      [
        "Ġrecip",
        "es"
      ],
      [
        "Ġcre",
        "ate"
      ],
      [
        "Ġris",
        "ing"
      ],
      [
        "Ġmon",
        "th"
      ],
      [
        "Ġf",
        "ing"
      ],
      [
        "Ġb",
        "elow"
      ],
      [
        "Ġen",
        "zy"
      ],
      [
        "Ġse",
        "c"
      ],
      [
        "Ġenzy",
        "m"
      ],
      [
        "h",
        "ould"
      ],
      [
        "ar",
        "s"
      ],
      [
        "ul",
        "ly"
      ],
      [
        "ĠS",
        "hould"
      ],
      [
        "Ġdis",
        "c"
      ],
      [
        "Ġpercenta",
        "ges"
      ],
      [
        "Ġseed",
        "s"
      ],
      [
        "c",
        "tion"
      ],
      [
        "Ġg",
        "re"
      ],
      [
        "Ġacti",
        "v"
      ],
      [
        "Ġ90",
        "0"
      ],
      [
        "ward",
        "s"
      ],
      [
        "Ġhal",
        "f"
      ],
      [
        "Ġt",
        "ight"
      ],
      [
        "ra",
        "d"
      ],
      [
        "Ġwith",
        "in"
      ],
      [
        "im",
        "um"
      ],
      [
        "Ġdeg",
        "rad"
      ],
      [
        "Ġru",
        "b"
      ],
      [
        "Ġhold",
        "s"
      ],
      [
        "Ġproduc",
        "es"
      ],
      [
        "Ġf",
        "ully"
      ],
      [
        "Ġbuild",
        "ing"
      ],
      [
        "ra",
        "p"
      ],
      [
        "ĠC",
        "o"
      ],
      [
        "Ġread",
        "y"
      ],
      [
        "Ġsec",
        "ond"
      ],
      [
        "1",
        "2"
      ],
      [
        "p",
        "s"
      ],
      [
        "s",
        "or"
      ],
      [
        "u",
        "b"
      ],
      [
        "in",
        "ation"
      ],
      [
        "Ġc",
        "ar"
      ],
      [
        "Ġre",
        "p"
      ],
      [
        "Ġab",
        "sor"
      ],
      [
        "Ġabsor",
        "b"
      ],
      [
        "Ġa",
        "ns"
      ],
      [
        "Ġd",
        "edic"
      ],
      [
        "Ġp",
        "ink"
      ],
      [
        "Ġe",
        "limin"
      ],
      [
        "ĠT",
        "han"
      ],
      [
        "Ġdi",
        "ffer"
      ],
      [
        "Ġli",
        "ft"
      ],
      [
        "Ġme",
        "ans"
      ],
      [
        "Ġdou",
        "b"
      ],
      [
        "Ġans",
        "w"
      ],
      [
        "Ġdedic",
        "ated"
      ],
      [
        "ĠThan",
        "ks"
      ],
      [
        "Ġt",
        "all"
      ],
      [
        "Ġ1",
        "60"
      ],
      [
        "ĠI",
        "s"
      ],
      [
        "Ġhand",
        "ling"
      ],
      [
        "Ġtur",
        "ns"
      ],
      [
        "gul",
        "ar"
      ],
      [
        "c",
        "hes"
      ],
      [
        "u",
        "ice"
      ],
      [
        "Ġstar",
        "ches"
      ],
      [
        "Ġst",
        "ra"
      ],
      [
        "ĠP",
        "our"
      ],
      [
        "Ġsl",
        "ow"
      ],
      [
        "Ġj",
        "uice"
      ],
      [
        "ress",
        "es"
      ],
      [
        "Ġ",
        "ide"
      ],
      [
        "Ġf",
        "resh"
      ],
      [
        "Ġf",
        "aster"
      ],
      [
        "Ġexp",
        "and"
      ],
      [
        "Ġend",
        "s"
      ],
      [
        "Ġs",
        "ourd"
      ],
      [
        "Ġhe",
        "av"
      ],
      [
        "um",
        "m"
      ],
      [
        "Ġgra",
        "m"
      ],
      [
        "ĠDi",
        "vide"
      ],
      [
        "en",
        "se"
      ],
      [
        "Ġche",
        "es"
      ],
      [
        "we",
        "en"
      ],
      [
        "ici",
        "ent"
      ],
      [
        "Ġbet",
        "ween"
      ],
      [
        "t",
        "in"
      ],
      [
        "Ġa",
        "erated"
      ],
      [
        "er",
        "al"
      ],
      [
        "on",
        "e"
      ],
      [
        "ol",
        "es"
      ],
      [
        "Ġh",
        "oles"
      ],
      [
        "Ġr",
        "ice"
      ],
      [
        "Ġmonth",
        "s"
      ],
      [
        "i",
        "al"
      ],
      [
        "en",
        "tial"
      ],
      [
        "ss",
        "ential"
      ],
      [
        "Ġm",
        "ass"
      ],
      [
        "ic",
        "ate"
      ],
      [
        "Ġe",
        "ssential"
      ],
      [
        "ĠS",
        "l"
      ],
      [
        "Ġan",
        "gle"
      ],
      [
        "Ġsl",
        "ic"
      ],
      [
        "Ġ6",
        "0"
      ],
      [
        "Ġsu",
        "pp"
      ],
      [
        "Ġdel",
        "icate"
      ],
      [
        "ĠY",
        "ou"
      ],
      [
        "i",
        "es"
      ],
      [
        "t",
        "ly"
      ],
      [
        "Ġd",
        "id"
      ],
      [
        "ve",
        "ction"
      ],
      [
        "Ġwe",
        "e"
      ],
      [
        "Ġdis",
        "h"
      ],
      [
        "Ġen",
        "c"
      ],
      [
        "Ġtur",
        "n"
      ],
      [
        "Ġpl",
        "ace"
      ],
      [
        "Ġgrow",
        "th"
      ],
      [
        "Ġrep",
        "eat"
      ],
      [
        "Ġansw",
        "er"
      ],
      [
        "Ġide",
        "al"
      ],
      [
        "9",
        "4"
      ],
      [
        "Ġt",
        "w"
      ],
      [
        "Ġf",
        "at"
      ],
      [
        "Ġ1",
        "4"
      ],
      [
        "ĠF",
        "reeze"
      ],
      [
        "Ġle",
        "aves"
      ],
      [
        "Ġins",
        "uff"
      ],
      [
        "Ġbub",
        "bly"
      ],
      [
        "Ġrub",
        "b"
      ],
      [
        "Ġfat",
        "s"
      ],
      [
        "Ġinsuff",
        "icient"
      ],
      [
        "tion",
        "al"
      ],
      [
        "Ġco",
        "vered"
      ],
      [
        "Ġsta",
        "y"
      ],
      [
        "Ġrefrig",
        "erated"
      ],
      [
        "per",
        "ly"
      ],
      [
        "ou",
        "p"
      ],
      [
        "Ġs",
        "w"
      ],
      [
        "Ġs",
        "oup"
      ],
      [
        "Ġt",
        "roubleshooting"
      ],
      [
        "Ġb",
        "row"
      ],
      [
        "Ġd",
        "oubles"
      ],
      [
        "Ġm",
        "ax"
      ],
      [
        "ĠB",
        "aking"
      ],
      [
        "Ġwe",
        "aken"
      ],
      [
        "Ġen",
        "s"
      ],
      [
        "Ġchlor",
        "amine"
      ],
      [
        "Ġmax",
        "imum"
      ],
      [
        "a",
        "ch"
      ],
      [
        "a",
        "il"
      ],
      [
        "d",
        "u"
      ],
      [
        "Ġ",
        "ou"
      ],
      [
        "Ġt",
        "an"
      ],
      [
        "ti",
        "re"
      ],
      [
        "Ġsh",
        "ows"
      ],
      [
        "Ġen",
        "tire"
      ],
      [
        "Ġse",
        "al"
      ],
      [
        "we",
        "e"
      ],
      [
        "Ġou",
        "ter"
      ],
      [
        "Ġtan",
        "g"
      ],
      [
        "a",
        "mple"
      ],
      [
        "Ġs",
        "ig"
      ],
      [
        "Ġpro",
        "ble"
      ],
      [
        "Ġac",
        "ross"
      ],
      [
        "ĠC",
        "he"
      ],
      [
        "Ġex",
        "ample"
      ],
      [
        "Ġgelatin",
        "izes"
      ],
      [
        "Ġproble",
        "m"
      ],
      [
        "%",
        ")."
      ],
      [
        "p",
        "or"
      ],
      [
        "r",
        "ough"
      ],
      [
        "or",
        "ough"
      ],
      [
        "or",
        "por"
      ],
      [
        "le",
        "ss"
      ],
      [
        "Ġre",
        "ac"
      ],
      [
        "Ġst",
        "ric"
      ],
      [
        "Ġth",
        "rough"
      ],
      [
        "Ġth",
        "orough"
      ],
      [
        "Ġins",
        "tant"
      ],
      [
        "ia",
        "nt"
      ],
      [
        "ick",
        "s"
      ],
      [
        "Ġinc",
        "orpor"
      ],
      [
        "ĠL",
        "et"
      ],
      [
        "Ġbond",
        "s"
      ],
      [
        "Ġtw",
        "o"
      ],
      [
        "Ġstric",
        "tly"
      ],
      [
        "g",
        "ry"
      ],
      [
        "in",
        "ary"
      ],
      [
        "Ġt",
        "aste"
      ],
      [
        "er",
        "y"
      ],
      [
        "is",
        "h"
      ],
      [
        "Ġw",
        "ork"
      ],
      [
        "Ġh",
        "un"
      ],
      [
        "Ġfl",
        "o"
      ],
      [
        "ĠA",
        "utolyse"
      ],
      [
        "Ġshap",
        "ed"
      ],
      [
        "Ġdis",
        "sol"
      ],
      [
        "Ġch",
        "ill"
      ],
      [
        "Ġbo",
        "il"
      ],
      [
        "ĠInc",
        "rease"
      ],
      [
        "Ġhun",
        "gry"
      ],
      [
        "x",
        "y"
      ],
      [
        "Ġc",
        "ur"
      ],
      [
        "Ġpro",
        "gra"
      ],
      [
        "Ġsp",
        "eeds"
      ],
      [
        "Ġhydra",
        "te"
      ],
      [
        "ble",
        "ached"
      ],
      [
        "Ġdevelop",
        "s"
      ],
      [
        "Ġbag",
        "s"
      ],
      [
        "Ġmedic",
        "al"
      ],
      [
        "e",
        "ct"
      ],
      [
        "g",
        "an"
      ],
      [
        "Ġor",
        "gan"
      ],
      [
        "ĠW",
        "ondering"
      ],
      [
        "Ġbl",
        "isters"
      ],
      [
        "Ġbene",
        "ath"
      ],
      [
        "Ġflo",
        "at"
      ],
      [
        "l",
        "inder"
      ],
      [
        "r",
        "ink"
      ],
      [
        "y",
        "linder"
      ],
      [
        "Ġa",
        "void"
      ],
      [
        "Ġc",
        "ylinder"
      ],
      [
        "ĠT",
        "roubleshooting"
      ],
      [
        "Ġse",
        "am"
      ],
      [
        "ĠL",
        "e"
      ],
      [
        "Ġcons",
        "iste"
      ],
      [
        "a",
        "g"
      ],
      [
        "g",
        "eth"
      ],
      [
        "Ġb",
        "atch"
      ],
      [
        "Ġto",
        "geth"
      ],
      [
        "Ġm",
        "ath"
      ],
      [
        "Ġre",
        "s"
      ],
      [
        "Ġ3",
        "50"
      ],
      [
        "Ġcon",
        "f"
      ],
      [
        "Ġk",
        "nead"
      ],
      [
        "oo",
        "ch"
      ],
      [
        "Ġlong",
        "er"
      ],
      [
        "ant",
        "ly"
      ],
      [
        "ĠN",
        "eed"
      ],
      [
        "Ġchlor",
        "ine"
      ],
      [
        "Ġrock",
        "s"
      ],
      [
        "Ġtogeth",
        "er"
      ],
      [
        "p",
        "le"
      ],
      [
        "en",
        "ce"
      ],
      [
        "Ġd",
        "ra"
      ],
      [
        "Ġ2",
        "7"
      ],
      [
        "Ġsha",
        "k"
      ],
      [
        "Ġra",
        "d"
      ],
      [
        "Ġsti",
        "r"
      ],
      [
        "ff",
        "ect"
      ],
      [
        "ap",
        "ple"
      ],
      [
        "Ġpre",
        "par"
      ],
      [
        "Ġj",
        "ig"
      ],
      [
        "ine",
        "apple"
      ],
      [
        "a",
        "ti"
      ],
      [
        "Ġh",
        "ooch"
      ],
      [
        "ĠH",
        "i"
      ],
      [
        "ns",
        "l"
      ],
      [
        "Ġex",
        "tend"
      ],
      [
        "Ġacid",
        "ity"
      ],
      [
        "pro",
        "tein"
      ],
      [
        "Ġeven",
        "ly"
      ],
      [
        "Ġfru",
        "it"
      ],
      [
        "ĠFerm",
        "ent"
      ],
      [
        "hydra",
        "tion"
      ],
      [
        "Ġsig",
        "n"
      ],
      [
        "7",
        "2"
      ],
      [
        "s",
        "on"
      ],
      [
        "Ġf",
        "avor"
      ],
      [
        "Ġd",
        "ro"
      ],
      [
        "ĠS",
        "c"
      ],
      [
        "Ġquestion",
        "s"
      ],
      [
        "Ġper",
        "son"
      ],
      [
        "Ġsto",
        "re"
      ],
      [
        "Ġrequire",
        "s"
      ],
      [
        "Ġlin",
        "er"
      ],
      [
        "'",
        "t"
      ],
      [
        "f",
        "ul"
      ],
      [
        "p",
        "ur"
      ],
      [
        "p",
        "ose"
      ],
      [
        "Ġ",
        "ice"
      ],
      [
        "on",
        "ost"
      ],
      [
        "Ġp",
        "ineapple"
      ],
      [
        "Ġre",
        "leas"
      ],
      [
        "Ġ4",
        "50"
      ],
      [
        "Ġdi",
        "vide"
      ],
      [
        "uc",
        "onost"
      ],
      [
        "Ġmix",
        "es"
      ],
      [
        "Ġbrow",
        "n"
      ],
      [
        "ĠLe",
        "uconost"
      ],
      [
        "pur",
        "pose"
      ],
      [
        "Ġreleas",
        "es"
      ],
      [
        "ĠLeuconost",
        "oc"
      ],
      [
        "a",
        "ge"
      ],
      [
        "g",
        "les"
      ],
      [
        "Ġw",
        "aste"
      ],
      [
        "Ġm",
        "at"
      ],
      [
        "ĠW",
        "ater"
      ],
      [
        "ri",
        "b"
      ],
      [
        "Ġra",
        "te"
      ],
      [
        "Ġ4",
        "5"
      ],
      [
        "ut",
        "ri"
      ],
      [
        "Ġv",
        "s"
      ],
      [
        "Ġmo",
        "tions"
      ],
      [
        "Ġall",
        "ow"
      ],
      [
        "Ġquick",
        "ly"
      ],
      [
        "Ġpul",
        "l"
      ],
      [
        "Ġshak",
        "en"
      ],
      [
        "Ġjig",
        "gles"
      ],
      [
        "Q",
        "u"
      ],
      [
        "g",
        "en"
      ],
      [
        "m",
        "all"
      ],
      [
        "Ġ",
        "Qu"
      ],
      [
        "Ġw",
        "in"
      ],
      [
        "Ġc",
        "ul"
      ],
      [
        "Ġo",
        "xy"
      ],
      [
        "ĠS",
        "ti"
      ],
      [
        "Ġex",
        "c"
      ],
      [
        "pp",
        "ing"
      ],
      [
        "uc",
        "ent"
      ],
      [
        "Ġtra",
        "nsl"
      ],
      [
        "Ġhar",
        "d"
      ],
      [
        "Ġmeas",
        "ures"
      ],
      [
        "ĠQu",
        "ick"
      ],
      [
        "Ġcul",
        "inary"
      ],
      [
        "Ġoxy",
        "gen"
      ],
      [
        "Ġtransl",
        "ucent"
      ],
      [
        "Ġ",
        "z"
      ],
      [
        "Ġb",
        "ar"
      ],
      [
        "Ġb",
        "le"
      ],
      [
        "or",
        "ation"
      ],
      [
        "Ġp",
        "H"
      ],
      [
        "Ġp",
        "ack"
      ],
      [
        "ol",
        "oration"
      ],
      [
        "id",
        "ent"
      ],
      [
        "ĠH",
        "el"
      ],
      [
        "Ġpre",
        "ss"
      ],
      [
        "th",
        "er"
      ],
      [
        "ne",
        "ss"
      ],
      [
        "Ġkeep",
        "s"
      ],
      [
        "Ġkeep",
        "ing"
      ],
      [
        "if",
        "t"
      ],
      [
        "Ġrem",
        "ove"
      ],
      [
        "Ġexcess",
        "ive"
      ],
      [
        "Ġdisc",
        "oloration"
      ],
      [
        "Ġsw",
        "ift"
      ],
      [
        "Ġrad",
        "iant"
      ],
      [
        "ĠHel",
        "p"
      ],
      [
        "Ġm",
        "ild"
      ],
      [
        "an",
        "ce"
      ],
      [
        "Ġr",
        "im"
      ],
      [
        "Ġli",
        "f"
      ],
      [
        "Ġas",
        "h"
      ],
      [
        "iz",
        "ed"
      ],
      [
        "Ġcontain",
        "er"
      ],
      [
        "Ġru",
        "n"
      ],
      [
        "Ġar",
        "t"
      ],
      [
        "ati",
        "ve"
      ],
      [
        "9",
        "6"
      ],
      [
        "c",
        "ial"
      ],
      [
        "d",
        "own"
      ],
      [
        "g",
        "g"
      ],
      [
        "Ġf",
        "e"
      ],
      [
        "Ġp",
        "or"
      ],
      [
        "Ġ2",
        "10"
      ],
      [
        "ĠH",
        "old"
      ],
      [
        "Ġ20",
        "5"
      ],
      [
        "Ġun",
        "bleached"
      ],
      [
        "Ġv",
        "ent"
      ],
      [
        "Ġ9",
        "9"
      ],
      [
        "Ġroom",
        "s"
      ],
      [
        "Ġconf",
        "ident"
      ],
      [
        "utri",
        "ents"
      ],
      [
        "Ġf",
        "ail"
      ],
      [
        "Ġc",
        "oll"
      ],
      [
        "Ġm",
        "aking"
      ],
      [
        "ĠD",
        "ro"
      ],
      [
        "ĠHow",
        "ever"
      ],
      [
        "ĠC",
        "h"
      ],
      [
        "ĠDo",
        "es"
      ],
      [
        "Ġcoll",
        "ap"
      ],
      [
        "b",
        "on"
      ],
      [
        "i",
        "v"
      ],
      [
        "Ġ",
        "+"
      ],
      [
        "xt",
        "ra"
      ],
      [
        "Ġe",
        "xtra"
      ],
      [
        "Ġon",
        "to"
      ],
      [
        "mp",
        "t"
      ],
      [
        "ĠB",
        "ake"
      ],
      [
        "ĠWh",
        "ole"
      ],
      [
        "Ġsa",
        "ve"
      ],
      [
        "Ġar",
        "ound"
      ],
      [
        "Ġcar",
        "bon"
      ],
      [
        "i",
        "red"
      ],
      [
        "Ġd",
        "on"
      ],
      [
        "ak",
        "er"
      ],
      [
        "ĠB",
        "aker"
      ],
      [
        "ĠP",
        "ro"
      ],
      [
        "ĠPre",
        "heat"
      ],
      [
        "Ġferment",
        "ing"
      ],
      [
        "ĠBe",
        "ginner"
      ],
      [
        "Ġrem",
        "ain"
      ],
      [
        "d",
        "i"
      ],
      [
        "k",
        "nead"
      ],
      [
        "Ġb",
        "ur"
      ],
      [
        "Ġco",
        "mp"
      ],
      [
        "Ġsti",
        "tch"
      ],
      [
        "Ġsc",
        "ra"
      ],
      [
        "Ġweight",
        "s"
      ],
      [
        "Ġse",
        "e"
      ],
      [
        "Ġdri",
        "es"
      ],
      [
        "cess",
        "ary"
      ],
      [
        "Ġne",
        "cessary"
      ],
      [
        "iqu",
        "ot"
      ],
      [
        "i",
        "b"
      ],
      [
        "o",
        "ss"
      ],
      [
        "Ġs",
        "it"
      ],
      [
        "Ġs",
        "ides"
      ],
      [
        "Ġa",
        "ffect"
      ],
      [
        "Ġspring",
        "s"
      ],
      [
        "Ġtin",
        "y"
      ],
      [
        "a",
        "tic"
      ],
      [
        "Ġb",
        "reak"
      ],
      [
        "Ġc",
        "ub"
      ],
      [
        "ot",
        "h"
      ],
      [
        "ĠF",
        "lour"
      ],
      [
        "Ġsti",
        "ll"
      ],
      [
        "Ġart",
        "is"
      ],
      [
        "ĠDro",
        "pping"
      ],
      [
        "7",
        "8"
      ],
      [
        "d",
        "s"
      ],
      [
        "i",
        "ke"
      ],
      [
        "l",
        "ike"
      ],
      [
        "u",
        "gg"
      ],
      [
        "Ġt",
        "ru"
      ],
      [
        "Ġc",
        "ult"
      ],
      [
        "as",
        "h"
      ],
      [
        "Ġ2",
        "6"
      ],
      [
        "Ġpre",
        "s"
      ],
      [
        "ĠCh",
        "lor"
      ],
      [
        "ugg",
        "ish"
      ],
      [
        "Ġtru",
        "e"
      ],
      [
        "he",
        "ated"
      ],
      [
        "Ġg",
        "umm"
      ],
      [
        "Ġal",
        "iquot"
      ],
      [
        "Ġcons",
        "ult"
      ],
      [
        "Ġneed",
        "ed"
      ],
      [
        "Ġsoup",
        "y"
      ],
      [
        "Ġgumm",
        "y"
      ],
      [
        "i",
        "e"
      ],
      [
        "w",
        "ay"
      ],
      [
        "Ġa",
        "way"
      ],
      [
        "or",
        "ative"
      ],
      [
        "Ġin",
        "ternal"
      ],
      [
        "Ġg",
        "ive"
      ],
      [
        "Ġste",
        "el"
      ],
      [
        "Ġstick",
        "ing"
      ],
      [
        "Ġdec",
        "orative"
      ],
      [
        "Ġfe",
        "el"
      ],
      [
        "Ġcollap",
        "ses"
      ],
      [
        "et",
        "s"
      ],
      [
        "Ġbe",
        "en"
      ],
      [
        "Ġsl",
        "ash"
      ],
      [
        "Ġscra",
        "per"
      ],
      [
        "c",
        "c"
      ],
      [
        "g",
        "et"
      ],
      [
        "h",
        "ib"
      ],
      [
        "m",
        "ic"
      ],
      [
        "t",
        "tan"
      ],
      [
        "Ġl",
        "ast"
      ],
      [
        "Ġin",
        "hib"
      ],
      [
        "ĠH",
        "ell"
      ],
      [
        "Ġra",
        "ttan"
      ],
      [
        "Ġche",
        "mic"
      ],
      [
        "ĠChe",
        "cking"
      ],
      [
        "Ġinhib",
        "it"
      ],
      [
        "ĠHell",
        "o"
      ],
      [
        "ra",
        "te"
      ],
      [
        "Ġo",
        "cc"
      ],
      [
        "ur",
        "s"
      ],
      [
        "Ġbu",
        "ffer"
      ],
      [
        "Ġper",
        "form"
      ],
      [
        "Ġlar",
        "ger"
      ],
      [
        "Ġingredi",
        "ent"
      ],
      [
        "Ġfil",
        "m"
      ],
      [
        "Ġlam",
        "ination"
      ],
      [
        "Ġheav",
        "y"
      ],
      [
        "Ġocc",
        "urs"
      ],
      [
        "g",
        "th"
      ],
      [
        "o",
        "d"
      ],
      [
        "Ġp",
        "ri"
      ],
      [
        "Ġst",
        "ren"
      ],
      [
        "Ġst",
        "one"
      ],
      [
        "Ġsk",
        "ip"
      ],
      [
        "Ġdiffer",
        "ence"
      ],
      [
        "Ġstren",
        "gth"
      ],
      [
        "h",
        "ol"
      ],
      [
        "Ġp",
        "h"
      ],
      [
        "Ġj",
        "ust"
      ],
      [
        "Ġal",
        "co"
      ],
      [
        "oll",
        "ow"
      ],
      [
        "Ġcl",
        "oth"
      ],
      [
        "Ġcris",
        "p"
      ],
      [
        "Ġstra",
        "ight"
      ],
      [
        "Ġknead",
        "ing"
      ],
      [
        "Ġcub",
        "es"
      ],
      [
        "Ġpres",
        "er"
      ],
      [
        "Ġalco",
        "hol"
      ],
      [
        "Ġdough",
        "s"
      ],
      [
        "ac",
        "t"
      ],
      [
        "Ġr",
        "ight"
      ],
      [
        "Ġac",
        "c"
      ],
      [
        "Ġth",
        "ick"
      ],
      [
        "Ġth",
        "ere"
      ],
      [
        "Ġblo",
        "om"
      ],
      [
        "ĠCo",
        "il"
      ],
      [
        "3",
        "2"
      ],
      [
        "l",
        "isters"
      ],
      [
        "m",
        "in"
      ],
      [
        "o",
        "g"
      ],
      [
        "Ġs",
        "aves"
      ],
      [
        "Ġt",
        "aking"
      ],
      [
        "Ġw",
        "rap"
      ],
      [
        "Ġm",
        "eth"
      ],
      [
        "ra",
        "n"
      ],
      [
        "Ġg",
        "o"
      ],
      [
        "ĠT",
        "ra"
      ],
      [
        "Ġbot",
        "h"
      ],
      [
        "Ġab",
        "out"
      ],
      [
        "Ġtear",
        "s"
      ],
      [
        "Ġblo",
        "ck"
      ],
      [
        "Ġmeth",
        "od"
      ],
      [
        "S",
        "P"
      ],
      [
        "w",
        "ich"
      ],
      [
        "Ġ",
        "ol"
      ],
      [
        "Ġs",
        "and"
      ],
      [
        "Ġb",
        "ad"
      ],
      [
        "Ġd",
        "ense"
      ],
      [
        "ti",
        "m"
      ],
      [
        "es",
        "ired"
      ],
      [
        "it",
        "ch"
      ],
      [
        "Ġg",
        "old"
      ],
      [
        "Ġhe",
        "y"
      ],
      [
        "Ġle",
        "ss"
      ],
      [
        "Ġus",
        "es"
      ],
      [
        "os",
        "ed"
      ],
      [
        "ĠE",
        "SP"
      ],
      [
        "Ġenzym",
        "atic"
      ],
      [
        "Ġdegrad",
        "ed"
      ],
      [
        "Ġdissol",
        "v"
      ],
      [
        "Ġdra",
        "ft"
      ],
      [
        "Ġartis",
        "an"
      ],
      [
        "Ġol",
        "ive"
      ],
      [
        "Ġsand",
        "wich"
      ],
      [
        "Ġgold",
        "en"
      ],
      [
        "m",
        "e"
      ],
      [
        "Ġu",
        "ns"
      ],
      [
        "Ġcon",
        "di"
      ],
      [
        "Ġcan",
        "e"
      ],
      [
        "Ġal",
        "ways"
      ],
      [
        "Ġkn",
        "ow"
      ],
      [
        "Ġcondi",
        "tions"
      ],
      [
        "c",
        "hed"
      ],
      [
        "m",
        "ary"
      ],
      [
        "u",
        "ild"
      ],
      [
        "Ġ",
        "old"
      ],
      [
        "Ġf",
        "an"
      ],
      [
        "Ġw",
        "as"
      ],
      [
        "Ġstar",
        "ch"
      ],
      [
        "ĠS",
        "te"
      ],
      [
        "ri",
        "es"
      ],
      [
        "ĠB",
        "uild"
      ],
      [
        "Ġmin",
        "eral"
      ],
      [
        "ain",
        "tain"
      ],
      [
        "Ġsc",
        "ale"
      ],
      [
        "ĠM",
        "aintain"
      ],
      [
        "hap",
        "e"
      ],
      [
        "Ġset",
        "ting"
      ],
      [
        "Ġrel",
        "ax"
      ],
      [
        "Ġelimin",
        "ates"
      ],
      [
        "Ġprepar",
        "ing"
      ],
      [
        "Ġpri",
        "mary"
      ],
      [
        "c",
        "es"
      ],
      [
        "p",
        "ly"
      ],
      [
        "u",
        "e"
      ],
      [
        "x",
        "ic"
      ],
      [
        "Ġ",
        "G"
      ],
      [
        "Ġd",
        "ust"
      ],
      [
        "Ġc",
        "ha"
      ],
      [
        "ti",
        "ply"
      ],
      [
        "Ġm",
        "ul"
      ],
      [
        "Ġco",
        "ver"
      ],
      [
        "Ġ3",
        "6"
      ],
      [
        "Ġde",
        "f"
      ],
      [
        "Ġ6",
        "8"
      ],
      [
        "Ġgra",
        "in"
      ],
      [
        "Ġbas",
        "k"
      ],
      [
        "Ġchees",
        "e"
      ],
      [
        "Ġmul",
        "tiply"
      ],
      [
        "8",
        "0"
      ],
      [
        "i",
        "tial"
      ],
      [
        "u",
        "al"
      ],
      [
        "Ġp",
        "ow"
      ],
      [
        "Ġin",
        "itial"
      ],
      [
        "Ġ12",
        "0"
      ],
      [
        "Ġcons",
        "ume"
      ],
      [
        "Ġset",
        "s"
      ],
      [
        "Ġlam",
        "e"
      ],
      [
        "Ġsto",
        "p"
      ],
      [
        "Ġchemic",
        "als"
      ],
      [
        "Ġpow",
        "der"
      ],
      [
        "a",
        "ill"
      ],
      [
        "f",
        "ree"
      ],
      [
        "g",
        "ars"
      ],
      [
        "Ġg",
        "ood"
      ],
      [
        "Ġun",
        "co"
      ],
      [
        "ĠP",
        "er"
      ],
      [
        "um",
        "ed"
      ],
      [
        "ĠM",
        "aill"
      ],
      [
        "Ġsu",
        "gars"
      ],
      [
        "Ġcons",
        "umed"
      ],
      [
        "Ġscore",
        "s"
      ],
      [
        "Ġfing",
        "er"
      ],
      [
        "Ġtight",
        "ly"
      ],
      [
        "Ġunco",
        "vered"
      ],
      [
        "ĠMaill",
        "ard"
      ],
      [
        "b",
        "listers"
      ],
      [
        "d",
        "ay"
      ],
      [
        "n",
        "c"
      ],
      [
        "Ġ",
        "U"
      ],
      [
        "en",
        "ess"
      ],
      [
        "Ġf",
        "u"
      ],
      [
        "Ġb",
        "ran"
      ],
      [
        "Ġd",
        "ay"
      ],
      [
        "Ġto",
        "wards"
      ],
      [
        "es",
        "ting"
      ],
      [
        "Ġg",
        "ent"
      ],
      [
        "ĠF",
        "ren"
      ],
      [
        "ck",
        "ets"
      ],
      [
        "Ġcon",
        "vection"
      ],
      [
        "Ġk",
        "itch"
      ],
      [
        "Ġpre",
        "limin"
      ],
      [
        "Ġhigh",
        "er"
      ],
      [
        "ĠR",
        "esting"
      ],
      [
        "Ġmain",
        "ten"
      ],
      [
        "Ġcomple",
        "x"
      ],
      [
        "mm",
        "ing"
      ],
      [
        "Ġpo",
        "ckets"
      ],
      [
        "Ġgram",
        "s"
      ],
      [
        "Ġwee",
        "ks"
      ],
      [
        "Ġprogra",
        "mming"
      ],
      [
        "Ġorgan",
        "izes"
      ],
      [
        "Ġdon",
        "eness"
      ],
      [
        "ĠTra",
        "pped"
      ],
      [
        "Ġrelax",
        "es"
      ],
      [
        "ĠFren",
        "ch"
      ],
      [
        "Ġkitch",
        "en"
      ],
      [
        "Ġprelimin",
        "ary"
      ],
      [
        "Ġmainten",
        "ance"
      ],
      [
        "2",
        "3"
      ],
      [
        "a",
        "h"
      ],
      [
        "a",
        "ble"
      ],
      [
        "n",
        "o"
      ],
      [
        "z",
        "a"
      ],
      [
        "z",
        "zy"
      ],
      [
        "Ġa",
        "ssis"
      ],
      [
        "er",
        "ation"
      ],
      [
        "ta",
        "te"
      ],
      [
        "Ġb",
        "ase"
      ],
      [
        "Ġp",
        "iz"
      ],
      [
        "id",
        "d"
      ],
      [
        "if",
        "ic"
      ],
      [
        "Ġafter",
        "no"
      ],
      [
        "Ġfing",
        "ers"
      ],
      [
        "Ġdoub",
        "led"
      ],
      [
        "ah",
        "m"
      ],
      [
        "Ġpiz",
        "za"
      ],
      [
        "Ġafterno",
        "on"
      ],
      [
        "6",
        "5"
      ],
      [
        "e",
        "ars"
      ],
      [
        "ter",
        "ns"
      ],
      [
        "Ġg",
        "et"
      ],
      [
        "Ġre",
        "v"
      ],
      [
        "ch",
        "n"
      ],
      [
        "Ġcon",
        "ven"
      ],
      [
        "ri",
        "p"
      ],
      [
        "Ġra",
        "ther"
      ],
      [
        "Ġdi",
        "es"
      ],
      [
        "Ġsafe",
        "ly"
      ],
      [
        "Ġpat",
        "terns"
      ],
      [
        "Ġsupp",
        "resses"
      ],
      [
        "Ġ14",
        "0"
      ],
      [
        "Ġconven",
        "tional"
      ],
      [
        "2",
        "6"
      ],
      [
        "d",
        "d"
      ],
      [
        "i",
        "ac"
      ],
      [
        "n",
        "el"
      ],
      [
        "r",
        "in"
      ],
      [
        "Ġs",
        "ide"
      ],
      [
        "Ġt",
        "u"
      ],
      [
        "Ġt",
        "ha"
      ],
      [
        "Ġc",
        "el"
      ],
      [
        "Ġto",
        "xic"
      ],
      [
        "Ġm",
        "an"
      ],
      [
        "ol",
        "er"
      ],
      [
        "al",
        "ing"
      ],
      [
        "Ġg",
        "u"
      ],
      [
        "Ġflour",
        "s"
      ],
      [
        "Ġe",
        "mpt"
      ],
      [
        "Ġsp",
        "ir"
      ],
      [
        "Ġde",
        "ta"
      ],
      [
        "ĠC",
        "old"
      ],
      [
        "ĠB",
        "are"
      ],
      [
        "Ġro",
        "tate"
      ],
      [
        "Ġbl",
        "ack"
      ],
      [
        "Ġshallow",
        "ly"
      ],
      [
        "Ġseal",
        "ed"
      ],
      [
        "Ġconsiste",
        "nt"
      ],
      [
        "Ġassis",
        "t"
      ],
      [
        "Ġtha",
        "w"
      ],
      [
        "Ġcel",
        "iac"
      ],
      [
        "Ġempt",
        "y"
      ],
      [
        "b",
        "ak"
      ],
      [
        "i",
        "tal"
      ],
      [
        "l",
        "ine"
      ],
      [
        "y",
        "s"
      ],
      [
        "Ġf",
        "ed"
      ],
      [
        "Ġd",
        "ue"
      ],
      [
        "Ġc",
        "or"
      ],
      [
        "Ġin",
        "ter"
      ],
      [
        "ru",
        "mb"
      ],
      [
        "ĠA",
        "ll"
      ],
      [
        "Ġco",
        "mb"
      ],
      [
        "Ġcon",
        "tin"
      ],
      [
        "ĠC",
        "rumb"
      ],
      [
        "Ġth",
        "is"
      ],
      [
        "Ġoff",
        "line"
      ],
      [
        "Ġcut",
        "ting"
      ],
      [
        "ĠG",
        "ently"
      ],
      [
        "chn",
        "iqu"
      ],
      [
        "bak",
        "ed"
      ],
      [
        "Ġcor",
        "n"
      ],
      [
        "Ġcomb",
        "o"
      ],
      [
        "Ġcontin",
        "u"
      ],
      [
        "e",
        "ven"
      ],
      [
        "g",
        "ain"
      ],
      [
        "l",
        "er"
      ],
      [
        "p",
        "tim"
      ],
      [
        "r",
        "re"
      ],
      [
        "t",
        "re"
      ],
      [
        "te",
        "red"
      ],
      [
        "Ġa",
        "gain"
      ],
      [
        "Ġc",
        "ir"
      ],
      [
        "Ġh",
        "ollow"
      ],
      [
        "ow",
        "er"
      ],
      [
        "as",
        "ed"
      ],
      [
        "Ġi",
        "rre"
      ],
      [
        "ĠS",
        "tre"
      ],
      [
        "Ġun",
        "even"
      ],
      [
        "us",
        "ually"
      ],
      [
        "Ġup",
        "wards"
      ],
      [
        "Ġinc",
        "rease"
      ],
      [
        "de",
        "velop"
      ],
      [
        "ĠK",
        "ahm"
      ],
      [
        "ĠO",
        "ptim"
      ],
      [
        "Ġsa",
        "mple"
      ],
      [
        "Ġgre",
        "ased"
      ],
      [
        "Ġmass",
        "ive"
      ],
      [
        "Ġperson",
        "al"
      ],
      [
        "Ġgent",
        "ler"
      ],
      [
        "23",
        "0"
      ],
      [
        "Ġcir",
        "cul"
      ],
      [
        "Ġirre",
        "gular"
      ],
      [
        "ĠStre",
        "tch"
      ],
      [
        "ĠOptim",
        "al"
      ],
      [
        "%",
        "+"
      ],
      [
        "7",
        "1"
      ],
      [
        "g",
        "ital"
      ],
      [
        "w",
        "an"
      ],
      [
        "Ġs",
        "er"
      ],
      [
        "Ġs",
        "ol"
      ],
      [
        "Ġa",
        "par"
      ],
      [
        "our",
        "ag"
      ],
      [
        "Ġp",
        "r"
      ],
      [
        "Ġp",
        "erm"
      ],
      [
        "an",
        "ently"
      ],
      [
        "Ġco",
        "mm"
      ],
      [
        "ĠS",
        "p"
      ],
      [
        "ĠC",
        "on"
      ],
      [
        "Ġun",
        "wan"
      ],
      [
        "Ġdi",
        "gital"
      ],
      [
        "Ġsta",
        "le"
      ],
      [
        "Ġmo",
        "de"
      ],
      [
        "Ġbaker",
        "s"
      ],
      [
        "iz",
        "e"
      ],
      [
        "Ġlow",
        "ers"
      ],
      [
        "Ġus",
        "ual"
      ],
      [
        "ĠThe",
        "y"
      ],
      [
        "Ġgas",
        "es"
      ],
      [
        "Ġrest",
        "ing"
      ],
      [
        "ĠO",
        "ven"
      ],
      [
        "Ġcl",
        "ay"
      ],
      [
        "Ġind",
        "ic"
      ],
      [
        "ten",
        "ed"
      ],
      [
        "Ġdoub",
        "ling"
      ],
      [
        "Ġenc",
        "ourag"
      ],
      [
        "wee",
        "tened"
      ],
      [
        "ĠSti",
        "r"
      ],
      [
        "Ġbreak",
        "down"
      ],
      [
        "Ġuns",
        "weetened"
      ],
      [
        "Ġfu",
        "zzy"
      ],
      [
        "Ġsol",
        "id"
      ],
      [
        "Ġapar",
        "t"
      ],
      [
        "Ġperm",
        "anently"
      ],
      [
        "Ġunwan",
        "ted"
      ],
      [
        "Ġencourag",
        "ing"
      ],
      [
        "3",
        "8"
      ],
      [
        "c",
        "tions"
      ],
      [
        "f",
        "ts"
      ],
      [
        "n",
        "ous"
      ],
      [
        "te",
        "ns"
      ],
      [
        "Ġp",
        "ha"
      ],
      [
        "Ġl",
        "ack"
      ],
      [
        "ight",
        "ly"
      ],
      [
        "Ġde",
        "p"
      ],
      [
        "ver",
        "nous"
      ],
      [
        "Ġ7",
        "2"
      ],
      [
        "Ġsl",
        "ightly"
      ],
      [
        "Ġca",
        "vernous"
      ],
      [
        "Ġsu",
        "ff"
      ],
      [
        "ĠIn",
        "ternal"
      ],
      [
        "Ġflavor",
        "s"
      ],
      [
        "Ġstiff",
        "ens"
      ],
      [
        "Ġreac",
        "tion"
      ],
      [
        "Ġres",
        "ult"
      ],
      [
        "Ġpreser",
        "ving"
      ],
      [
        "Ġpha",
        "se"
      ],
      [
        "3",
        "4"
      ],
      [
        "6",
        "4"
      ],
      [
        "a",
        "ve"
      ],
      [
        "l",
        "ic"
      ],
      [
        "o",
        "h"
      ],
      [
        "s",
        "um"
      ],
      [
        "y",
        "p"
      ],
      [
        "Ġ",
        "very"
      ],
      [
        "Ġs",
        "um"
      ],
      [
        "Ġt",
        "un"
      ],
      [
        "er",
        "o"
      ],
      [
        "ta",
        "nd"
      ],
      [
        "Ġl",
        "av"
      ],
      [
        "Ġre",
        "gul"
      ],
      [
        "ad",
        "ing"
      ],
      [
        "Ġferm",
        "ented"
      ],
      [
        "ĠF",
        "inal"
      ],
      [
        "Ġ3",
        "34"
      ],
      [
        "Ġbe",
        "ginner"
      ],
      [
        "Ġ4",
        "64"
      ],
      [
        "Ġ5",
        "50"
      ],
      [
        "Ġover",
        "r"
      ],
      [
        "im",
        "als"
      ],
      [
        "om",
        "e"
      ],
      [
        "all",
        "s"
      ],
      [
        "Ġ9",
        "3"
      ],
      [
        "eton",
        "e"
      ],
      [
        "Ġround",
        "ed"
      ],
      [
        "Ġbo",
        "x"
      ],
      [
        "ĠDis",
        "sol"
      ],
      [
        "Ġdec",
        "imals"
      ],
      [
        "Ġsecond",
        "ary"
      ],
      [
        "du",
        "ce"
      ],
      [
        "Ġtaste",
        "s"
      ],
      [
        "Ġz",
        "ero"
      ],
      [
        "Ġconsistent",
        "ly"
      ],
      [
        "Ġtun",
        "nel"
      ],
      [
        "tand",
        "ard"
      ],
      [
        "Ġlav",
        "a"
      ],
      [
        "ĠDissol",
        "ve"
      ],
      [
        "e",
        "ase"
      ],
      [
        "g",
        "ar"
      ],
      [
        "i",
        "or"
      ],
      [
        "i",
        "ving"
      ],
      [
        "l",
        "osed"
      ],
      [
        "m",
        "ol"
      ],
      [
        "t",
        "r"
      ],
      [
        "t",
        "ched"
      ],
      [
        "in",
        "a"
      ],
      [
        "Ġp",
        "lease"
      ],
      [
        "ar",
        "se"
      ],
      [
        "Ġh",
        "inder"
      ],
      [
        "tar",
        "ter"
      ],
      [
        "ic",
        "ip"
      ],
      [
        "an",
        "ge"
      ],
      [
        "le",
        "ct"
      ],
      [
        "Ġor",
        "ange"
      ],
      [
        "Ġre",
        "ach"
      ],
      [
        "Ġferm",
        "ents"
      ],
      [
        "Ġco",
        "arse"
      ],
      [
        "ĠD",
        "ist"
      ],
      [
        "ĠF",
        "old"
      ],
      [
        "Ġ3",
        "8"
      ],
      [
        "Ġsp",
        "rink"
      ],
      [
        "ĠS",
        "alt"
      ],
      [
        "Ġgl",
        "ide"
      ],
      [
        "Ġlo",
        "ses"
      ],
      [
        "Ġac",
        "etone"
      ],
      [
        "ĠC",
        "up"
      ],
      [
        "ri",
        "er"
      ],
      [
        "Ġth",
        "row"
      ],
      [
        "ĠB",
        "ey"
      ],
      [
        "Ġdis",
        "ease"
      ],
      [
        "ine",
        "gar"
      ],
      [
        "Ġse",
        "mol"
      ],
      [
        "oo",
        "k"
      ],
      [
        "Ġstre",
        "tched"
      ],
      [
        "ĠL",
        "ight"
      ],
      [
        "Ġrefrig",
        "erate"
      ],
      [
        "Ġgelatin",
        "ized"
      ],
      [
        "Ġsmooth",
        "ly"
      ],
      [
        "Ġfil",
        "tered"
      ],
      [
        "Ġbond",
        "ing"
      ],
      [
        "Ġdegrad",
        "es"
      ],
      [
        "Ġenc",
        "losed"
      ],
      [
        "Ġweaken",
        "ing"
      ],
      [
        "Ġens",
        "ure"
      ],
      [
        "Ġens",
        "ures"
      ],
      [
        "rib",
        "ute"
      ],
      [
        "Ġwin",
        "ter"
      ],
      [
        "Ġbar",
        "rier"
      ],
      [
        "Ġdissolv",
        "ed"
      ],
      [
        "me",
        "al"
      ],
      [
        "Ġdef",
        "lect"
      ],
      [
        "Ġinter",
        "ior"
      ],
      [
        "ĠCrumb",
        "ly"
      ],
      [
        "Ġcorn",
        "meal"
      ],
      [
        "develop",
        "ed"
      ],
      [
        "Ġcircul",
        "ar"
      ],
      [
        "icip",
        "al"
      ],
      [
        "ĠDist",
        "ribute"
      ],
      [
        "Ġsprink",
        "le"
      ],
      [
        "ĠBey",
        "ond"
      ],
      [
        "Ġsemol",
        "ina"
      ],
      [
        "1",
        "9"
      ],
      [
        "b",
        "e"
      ],
      [
        "w",
        "heat"
      ],
      [
        "en",
        "ger"
      ],
      [
        "Ġt",
        "re"
      ],
      [
        "on",
        "ey"
      ],
      [
        "Ġh",
        "oney"
      ],
      [
        "Ġg",
        "en"
      ],
      [
        "Ġy",
        "ears"
      ],
      [
        "Ġsp",
        "e"
      ],
      [
        "Ġsp",
        "ot"
      ],
      [
        "ĠS",
        "hape"
      ],
      [
        "Ġk",
        "icks"
      ],
      [
        "ll",
        "enger"
      ],
      [
        "Ġsl",
        "ows"
      ],
      [
        "Ġen",
        "velop"
      ],
      [
        "ĠM",
        "ake"
      ],
      [
        "Ġmo",
        "tion"
      ],
      [
        "Ġout",
        "side"
      ],
      [
        "au",
        "d"
      ],
      [
        "Ġtur",
        "ning"
      ],
      [
        "Ġhold",
        "ing"
      ],
      [
        "ĠPre",
        "fermented"
      ],
      [
        "co",
        "mb"
      ],
      [
        "Ġrest",
        "ric"
      ],
      [
        "Ġbo",
        "ard"
      ],
      [
        "Ġroll",
        "s"
      ],
      [
        "Ġpul",
        "ling"
      ],
      [
        "Ġfresh",
        "ly"
      ],
      [
        "Ġsourd",
        "oh"
      ],
      [
        "ĠSl",
        "ide"
      ],
      [
        "Ġincorpor",
        "ates"
      ],
      [
        "Ġchill",
        "ed"
      ],
      [
        "Ġcur",
        "l"
      ],
      [
        "Ġlif",
        "ting"
      ],
      [
        "Ġbask",
        "et"
      ],
      [
        "ĠPer",
        "form"
      ],
      [
        "Ġdeta",
        "ch"
      ],
      [
        "Ġuneven",
        "ly"
      ],
      [
        "19",
        "0"
      ],
      [
        "Ġhoney",
        "comb"
      ],
      [
        "Ġkicks",
        "tar"
      ],
      [
        "Ġenvelop",
        "e"
      ],
      [
        "3",
        "6"
      ],
      [
        "b",
        "ed"
      ],
      [
        "f",
        "lour"
      ],
      [
        "g",
        "ree"
      ],
      [
        "i",
        "ti"
      ],
      [
        "v",
        "ic"
      ],
      [
        "Ġt",
        "rip"
      ],
      [
        "Ġw",
        "icks"
      ],
      [
        "end",
        "ing"
      ],
      [
        "nd",
        "ist"
      ],
      [
        "ti",
        "ful"
      ],
      [
        "ar",
        "ies"
      ],
      [
        "ar",
        "get"
      ],
      [
        "ra",
        "ted"
      ],
      [
        "Ġu",
        "ndist"
      ],
      [
        "Ġfl",
        "uff"
      ],
      [
        "an",
        "iti"
      ],
      [
        "Ġstar",
        "ts"
      ],
      [
        "Ġ2",
        "36"
      ],
      [
        "ur",
        "bed"
      ],
      [
        "Ġ(",
        ">"
      ],
      [
        "ĠS",
        "to"
      ],
      [
        "Ġbe",
        "au"
      ],
      [
        "ĠC",
        "ha"
      ],
      [
        "Ġby",
        "pro"
      ],
      [
        "ep",
        "eat"
      ],
      [
        "ir",
        "t"
      ],
      [
        "Ġdis",
        "tin"
      ],
      [
        "Ġfeed",
        "s"
      ],
      [
        "Ġv",
        "aries"
      ],
      [
        "ia",
        "bly"
      ],
      [
        "ĠR",
        "epeat"
      ],
      [
        "Ġus",
        "ually"
      ],
      [
        "Ġcre",
        "vic"
      ],
      [
        "de",
        "gree"
      ],
      [
        "Ġmic",
        "ron"
      ],
      [
        "ici",
        "ently"
      ],
      [
        "24",
        "0"
      ],
      [
        "Ġcook",
        "ers"
      ],
      [
        "Ġrel",
        "iably"
      ],
      [
        "Ġimp",
        "rin"
      ],
      [
        "Ġenzym",
        "es"
      ],
      [
        "12",
        "5"
      ],
      [
        "Ġelimin",
        "ate"
      ],
      [
        "ĠSl",
        "uggish"
      ],
      [
        "du",
        "ct"
      ],
      [
        "Ġincorpor",
        "ate"
      ],
      [
        "Ġhydrate",
        "s"
      ],
      [
        "Ġdro",
        "p"
      ],
      [
        "Ġble",
        "ached"
      ],
      [
        "Ġpack",
        "ing"
      ],
      [
        "Ġmild",
        "er"
      ],
      [
        "Ġspir",
        "als"
      ],
      [
        "Ġlack",
        "s"
      ],
      [
        "Ġdep",
        "ending"
      ],
      [
        "Ġsuff",
        "iciently"
      ],
      [
        "Ġthrow",
        "ing"
      ],
      [
        "Ġundist",
        "urbed"
      ],
      [
        "Ġfluff",
        "ed"
      ],
      [
        "Ġbeau",
        "tiful"
      ],
      [
        "Ġbypro",
        "duct"
      ],
      [
        "Ġdistin",
        "ct"
      ],
      [
        "Ġcrevic",
        "es"
      ],
      [
        "Ġmicron",
        "utrients"
      ],
      [
        "Ġimprin",
        "ts"
      ],
      [
        "1",
        "3"
      ],
      [
        "D",
        "T"
      ],
      [
        "i",
        "el"
      ],
      [
        "m",
        "end"
      ],
      [
        "o",
        "x"
      ],
      [
        "Ġc",
        "ap"
      ],
      [
        "Ġp",
        "uff"
      ],
      [
        "Ġm",
        "idd"
      ],
      [
        "ic",
        "ro"
      ],
      [
        "ac",
        "c"
      ],
      [
        "Ġon",
        "ce"
      ],
      [
        "ĠH",
        "igh"
      ],
      [
        "ĠA",
        "sh"
      ],
      [
        "ĠD",
        "DT"
      ],
      [
        "Ġth",
        "ir"
      ],
      [
        "Ġdi",
        "ox"
      ],
      [
        "Ġtemp",
        "s"
      ],
      [
        "ĠM",
        "icro"
      ],
      [
        "Ġacid",
        "ic"
      ],
      [
        "ĠL",
        "ook"
      ],
      [
        "Ġexp",
        "resses"
      ],
      [
        "ĠO",
        "ver"
      ],
      [
        "ĠBe",
        "fore"
      ],
      [
        "Ġdel",
        "ay"
      ],
      [
        "rap",
        "e"
      ],
      [
        "Ġslow",
        "ly"
      ],
      [
        "Ġthorough",
        "ly"
      ],
      [
        "ĠFerment",
        "olyse"
      ],
      [
        "ĠU",
        "n"
      ],
      [
        "Ġagain",
        "st"
      ],
      [
        "%+",
        "),"
      ],
      [
        "Ġpuff",
        "y"
      ],
      [
        "Ġmidd",
        "le"
      ],
      [
        "Ġdiox",
        "ide"
      ],
      [
        "m",
        "at"
      ],
      [
        "o",
        "ol"
      ],
      [
        "p",
        "ing"
      ],
      [
        "s",
        "lic"
      ],
      [
        "Ġs",
        "wee"
      ],
      [
        "Ġa",
        "eration"
      ],
      [
        "er",
        "cial"
      ],
      [
        "Ġf",
        "reeze"
      ],
      [
        "xt",
        "ure"
      ],
      [
        "ter",
        "day"
      ],
      [
        "Ġp",
        "leas"
      ],
      [
        "es",
        "terday"
      ],
      [
        "Ġl",
        "east"
      ],
      [
        "ic",
        "al"
      ],
      [
        "Ġg",
        "erm"
      ],
      [
        "Ġy",
        "esterday"
      ],
      [
        "ac",
        "ed"
      ],
      [
        "el",
        "t"
      ],
      [
        "Ġte",
        "nder"
      ],
      [
        "Ġte",
        "chniqu"
      ],
      [
        "Ġte",
        "xture"
      ],
      [
        "ĠA",
        "void"
      ],
      [
        "mp",
        "les"
      ],
      [
        "Ġpro",
        "per"
      ],
      [
        "Ġsp",
        "aced"
      ],
      [
        "Ġsp",
        "elt"
      ],
      [
        "ĠS",
        "mall"
      ],
      [
        "Ġpre",
        "mat"
      ],
      [
        "Ġwhen",
        "ever"
      ],
      [
        "Ġv",
        "is"
      ],
      [
        "Ġbl",
        "end"
      ],
      [
        "ĠTh",
        "en"
      ],
      [
        "Ġprotein",
        "s"
      ],
      [
        "ass",
        "ic"
      ],
      [
        "Ġcl",
        "assic"
      ],
      [
        "Ġsa",
        "mples"
      ],
      [
        "ginn",
        "ers"
      ],
      [
        "Ġfru",
        "ity"
      ],
      [
        "Ġgre",
        "ater"
      ],
      [
        "Ġslic",
        "ed"
      ],
      [
        "Ġrubb",
        "ery"
      ],
      [
        "Ġboil",
        "ing"
      ],
      [
        "Ġstir",
        "red"
      ],
      [
        "Ġsign",
        "ific"
      ],
      [
        "Ġfavor",
        "s"
      ],
      [
        "Ġexc",
        "eeds"
      ],
      [
        "Ġfail",
        "s"
      ],
      [
        "Ġremain",
        "der"
      ],
      [
        "ĠSte",
        "am"
      ],
      [
        "Ġtu",
        "cking"
      ],
      [
        "Ġcomm",
        "ercial"
      ],
      [
        "Ġtrip",
        "les"
      ],
      [
        "ĠSto",
        "re"
      ],
      [
        "slic",
        "ed"
      ],
      [
        "Ġswee",
        "ter"
      ],
      [
        "Ġpleas",
        "antly"
      ],
      [
        "Ġpremat",
        "ure"
      ],
      [
        "Ġsignific",
        "antly"
      ],
      [
        "c",
        "on"
      ],
      [
        "l",
        "astic"
      ],
      [
        "s",
        "tandard"
      ],
      [
        "Ġt",
        "igh"
      ],
      [
        "er",
        "t"
      ],
      [
        "Ġd",
        "utch"
      ],
      [
        "Ġc",
        "ol"
      ],
      [
        "Ġp",
        "ot"
      ],
      [
        "Ġp",
        "ut"
      ],
      [
        "ra",
        "fts"
      ],
      [
        "Ġ1",
        "1"
      ],
      [
        "et",
        "w"
      ],
      [
        "Ġe",
        "lastic"
      ],
      [
        "ac",
        "es"
      ],
      [
        "Ġte",
        "eth"
      ],
      [
        "ĠA",
        "s"
      ],
      [
        "ĠT",
        "hat"
      ],
      [
        "ĠD",
        "rafts"
      ],
      [
        "Ġn",
        "etw"
      ],
      [
        "ĠB",
        "read"
      ],
      [
        "ip",
        "id"
      ],
      [
        "Ġsh",
        "ower"
      ],
      [
        "Ġle",
        "ath"
      ],
      [
        "Ġins",
        "ipid"
      ],
      [
        "Ġcrumb",
        "s"
      ],
      [
        "Ġcrumb",
        "ly"
      ],
      [
        "Ġsurf",
        "aces"
      ],
      [
        "ĠR",
        "e"
      ],
      [
        "Ġround",
        "ing"
      ],
      [
        "Ġdou",
        "ble"
      ],
      [
        "ĠWith",
        "out"
      ],
      [
        "Ġturn",
        "ed"
      ],
      [
        "Ġreac",
        "hes"
      ],
      [
        "Ġpor",
        "tion"
      ],
      [
        "Ġpowder",
        "y"
      ],
      [
        "Ġcontinu",
        "es"
      ],
      [
        "Ġindic",
        "ating"
      ],
      [
        "Ġregul",
        "ates"
      ],
      [
        "tr",
        "oll"
      ],
      [
        "Ġrestric",
        "ts"
      ],
      [
        "ĠCha",
        "llenger"
      ],
      [
        "con",
        "troll"
      ],
      [
        "Ġtigh",
        "tens"
      ],
      [
        "Ġleath",
        "ery"
      ],
      [
        "b",
        "o"
      ],
      [
        "g",
        "n"
      ],
      [
        "i",
        "te"
      ],
      [
        "Ġc",
        "row"
      ],
      [
        "ow",
        "y"
      ],
      [
        "Ġe",
        "v"
      ],
      [
        "Ġr",
        "ole"
      ],
      [
        "Ġte",
        "ll"
      ],
      [
        "Ġ3",
        "5"
      ],
      [
        "Ġsp",
        "eed"
      ],
      [
        "Ġ20",
        "0"
      ],
      [
        "av",
        "ing"
      ],
      [
        "ĠB",
        "reak"
      ],
      [
        "Ġle",
        "aving"
      ],
      [
        "Ġtra",
        "y"
      ],
      [
        "Ġcup",
        "bo"
      ],
      [
        "Ġdry",
        "ing"
      ],
      [
        "Ġab",
        "ove"
      ],
      [
        "Ġproof",
        "ed"
      ],
      [
        "iste",
        "n"
      ],
      [
        "Ġdevelop",
        "ed"
      ],
      [
        "Ġcalcul",
        "ated"
      ],
      [
        "Ġthin",
        "ly"
      ],
      [
        "Ġhar",
        "m"
      ],
      [
        "Ġchees",
        "y"
      ],
      [
        "Ġslic",
        "es"
      ],
      [
        "Ġwee",
        "k"
      ],
      [
        "Ġhard",
        "ens"
      ],
      [
        "ĠPro",
        "of"
      ],
      [
        "Ġfeel",
        "s"
      ],
      [
        "ĠSp",
        "read"
      ],
      [
        "ĠCon",
        "vection"
      ],
      [
        "Ġkickstar",
        "ting"
      ],
      [
        "Ġcrow",
        "ns"
      ],
      [
        "Ġcupbo",
        "ard"
      ],
      [
        "b",
        "es"
      ],
      [
        "o",
        "ak"
      ],
      [
        "en",
        "et"
      ],
      [
        "Ġt",
        "yp"
      ],
      [
        "Ġb",
        "re"
      ],
      [
        "Ġw",
        "rink"
      ],
      [
        "on",
        "y"
      ],
      [
        "Ġp",
        "enet"
      ],
      [
        "ic",
        "ally"
      ],
      [
        "ĠI",
        "ns"
      ],
      [
        "ur",
        "al"
      ],
      [
        "ĠD",
        "uring"
      ],
      [
        "ĠD",
        "ust"
      ],
      [
        "ĠS",
        "oak"
      ],
      [
        "Ġ4",
        "75"
      ],
      [
        "Ġmix",
        "ed"
      ],
      [
        "Ġmix",
        "ers"
      ],
      [
        "Ġ24",
        "5"
      ],
      [
        "Ġmain",
        "tain"
      ],
      [
        "Ġdeep",
        "ly"
      ],
      [
        "Ġstruct",
        "ural"
      ],
      [
        "Ġlid",
        "s"
      ],
      [
        "Ġda",
        "mp"
      ],
      [
        "Ġhelp",
        "s"
      ],
      [
        "Ġmicro",
        "bes"
      ],
      [
        "Ġsour",
        "ness"
      ],
      [
        "ĠE",
        "x"
      ],
      [
        "ĠFerm",
        "entation"
      ],
      [
        "Ġexpand",
        "s"
      ],
      [
        "Ġallow",
        "ing"
      ],
      [
        "Ġoverr",
        "ide"
      ],
      [
        "irt",
        "ually"
      ],
      [
        "Ġcol",
        "ony"
      ],
      [
        "Ġtyp",
        "ically"
      ],
      [
        "Ġbre",
        "w"
      ],
      [
        "Ġwrink",
        "led"
      ],
      [
        "Ġpenet",
        "rate"
      ],
      [
        "1",
        "75"
      ],
      [
        "n",
        "icipal"
      ],
      [
        "r",
        "ents"
      ],
      [
        "s",
        "ip"
      ],
      [
        "v",
        "ice"
      ],
      [
        "Ġs",
        "ofte"
      ],
      [
        "of",
        "ess"
      ],
      [
        "Ġb",
        "all"
      ],
      [
        "Ġw",
        "ire"
      ],
      [
        "ol",
        "ed"
      ],
      [
        "to",
        "p"
      ],
      [
        "ri",
        "x"
      ],
      [
        "Ġun",
        "less"
      ],
      [
        "Ġdis",
        "sip"
      ],
      [
        "ap",
        "or"
      ],
      [
        "Ġle",
        "ft"
      ],
      [
        "Ġrec",
        "tan"
      ],
      [
        "ĠR",
        "ye"
      ],
      [
        "Ġsu",
        "ch"
      ],
      [
        "Ġmu",
        "nicipal"
      ],
      [
        "co",
        "oled"
      ],
      [
        "Ġcounter",
        "top"
      ],
      [
        "ĠCo",
        "oler"
      ],
      [
        "Ġdiffer",
        "ent"
      ],
      [
        "Ġboil",
        "ed"
      ],
      [
        "Ġcur",
        "rents"
      ],
      [
        "Ġmat",
        "rix"
      ],
      [
        "ĠChlor",
        "ine"
      ],
      [
        "Ġser",
        "rated"
      ],
      [
        "Ġpr",
        "ofess"
      ],
      [
        "Ġgen",
        "eral"
      ],
      [
        "aniti",
        "ze"
      ],
      [
        "Ġev",
        "apor"
      ],
      [
        "Ġsofte",
        "ns"
      ],
      [
        "Ġdissip",
        "ate"
      ],
      [
        "Ġrectan",
        "gular"
      ],
      [
        "Ġprofess",
        "ion"
      ],
      [
        "n",
        "ge"
      ],
      [
        "s",
        "et"
      ],
      [
        "w",
        "are"
      ],
      [
        "Ġs",
        "ound"
      ],
      [
        "Ġf",
        "oc"
      ],
      [
        "Ġp",
        "ans"
      ],
      [
        "Ġpro",
        "be"
      ],
      [
        "Ġun",
        "heated"
      ],
      [
        "ip",
        "per"
      ],
      [
        "Ġsl",
        "ides"
      ],
      [
        "Ġsc",
        "all"
      ],
      [
        "Ġ100",
        "0"
      ],
      [
        "Ġle",
        "ave"
      ],
      [
        "op",
        "ed"
      ],
      [
        "Ġlet",
        "s"
      ],
      [
        "ĠR",
        "ice"
      ],
      [
        "Ġtra",
        "ck"
      ],
      [
        "Ġoff",
        "set"
      ],
      [
        "Ġtap",
        "ping"
      ],
      [
        "Ġeas",
        "y"
      ],
      [
        "ĠBe",
        "ginners"
      ],
      [
        "Ġbet",
        "ter"
      ],
      [
        "Ġstra",
        "nge"
      ],
      [
        "Ġdro",
        "ps"
      ],
      [
        "age",
        "able"
      ],
      [
        "Ġcult",
        "ure"
      ],
      [
        "Ġman",
        "ageable"
      ],
      [
        "ĠIns",
        "ert"
      ],
      [
        "Ġsound",
        "s"
      ],
      [
        "Ġscall",
        "oped"
      ],
      [
        "7",
        "0"
      ],
      [
        "e",
        "x"
      ],
      [
        "h",
        "ical"
      ],
      [
        "i",
        "le"
      ],
      [
        "m",
        "o"
      ],
      [
        "p",
        "red"
      ],
      [
        "s",
        "tic"
      ],
      [
        "Ġs",
        "ole"
      ],
      [
        "Ġs",
        "ize"
      ],
      [
        "ta",
        "bly"
      ],
      [
        "or",
        "s"
      ],
      [
        "Ġto",
        "ss"
      ],
      [
        "Ġm",
        "ar"
      ],
      [
        "Ġh",
        "us"
      ],
      [
        "Ġfl",
        "ex"
      ],
      [
        "ic",
        "tably"
      ],
      [
        "Ġ2",
        "8"
      ],
      [
        "Ġe",
        "mo"
      ],
      [
        "il",
        "os"
      ],
      [
        "ĠH",
        "arm"
      ],
      [
        "ĠH",
        "and"
      ],
      [
        "Ġr",
        "ich"
      ],
      [
        "el",
        "erate"
      ],
      [
        "ĠD",
        "esired"
      ],
      [
        "Ġsp",
        "ore"
      ],
      [
        "ĠS",
        "anitize"
      ],
      [
        "Ġde",
        "ter"
      ],
      [
        "Ġun",
        "pred"
      ],
      [
        "ver",
        "ns"
      ],
      [
        "Ġbu",
        "t"
      ],
      [
        "Ġv",
        "om"
      ],
      [
        "op",
        "hical"
      ],
      [
        "ĠL",
        "am"
      ],
      [
        "ive",
        "ly"
      ],
      [
        "Ġtra",
        "p"
      ],
      [
        "Ġoff",
        "er"
      ],
      [
        "Ġ8",
        "2"
      ],
      [
        "Ġru",
        "stic"
      ],
      [
        "lus",
        "ively"
      ],
      [
        "de",
        "vice"
      ],
      [
        "sh",
        "mall"
      ],
      [
        "Ġris",
        "es"
      ],
      [
        "Ġmicro",
        "controll"
      ],
      [
        "Ġmedic",
        "ally"
      ],
      [
        "Ġsupp",
        "ress"
      ],
      [
        "Ġexc",
        "lusively"
      ],
      [
        "Ġph",
        "ilos"
      ],
      [
        "Ġacc",
        "elerate"
      ],
      [
        "Ġgo",
        "verns"
      ],
      [
        "ĠHigh",
        "er"
      ],
      [
        "Ġthir",
        "ds"
      ],
      [
        "Ġpremature",
        "ly"
      ],
      [
        "Ġelastic",
        "ity"
      ],
      [
        "Ġsole",
        "ly"
      ],
      [
        "Ġmar",
        "shmall"
      ],
      [
        "Ġhus",
        "k"
      ],
      [
        "Ġflex",
        "ible"
      ],
      [
        "Ġemo",
        "tional"
      ],
      [
        "ĠHarm",
        "ful"
      ],
      [
        "Ġrich",
        "er"
      ],
      [
        "Ġspore",
        "s"
      ],
      [
        "Ġunpred",
        "ictably"
      ],
      [
        "Ġvom",
        "it"
      ],
      [
        "Ġmicrocontroll",
        "er"
      ],
      [
        "Ġphilos",
        "ophical"
      ],
      [
        "Ġmarshmall",
        "owy"
      ],
      [
        "b",
        "s"
      ],
      [
        "ing",
        "s"
      ],
      [
        "Ġp",
        "ie"
      ],
      [
        "Ġre",
        "duce"
      ],
      [
        "Ġgl",
        "oss"
      ],
      [
        "Ġst",
        "ring"
      ],
      [
        "Ġlo",
        "ose"
      ],
      [
        "Ġlo",
        "ading"
      ],
      [
        "ll",
        "o"
      ],
      [
        "Ġhe",
        "llo"
      ],
      [
        "Ġv",
        "irtually"
      ],
      [
        "ĠFor",
        "m"
      ],
      [
        "ĠM",
        "ix"
      ],
      [
        "Ġmo",
        "isten"
      ],
      [
        "Ġdire",
        "ctions"
      ],
      [
        "ĠR",
        "un"
      ],
      [
        "Ġequal",
        "s"
      ],
      [
        "Ġshe",
        "ar"
      ],
      [
        "Ġind",
        "entation"
      ],
      [
        "Ġhealth",
        "y"
      ],
      [
        "ĠInc",
        "lusions"
      ],
      [
        "Ġcris",
        "ps"
      ],
      [
        "Ġimp",
        "oss"
      ],
      [
        "ĠSc",
        "aling"
      ],
      [
        "Ġrun",
        "ning"
      ],
      [
        "Ġcha",
        "ins"
      ],
      [
        "acc",
        "ia"
      ],
      [
        "Ġtechniqu",
        "e"
      ],
      [
        "Ġfoc",
        "accia"
      ],
      [
        "Ġpie",
        "ce"
      ],
      [
        "Ġgloss",
        "y"
      ],
      [
        "Ġstring",
        "y"
      ],
      [
        "Ġloose",
        "ly"
      ],
      [
        "Ġimposs",
        "ible"
      ],
      [
        "Ġw",
        "on"
      ],
      [
        "Ġw",
        "alls"
      ],
      [
        "ic",
        "tion"
      ],
      [
        "ĠWh",
        "ile"
      ],
      [
        "Ġ7",
        "20"
      ],
      [
        "Ġle",
        "vel"
      ],
      [
        "Ġ9",
        "70"
      ],
      [
        "Ġperc",
        "ent"
      ],
      [
        "Ġfr",
        "iction"
      ],
      [
        "Ġdeg",
        "ree"
      ],
      [
        "ĠFeed",
        "ing"
      ],
      [
        "Ġfil",
        "ter"
      ],
      [
        "10",
        "0"
      ],
      [
        "Ġbas",
        "es"
      ],
      [
        "Ġactiv",
        "ated"
      ],
      [
        "Ġpor",
        "tions"
      ],
      [
        "Ġbur",
        "ning"
      ],
      [
        "Ġbloom",
        "s"
      ],
      [
        "Ġvis",
        "ible"
      ],
      [
        "Ġevapor",
        "ate"
      ],
      [
[...]
