{
  "version": "1.0",
  "truncation": null,
  "padding": null,
  "added_tokens": [
    {
      "id": 0,
      "content": "<|endoftext|>",
      "single_word": false,
      "lstrip": false,
      "rstrip": false,
      "normalized": false,
      "special": true
    }
  ],
  "normalizer": null,
  "pre_tokenizer": {
    "type": "ByteLevel",
    "add_prefix_space": false,
    "trim_offsets": true,
    "use_regex": true
  },
  "post_processor": null,
  "decoder": {
    "type": "ByteLevel",
    "add_prefix_space": true,
    "trim_offsets": true,
    "use_regex": true
  },
  "model": {
    "type": "BPE",
    "dropout": null,
    "unk_token": null,
    "continuing_subword_prefix": null,
    "end_of_word_suffix": null,
    "fuse_unk": false,
    "byte_fallback": false,
    "ignore_merges": false,
    "vocab": {
      "<|endoftext|>": 0,
      "!": 1,
      "\"": 2,
      "#": 3,
      "$": 4,
      "%": 5,
      "&": 6,
      "'": 7,
      "(": 8,
      ")": 9,
      "*": 10,
      "+": 11,
      ",": 12,
      "-": 13,
      ".": 14,
      "/": 15,
      "0": 16,
      "1": 17,
      "2": 18,
      "3": 19,
      "4": 20,
      "5": 21,
      "6": 22,
      "7": 23,
      "8": 24,
      "9": 25,
      ":": 26,
      ";": 27,
      "<": 28,
      "=": 29,
      ">": 30,
      "?": 31,
      "@": 32,
      "A": 33,
      "B": 34,
      "C": 35,
      "D": 36,
      "E": 37,
      "F": 38,
      "G": 39,
      "H": 40,
      "I": 41,
      "J": 42,
      "K": 43,
      "L": 44,
      "M": 45,
      "N": 46,
      "O": 47,
      "P": 48,
      "Q": 49,
      "R": 50,
      "S": 51,
      "T": 52,
      "U": 53,
      "V": 54,
      "W": 55,
      "X": 56,
      "Y": 57,
      "Z": 58,
      "[": 59,
      "\\": 60,
      "]": 61,
      "^": 62,
      "_": 63,
      "`": 64,
      "a": 65,
      "b": 66,
      "c": 67,
      "d": 68,
      "e": 69,
      "f": 70,
      "g": 71,
      "h": 72,
      "i": 73,
      "j": 74,
      "k": 75,
      "l": 76,
      "m": 77,
      "n": 78,
      "o": 79,
      "p": 80,
      "q": 81,
      "r": 82,
      "s": 83,
      "t": 84,
      "u": 85,
      "v": 86,
      "w": 87,
      "x": 88,
      "y": 89,
      "z": 90,
      "{": 91,
      "|": 92,
      "}": 93,
      "~": 94,
      "¡": 95,
      "¢": 96,
      "£": 97,
      "¤": 98,
      "¥": 99,
      "¦": 100,
      "§": 101,
      "¨": 102,
      "©": 103,
      "ª": 104,
      "«": 105,
      "¬": 106,
      "®": 107,
      "¯": 108,
      "°": 109,
      "±": 110,
      "²": 111,
      "³": 112,
      "´": 113,
      "µ": 114,
      "¶": 115,
      "·": 116,
      "¸": 117,
      "¹": 118,
      "º": 119,
      "»": 120,
      "¼": 121,
      "½": 122,
      "¾": 123,
      "¿": 124,
      "À": 125,
      "Á": 126,
      "Â": 127,
      "Ã": 128,
      "Ä": 129,
      "Å": 130,
      "Æ": 131,
      "Ç": 132,
      "È": 133,
      "É": 134,
      "Ê": 135,
      "Ë": 136,
      "Ì": 137,
      "Í": 138,
      "Î": 139,
      "Ï": 140,
      "Ð": 141,
      "Ñ": 142,
      "Ò": 143,
      "Ó": 144,
      "Ô": 145,
      "Õ": 146,
      "Ö": 147,
      "×": 148,
      "Ø": 149,
      "Ù": 150,
      "Ú": 151,
      "Û": 152,
      "Ü": 153,
      "Ý": 154,
      "Þ": 155,
      "ß": 156,
      "à": 157,
      "á": 158,
      "â": 159,
      "ã": 160,
      "ä": 161,
      "å": 162,
      "æ": 163,
      "ç": 164,
      "è": 165,
      "é": 166,
      "ê": 167,
      "ë": 168,
      "ì": 169,
      "í": 170,
      "î": 171,
      "ï": 172,
      "ð": 173,
      "ñ": 174,
      "ò": 175,
      "ó": 176,
      "ô": 177,
      "õ": 178,
      "ö": 179,
      "÷": 180,
      "ø": 181,
      "ù": 182,
      "ú": 183,
      "û": 184,
      "ü": 185,
      "ý": 186,
      "þ": 187,
      "ÿ": 188,
      "Ā": 189,
      "ā": 190,
      "Ă": 191,
      "ă": 192,
      "Ą": 193,
      "ą": 194,
      "Ć": 195,
      "ć": 196,
      "Ĉ": 197,
      "ĉ": 198,
      "Ċ": 199,
      "ċ": 200,
      "Č": 201,
      "č": 202,
      "Ď": 203,
      "ď": 204,
      "Đ": 205,
      "đ": 206,
      "Ē": 207,
      "ē": 208,
      "Ĕ": 209,
      "ĕ": 210,
      "Ė": 211,
      "ė": 212,
      "Ę": 213,
      "ę": 214,
      "Ě": 215,
      "ě": 216,
      "Ĝ": 217,
      "ĝ": 218,
      "Ğ": 219,
      "ğ": 220,
      "Ġ": 221,
      "ġ": 222,
      "Ģ": 223,
      "ģ": 224,
      "Ĥ": 225,
      "ĥ": 226,
      "Ħ": 227,
      "ħ": 228,
      "Ĩ": 229,
      "ĩ": 230,
      "Ī": 231,
      "ī": 232,
      "Ĭ": 233,
      "ĭ": 234,
      "Į": 235,
      "į": 236,
      "İ": 237,
      "ı": 238,
      "Ĳ": 239,
      "ĳ": 240,
      "Ĵ": 241,
      "ĵ": 242,
      "Ķ": 243,
      "ķ": 244,
      "ĸ": 245,
      "Ĺ": 246,
      "ĺ": 247,
      "Ļ": 248,
      "ļ": 249,
      "Ľ": 250,
      "ľ": 251,
      "Ŀ": 252,
      "ŀ": 253,
      "Ł": 254,
      "ł": 255,
      "Ń": 256,
      "te": 257,
      "in": 258,
      "Ġs": 259,
      "ou": 260,
      "en": 261,
      "Ġa": 262,
      "Ġt": 263,
      "er": 264,
      "Ġf": 265,
      "of": 266,
      "Ġb": 267,
      "ta": 268,
      "is": 269,
      "re": 270,
      "Ġd": 271,
      "Ġw": 272,
      "on": 273,
      "ing": 274,
      "end": 275,
      "Ġc": 276,
      "ofte": 277,
      "xt": 278,
      "<|": 279,
      "|>": 280,
      "endofte": 281,
      "endoftext": 282,
      "gh": 283,
      "or": 284,
      "nd": 285,
      "our": 286,
      "he": 287,
      "ough": 288,
      "ti": 289,
      "Ġto": 290,
      "ter": 291,
      "es": 292,
      "Ġand": 293,
      "Ġp": 294,
      "Ġm": 295,
      "ss": 296,
      "at": 297,
      "nt": 298,
      "Ġthe": 299,
      "Us": 300,
      "Ġl": 301,
      "ed": 302,
      "Ġh": 303,
      "tant": 304,
      "Ġin": 305,
      "ssis": 306,
      "ssistant": 307,
      "it": 308,
      ".<|": 309,
      "Assistant": 310,
      "User": 311,
      "ol": 312,
      "ar": 313,
      "ak": 314,
      "al": 315,
      "ro": 316,
      "ly": 317,
      "tion": 318,
      "an": 319,
      "ourd": 320,
      "as": 321,
      "ourdough": 322,
      "ow": 323,
      "Ġu": 324,
      "ic": 325,
      "Ġdough": 326,
      "Ġsourdough": 327,
      "Ġg": 328,
      "Ġ1": 329,
      "ra": 330,
      "Ġfor": 331,
      "Ġfl": 332,
      "Ġsta": 333,
      "id": 334,
      "ĠI": 335,
      "le": 336,
      "Ġis": 337,
      "Ġbak": 338,
      "Ġstar": 339,
      "ith": 340,
      "Ġor": 341,
      "Â°": 342,
      "Ġo": 343,
      "Ġwith": 344,
      "ad": 345,
      "ul": 346,
      "Ġ2": 347,
      "Ġflour": 348,
      "ac": 349,
      "Ġe": 350,
      "ent": 351,
      "et": 352,
      "ru": 353,
      "Ġy": 354,
      "Ġre": 355,
      "ĠW": 356,
      "el": 357,
      "Ġstarter": 358,
      "ater": 359,
      "Ġwh": 360,
      "ch": 361,
      "old": 362,
      "il": 363,
      "Ġwater": 364,
      "Ġsh": 365,
      "ot": 366,
      "Ġth": 367,
      "st": 368,
      "ate": 369,
      "erm": 370,
      "Ġon": 371,
      "Ġov": 372,
      "ap": 373,
      "Ġ(": 374,
      "Ġr": 375,
      "mp": 376,
      "ute": 377,
      "Ġte": 378,
      "Ġof": 379,
      "se": 380,
      "ur": 381,
      "Ġdo": 382,
      "ĠH": 383,
      "ĠWh": 384,
      "read": 385,
      "enta": 386,
      "to": 387,
      "ĠT": 388,
      "Ġcru": 389,
      "ĠA": 390,
      "igh": 391,
      "ure": 392,
      "qu": 393,
      "eed": 394,
      "Ġit": 395,
      "ck": 396,
      "ve": 397,
      "ĠD": 398,
      "Ġbread": 399,
      "Ġpro": 400,
      "Ġferm": 401,
      "ĠF": 402,
      "Ġco": 403,
      "Ġsp": 404,
      "Ġac": 405,
      "entation": 406,
      "Ġgl": 407,
      "Ġi": 408,
      "Ġ10": 409,
      "Ġbaking": 410,
      "Ġst": 411,
      "ast": 412,
      "Ġcon": 413,
      "Ġlo": 414,
      "uten": 415,
      "Ġgluten": 416,
      "ĠS": 417,
      "Ġn": 418,
      "Ġoven": 419,
      "Ġ20": 420,
      "out": 421,
      "Ġan": 422,
      "Ġat": 423,
      "Ġmy": 424,
      "ĠHow": 425,
      "ev": 426,
      "am": 427,
      "Ġbe": 428,
      "af": 429,
      "ĠC": 430,
      "Ġ3": 431,
      "ore": 432,
      "ight": 433,
      "Ġun": 434,
      "Ġfermentation": 435,
      "and": 436,
      "ri": 437,
      "si": 438,
      "Ġad": 439,
      "ge": 440,
      "ard": 441,
      "Ġshap": 442,
      "Ġ4": 443,
      "av": 444,
      "Ġyour": 445,
      "erat": 446,
      "yd": 447,
      "ydra": 448,
      "Ġbake": 449,
      "ut": 450,
      "ide": 451,
      "ĠWhat": 452,
      "Ġcrust": 453,
      "Ġtemp": 454,
      "ee": 455,
      "im": 456,
      "Ġra": 457,
      "ĠP": 458,
      "mb": 459,
      "ĠB": 460,
      "Ġste": 461,
      "Ġby": 462,
      "Ġex": 463,
      "Ġhydra": 464,
      "Ġhour": 465,
      "um": 466,
      "Ġsti": 467,
      "Ġloaf": 468,
      "Ġund": 469,
      "ir": 470,
      "Ġqu": 471,
      "Ġro": 472,
      "Ġuse": 473,
      "ulk": 474,
      "Ġinto": 475,
      "Ġ5": 476,
      "east": 477,
      "ild": 478,
      "ice": 479,
      "les": 480,
      "Ġmin": 481,
      "Ġli": 482,
      "Ġcan": 483,
      "tic": 484,
      "Ġover": 485,
      "Ġbu": 486,
      "ay": 487,
      "Ġk": 488,
      "Ġhydration": 489,
      "Ġunder": 490,
      "erature": 491,
      "Ġhe": 492,
      "Ġsl": 493,
      "Ġtemperature": 494,
      "Ġwe": 495,
      "Ġbulk": 496,
      "ff": 497,
      "Ġfold": 498,
      "Ġdi": 499,
      "ain": 500,
      "Ġfro": 501,
      "uc": 502,
      "ip": 503,
      "Ġv": 504,
      "uring": 505,
      "Ġpre": 506,
      "Ġyeast": 507,
      "Ġfrom": 508,
      "Ġen": 509,
      "Ġduring": 510,
      "au": 511,
      "Ġcold": 512,
      "all": 513,
      "eep": 514,
      "ong": 515,
      "ix": 516,
      "Ġdis": 517,
      "utes": 518,
      "sion": 519,
      "om": 520,
      "Ġhours": 521,
      "),": 522,
      "Ġcrumb": 523,
      "ring": 524,
      "Ġwhen": 525,
      "Ġris": 526,
      "Ġal": 527,
      "ld": 528,
      "ould": 529,
      "Ġminutes": 530,
      "ĠM": 531,
      "ack": 532,
      "estion": 533,
      "Ġthat": 534,
      "Ġquestion": 535,
      "alt": 536,
      "Ġper": 537,
      "Ġsc": 538,
      "Ġwithout": 539,
      "Ġspring": 540,
      "Ġins": 541,
      "ble": 542,
      "arm": 543,
      "ct": 544,
      "Ġbot": 545,
      "Ġbl": 546,
      "ted": 547,
      "red": 548,
      "ke": 549,
      "Ġ7": 550,
      "Ġdoes": 551,
      "Ġhand": 552,
      "ated": 553,
      "ole": 554,
      "up": 555,
      "ĠWhy": 556,
      "Ġsm": 557,
      "ase": 558,
      "ĠTh": 559,
      "Ġde": 560,
      "ace": 561,
      "fore": 562,
      "Ġmix": 563,
      "ine": 564,
      "Ġadv": 565,
      "Ġ8": 566,
      "ver": 567,
      "Ġshould": 568,
      "Ġ100": 569,
      "Ġsteam": 570,
      "Ġstick": 571,
      "Ġbefore": 572,
      "bles": 573,
      "ye": 574,
      "ation": 575,
      "Ġ6": 576,
      "ath": 577,
      "tal": 578,
      "Ġj": 579,
      "Ġwarm": 580,
      "ins": 581,
      "Ġyou": 582,
      "duc": 583,
      "Ġshaping": 584,
      "tom": 585,
      "ĠCan": 586,
      "Ġrise": 587,
      "Ġpar": 588,
      "ake": 589,
      "Ġbottom": 590,
      "Ġwhi": 591,
      "ĠUs": 592,
      "Ġfeed": 593,
      "pen": 594,
      "heat": 595,
      "ĠFor": 596,
      "Ġhigh": 597,
      "Ġweight": 598,
      "tch": 599,
      "tar": 600,
      "Ġ30": 601,
      "til": 602,
      "Ġlike": 603,
      "Ġuntil": 604,
      "ays": 605,
      "Ġacti": 606,
      "ĠIn": 607,
      "oo": 608,
      "ick": 609,
      "Ġsticky": 610,
      "Ġacid": 611,
      "Ġus": 612,
      "Ġbuild": 613,
      "ia": 614,
      "Ġch": 615,
      "ently": 616,
      "Ġ9": 617,
      "ill": 618,
      "Ġup": 619,
      "ally": 620,
      "sh": 621,
      "op": 622,
      "oot": 623,
      "mm": 624,
      "ferm": 625,
      "cul": 626,
      "rap": 627,
      "Ġbaker": 628,
      "Ġrye": 629,
      "Ġadvice": 630,
      "ry": 631,
      "Ġperc": 632,
      "Ġout": 633,
      "Ġ50": 634,
      "Ġfolds": 635,
      "ce": 636,
      "ĠR": 637,
      "Ġab": 638,
      "Ġme": 639,
      "Ġtim": 640,
      "ess": 641,
      "Ġrec": 642,
      "Ġcool": 643,
      "ts": 644,
      "Ġfir": 645,
      "Ġpan": 646,
      "Ġroom": 647,
      "Ġcau": 648,
      "Ġwhole": 649,
      "ĠL": 650,
      "Ġshape": 651,
      "ere": 652,
      "Ġinc": 653,
      "Ġstre": 654,
      "Ġconta": 655,
      "Ġadd": 656,
      "rou": 657,
      "Ġwet": 658,
      "Ġmo": 659,
      "ient": 660,
      "mple": 661,
      "ave": 662,
      "Ġfr": 663,
      "Ġhow": 664,
      "ates": 665,
      "evel": 666,
      "aking": 667,
      "ell": 668,
      "Ġpercenta": 669,
      "Ġwhile": 670,
      "Ġexp": 671,
      "ĠThis": 672,
      "Ġsalt": 673,
      "Ġ12": 674,
      "fter": 675,
      "own": 676,
      ").": 677,
      "tard": 678,
      "Ġsk": 679,
      "Ġsur": 680,
      "Ġtotal": 681,
      "Ġse": 682,
      "Ġcaus": 683,
      "??": 684,
      "ns": 685,
      "lu": 686,
      "oll": 687,
      "row": 688,
      "iz": 689,
      "ond": 690,
      "hed": 691,
      "Ġnot": 692,
      "ĠUse": 693,
      "oly": 694,
      "ting": 695,
      "ĠAn": 696,
      "Ġcre": 697,
      "Ġhas": 698,
      "'s": 699,
      "pro": 700,
      "Ġle": 701,
      "Ġseed": 702,
      "Ġlong": 703,
      "card": 704,
      "Ġrecip": 705,
      "Ġcup": 706,
      "Ġstretch": 707,
      "Ġthen": 708,
      "Ġsurf": 709,
      "Ġgra": 710,
      "nsion": 711,
      "Ġtension": 712,
      "Ġthan": 713,
      "Ġif": 714,
      "ily": 715,
      "Ġben": 716,
      "vide": 717,
      "Ġlet": 718,
      "ich": 719,
      "Ġstr": 720,
      "Ġkn": 721,
      "Ġ/": 722,
      "ĠIt": 723,
      "if": 724,
      "Ġflat": 725,
      "ist": 726,
      "Ġhands": 727,
      "ten": 728,
      "Ġlow": 729,
      "aves": 730,
      "Ġall": 731,
      "Ġdry": 732,
      "one": 733,
      "Ġrock": 734,
      "ood": 735,
      "Ġtime": 736,
      "ull": 737,
      "evelop": 738,
      "Ġtur": 739,
      "ans": 740,
      "Ġprote": 741,
      "Ġjar": 742,
      "olyse": 743,
      "Ġoff": 744,
      "ĠN": 745,
      "ary": 746,
      "Ġkeep": 747,
      "Ġgently": 748,
      "Ġwheat": 749,
      "Ġtear": 750,
      "Ġform": 751,
      "Ġsteel": 752,
      "Ġsurface": 753,
      "Ġba": 754,
      "th": 755,
      "Ġear": 756,
      "Ġusing": 757,
      "Ġso": 758,
      "Ġas": 759,
      "Ġwild": 760,
      "Ġtop": 761,
      "Ġopen": 762,
      "Ġpercentage": 763,
      "Ġcl": 764,
      "Ġ24": 765,
      "Ġref": 766,
      "utch": 767,
      "idge": 768,
      "Ġfridge": 769,
      "Ġbac": 770,
      "Ġtoo": 771,
      "Ġbacter": 772,
      "Ġsu": 773,
      "ĠIf": 774,
      "avor": 775,
      "Ġheat": 776,
      "Ġdeg": 777,
      "lor": 778,
      "Ġstand": 779,
      "Ġproof": 780,
      "ges": 781,
      "ume": 782,
      "Ġfirst": 783,
      "hoot": 784,
      "ĠDo": 785,
      "rig": 786,
      "ĠMy": 787,
      "bleshoot": 788,
      "roubleshoot": 789,
      "roubleshooting": 790,
      "ĠTe": 791,
      "ning": 792,
      "Ġrefrig": 793,
      "Ġ=": 794,
      "Ġsmell": 795,
      "Ġru": 796,
      "ĠTemp": 797,
      "ers": 798,
      "Ġhave": 799,
      "ever": 800,
      "ery": 801,
      "Ġev": 802,
      "evain": 803,
      "75": 804,
      "Ġafter": 805,
      "Ġwhat": 806,
      "umm": 807,
      "hes": 808,
      "Ġactive": 809,
      "alcul": 810,
      "Ġbub": 811,
      "Ġcle": 812,
      "Ġclean": 813,
      "edi": 814,
      "Ġferment": 815,
      "Ġdeep": 816,
      "Ġlevain": 817,
      "ately": 818,
      "Ġskin": 819,
      "Ġdire": 820,
      "Ġdown": 821,
      "Ġgas": 822,
      "Ġproduc": 823,
      "ass": 824,
      "Ġblis": 825,
      "Ġeas": 826,
      "Ġmixing": 827,
      "Ġlid": 828,
      "ron": 829,
      "ating": 830,
      "ey": 831,
      "os": 832,
      "50": 833,
      "rop": 834,
      "zy": 835,
      "Ġrocks": 836,
      "ment": 837,
      "Ġinch": 838,
      "ides": 839,
      "ĠDutch": 840,
      "Ġmu": 841,
      "not": 842,
      "Ġam": 843,
      "Ġcannot": 844,
      "Ġare": 845,
      "sions": 846,
      "lusions": 847,
      "ant": 848,
      "ented": 849,
      "aster": 850,
      "Ġrack": 851,
      "Ġbow": 852,
      "ĠAl": 853,
      "Ġ90": 854,
      "Ġbowl": 855,
      "Ġslow": 856,
      "net": 857,
      "Ġfin": 858,
      "Ġban": 859,
      "neton": 860,
      "Ġbanneton": 861,
      "ne": 862,
      "utolyse": 863,
      "Ġhold": 864,
      "ks": 865,
      "ree": 866,
      "tead": 867,
      "Ġtrap": 868,
      "ity": 869,
      "Ġbec": 870,
      "Ġ75": 871,
      "ale": 872,
      "Ġdevelop": 873,
      "ĠThe": 874,
      "als": 875,
      "ink": 876,
      "Ġfood": 877,
      "est": 878,
      "Ġonly": 879,
      "ĠSourdough": 880,
      "Ġinstead": 881,
      "edic": 882,
      "Ġequ": 883,
      "ffer": 884,
      "Ġimm": 885,
      "ense": 886,
      "Ġfaster": 887,
      "Ġlar": 888,
      "Ġcons": 889,
      "Ġdays": 890,
      "tern": 891,
      "ust": 892,
      "inn": 893,
      "Ġdri": 894,
      "Ġbacteria": 895,
      "ause": 896,
      "Ġcaused": 897,
      "ft": 898,
      "fermentation": 899,
      "Ġbench": 900,
      "Ġdirect": 901,
      "der": 902,
      "ĠHey": 903,
      "sive": 904,
      "Ġ40": 905,
      "ig": 906,
      "lace": 907,
      "ediately": 908,
      "Ġimmediately": 909,
      "ok": 910,
      "Ġshe": 911,
      "Ġsaf": 912,
      "tions": 913,
      "etw": 914,
      "Ġcomple": 915,
      "Ġexc": 916,
      "Ġbecause": 917,
      "ĠE": 918,
      "Ġset": 919,
      "Ġscore": 920,
      "Ġlower": 921,
      "Ġwr": 922,
      "Ġmold": 923,
      "ive": 924,
      "pid": 925,
      "Ġone": 926,
      "allow": 927,
      "oc": 928,
      "tered": 929,
      "Ġmain": 930,
      "atin": 931,
      "elatin": 932,
      "Ġcontains": 933,
      "ound": 934,
      "elow": 935,
      "ĠPre": 936,
      "Ġdiscard": 937,
      "Ġche": 938,
      "Ġprev": 939,
      "Ġhot": 940,
      "olume": 941,
      "Ġgelatin": 942,
      "Ġ15": 943,
      "Ġrati": 944,
      "Ġvolume": 945,
      "Ġquick": 946,
      "oft": 947,
      "Ġmore": 948,
      "Ġiron": 949,
      "ĠO": 950,
      "Ġdou": 951,
      "Ġcou": 952,
      "Ġlac": 953,
      "Ġsoft": 954,
      "ens": 955,
      "Ġbelow": 956,
      "akes": 957,
      "Ġflavor": 958,
      "Ġeasily": 959,
      "oil": 960,
      "Ġinclusions": 961,
      "Ġrecipe": 962,
      "Ġfinal": 963,
      "Ġratio": 964,
      "Ġcast": 965,
      "Ġreac": 966,
      "Ġ80": 967,
      "Ġactiv": 968,
      "Ġchlor": 969,
      "Ġcreates": 970,
      "Ġprotein": 971,
      "get": 972,
      "ling": 973,
      "ways": 974,
      "Ġtap": 975,
      "ĠAny": 976,
      "fermented": 977,
      "Ġtearing": 978,
      "Ġprevent": 979,
      "ped": 980,
      "Ġrem": 981,
      "Ġcalcul": 982,
      "rease": 983,
      "Ġany": 984,
      "ork": 985,
      "ula": 986,
      "Ġparts": 987,
      "Ġmic": 988,
      "Ġmake": 989,
      "Ġenzy": 990,
      "Ġfeeding": 991,
      "Ġenzym": 992,
      "Ġmoist": 993,
      "Ġretard": 994,
      "Ġdirectly": 995,
      "Ġlarge": 996,
      "ec": 997,
      "enter": 998,
      "Ġcenter": 999,
      "Ġstarters": 1000,
      "Ġweak": 1001,
      "Ġ65": 1002,
      "Ġlactic": 1003,
      "led": 1004,
      "ached": 1005,
      "Ġloaves": 1006,
      "Ġstandard": 1007,
      "Ġstone": 1008,
      "Ġneed": 1009,
      "Ġhel": 1010,
      "ĠK": 1011,
      "lease": 1012,
      "redient": 1013,
      "Ġequal": 1014,
      "ock": 1015,
      "erated": 1016,
      "Ġpale": 1017,
      "Ġind": 1018,
      "Ġgumm": 1019,
      "Ġspread": 1020,
      "Ġslack": 1021,
      "ips": 1022,
      "Ġadding": 1023,
      "Ġbubbles": 1024,
      "Ġgummy": 1025,
      "ial": 1026,
      "Ġrapid": 1027,
      "???": 1028,
      "Ġknif": 1029,
      "Ġsafe": 1030,
      "Ġknife": 1031,
      "nter": 1032,
      "Ġlight": 1033,
      "Ġcounter": 1034,
      "ches": 1035,
      "Ġing": 1036,
      "iction": 1037,
      "Ġstarches": 1038,
      "Ġingredient": 1039,
      "ars": 1040,
      "Ġ78": 1041,
      "Ġbatard": 1042,
      "inner": 1043,
      "eg": 1044,
      "Ġback": 1045,
      "ĠSh": 1046,
      "Ġno": 1047,
      "Ġwrong": 1048,
      "uff": 1049,
      "Ġdense": 1050,
      "Ġgrains": 1051,
      "sor": 1052,
      "un": 1053,
      "ult": 1054,
      "Ġwhy": 1055,
      "Ġabsor": 1056,
      "Ġsheet": 1057,
      "Ġcomplete": 1058,
      "Ġabsorb": 1059,
      "ool": 1060,
      "rad": 1061,
      "Ġblistered": 1062,
      "DT": 1063,
      "Ġsto": 1064,
      "Ġgre": 1065,
      "Ġcoil": 1066,
      "Ġspeed": 1067,
      "Ġthin": 1068,
      "ĠFeed": 1069,
      "Ġ+": 1070,
      "ĠTo": 1071,
      "ures": 1072,
      "Ġliqu": 1073,
      "Ġrest": 1074,
      "Ġformula": 1075,
      "las": 1076,
      "orm": 1077,
      "chment": 1078,
      "Ġroll": 1079,
      "ĠDis": 1080,
      "Ġparchment": 1081,
      "Ġwin": 1082,
      "Ġwent": 1083,
      "Ġhelp": 1084,
      "68": 1085,
      "Ġcr": 1086,
      "tial": 1087,
      "Ġgelatiniz": 1088,
      "ping": 1089,
      "atch": 1090,
      "Ġstart": 1091,
      "Ġinside": 1092,
      "lastic": 1093,
      "ire": 1094,
      "Ġbest": 1095,
      "ents": 1096,
      "Ġmoisture": 1097,
      "Ġliquid": 1098,
      "Ġshallow": 1099,
      "ose": 1100,
      "Ġround": 1101,
      "ĠDi": 1102,
      "Ġsour": 1103,
      "Ġbaked": 1104,
      "Ġsmoot": 1105,
      "Ġsmooth": 1106,
      "Ġed": 1107,
      "Ġbrow": 1108,
      "ava": 1109,
      "Ġearly": 1110,
      "med": 1111,
      "Ġautolyse": 1112,
      "Ġlam": 1113,
      "bly": 1114,
      "etic": 1115,
      "sw": 1116,
      "tend": 1117,
      "Ġsou": 1118,
      "ĠTroubleshooting": 1119,
      "Ġprovide": 1120,
      "Ġacetic": 1121,
      "Ġsoup": 1122,
      "ove": 1123,
      "ran": 1124,
      "ĠY": 1125,
      "Ġ25": 1126,
      "ĠHand": 1127,
      "Ġ500": 1128,
      "ĠAlways": 1129,
      "Ġedges": 1130,
      "Ġwill": 1131,
      "ĠBaking": 1132,
      "20": 1133,
      "Ġtips": 1134,
      "erator": 1135,
      "Ġcontain": 1136,
      "Ġrefrigerator": 1137,
      "Ġflakes": 1138,
      "amine": 1139,
      "ĠInc": 1140,
      "Ġcris": 1141,
      "ise": 1142,
      "lour": 1143,
      "oom": 1144,
      "Ġlava": 1145,
      "Ġslic": 1146,
      "ĠNever": 1147,
      "Ġsmells": 1148,
      "ub": 1149,
      "tan": 1150,
      "Ġ~": 1151,
      "ination": 1152,
      "Ġfil": 1153,
      "ark": 1154,
      "act": 1155,
      "Ġeven": 1156,
      "tent": 1157,
      "Ġpap": 1158,
      "ruct": 1159,
      "elt": 1160,
      "Ġstruct": 1161,
      "ĠPlease": 1162,
      "Ġsmall": 1163,
      "Ġpaper": 1164,
      "Ġtin": 1165,
      "ĠFr": 1166,
      "Ġscor": 1167,
      "Ġtrapped": 1168,
      "gul": 1169,
      "ll": 1170,
      "Ġlack": 1171,
      "Ġspelt": 1172,
      "Ġadvise": 1173,
      "Ġstrong": 1174,
      "Ġcalculate": 1175,
      "Ġassistant": 1176,
      "ĠWith": 1177,
      "Ġtemperatures": 1178,
      "Ġrub": 1179,
      "ect": 1180,
      "erate": 1181,
      "Ġdel": 1182,
      "often": 1183,
      "Ġacc": 1184,
      "ternal": 1185,
      "Ġmicro": 1186,
      "Ġenzymes": 1187,
      "24": 1188,
      "Ġrim": 1189,
      "Ġrecipes": 1190,
      "age": 1191,
      "Ġend": 1192,
      "Ġread": 1193,
      "Ġwhich": 1194,
      "Ġcook": 1195,
      "ĠUsing": 1196,
      "ĠNeed": 1197,
      "Ġwinter": 1198,
      "ze": 1199,
      "Ġsup": 1200,
      "Ġair": 1201,
      "Ġboil": 1202,
      "Ġpull": 1203,
      "Ġoil": 1204,
      "Ġheav": 1205,
      "proof": 1206,
      "Ġproofing": 1207,
      "Ġrapidly": 1208,
      "ters": 1209,
      "Ġtest": 1210,
      "Ġda": 1211,
      "ows": 1212,
      "Ġimp": 1213,
      "Ġ375": 1214,
      "ĠPlace": 1215,
      "Ġingredients": 1216,
      "Ġcompletely": 1217,
      "inary": 1218,
      "Ġmuch": 1219,
      "ĠKeep": 1220,
      "Ġbran": 1221,
      "aste": 1222,
      "ade": 1223,
      "Ġcauses": 1224,
      "Ġrubb": 1225,
      "Ġice": 1226,
      "ĠDiscard": 1227,
      "Ġpe": 1228,
      "asta": 1229,
      "bleached": 1230,
      "Ġcooler": 1231,
      "wich": 1232,
      "Ġsand": 1233,
      "aping": 1234,
      "Ġcleanly": 1235,
      "Ġsandwich": 1236,
      "10": 1237,
      "sol": 1238,
      "ering": 1239,
      "Ġscoring": 1240,
      "ax": 1241,
      "Ġtight": 1242,
      "Ġtake": 1243,
      "ĠCh": 1244,
      "Ġspreading": 1245,
      "een": 1246,
      "Ġou": 1247,
      "Ġbetw": 1248,
      "Ġever": 1249,
      "Ġhealt": 1250,
      "Ġenough": 1251,
      "Ġfirm": 1252,
      "Ġouter": 1253,
      "Ġbetween": 1254,
      "Ġevery": 1255,
      "Ġhealth": 1256,
      "ample": 1257,
      "rans": 1258,
      "Ġsw": 1259,
      "ross": 1260,
      "Ġonto": 1261,
      "ĠWhen": 1262,
      "cking": 1263,
      "less": 1264,
      "Ġturn": 1265,
      "Ġpeak": 1266,
      "%,": 1267,
      "ible": 1268,
      "par": 1269,
      "zor": 1270,
      "Ġhard": 1271,
      "Ġrazor": 1272,
      "co": 1273,
      "Ġdiffer": 1274,
      "Ġsupp": 1275,
      "%),": 1276,
      "are": 1277,
      "ually": 1278,
      "Ġbond": 1279,
      "Ġpart": 1280,
      "gars": 1281,
      "vides": 1282,
      "apor": 1283,
      "Ġprovides": 1284,
      "Ġunderne": 1285,
      "Ġsugars": 1286,
      "Ġunderneath": 1287,
      "Ġph": 1288,
      "Ġpat": 1289,
      "Ġmaking": 1290,
      "Ġhap": 1291,
      "leas": 1292,
      "Ġits": 1293,
      "Ġhappen": 1294,
      "ving": 1295,
      "ous": 1296,
      "Ġtrans": 1297,
      "Ġansw": 1298,
      "Ġ48": 1299,
      "ĠBeg": 1300,
      "ather": 1301,
      "ully": 1302,
      "Ġrequ": 1303,
      "Ġunbleached": 1304,
      "Ġstiff": 1305,
      "Ġspeeds": 1306,
      "Ġcrisp": 1307,
      "60": 1308,
      "Ġtroubleshooting": 1309,
      "Ġfru": 1310,
      "ĠDough": 1311,
      "ĠBF": 1312,
      "Ġfing": 1313,
      "Ġwhite": 1314,
      "ces": 1315,
      "night": 1316,
      "ocul": 1317,
      "Ġfully": 1318,
      "icient": 1319,
      "ĠIs": 1320,
      "ĠFlour": 1321,
      "Ġovernight": 1322,
      "round": 1323,
      "proofed": 1324,
      "oculation": 1325,
      "form": 1326,
      "gan": 1327,
      "yl": 1328,
      "rees": 1329,
      "Ġorgan": 1330,
      "Ġdomed": 1331,
      "Ġ45": 1332,
      "Ġ70": 1333,
      "Ġbuilds": 1334,
      "Ġdegrees": 1335,
      "Ġdries": 1336,
      "ses": 1337,
      "Ġbre": 1338,
      "ĠBake": 1339,
      "vered": 1340,
      "shaping": 1341,
      "iqu": 1342,
      "lim": 1343,
      "Ġsourd": 1344,
      "Ġbas": 1345,
      "Ġmat": 1346,
      "Ġmedic": 1347,
      "Ġcontent": 1348,
      "Ġevapor": 1349,
      "Ġrequire": 1350,
      "mal": 1351,
      "side": 1352,
      "Ġide": 1353,
      "arget": 1354,
      "ĠAt": 1355,
      "evere": 1356,
      "Ġfolding": 1357,
      "Ġinsuff": 1358,
      "ĠRye": 1359,
      "Ġdegrad": 1360,
      "Ġhappens": 1361,
      "Ġinsufficient": 1362,
      "und": 1363,
      "atur": 1364,
      "Ġnatur": 1365,
      "Ġabund": 1366,
      "Ġabundant": 1367,
      "Ġsig": 1368,
      "Ġturns": 1369,
      "Ġanswer": 1370,
      "eat": 1371,
      "Ġdid": 1372,
      "ght": 1373,
      "heated": 1374,
      "tight": 1375,
      "Ġpow": 1376,
      "Ġmade": 1377,
      "Ġ205": 1378,
      "Ġproducing": 1379,
      "Ġairtight": 1380,
      "ail": 1381,
      "rough": 1382,
      "Ġdark": 1383,
      "Ġcut": 1384,
      "Ġthrough": 1385,
      "ĠWhole": 1386,
      "Ġshaped": 1387,
      "ĠEx": 1388,
      "ĠShould": 1389,
      "gular": 1390,
      "Ġready": 1391,
      "%.": 1392,
      "inder": 1393,
      "ance": 1394,
      "Ġinstant": 1395,
      "Ġexpand": 1396,
      "Ġbene": 1397,
      "Ġremain": 1398,
      "Ġideal": 1399,
      ").<|": 1400,
      "Ġtall": 1401,
      "itch": 1402,
      "Ġseeds": 1403,
      "Ġchloramine": 1404,
      "Ġstructure": 1405,
      "ired": 1406,
      "ress": 1407,
      "Ġdedic": 1408,
      "Ġdried": 1409,
      "ĠIncrease": 1410,
      "Ġdedicated": 1411,
      "ence": 1412,
      "ĠAfter": 1413,
      "Ġbuilding": 1414,
      "illed": 1415,
      "gle": 1416,
      "peat": 1417,
      "ward": 1418,
      "eng": 1419,
      "ffect": 1420,
      "vert": 1421,
      "Ġboiling": 1422,
      "astatic": 1423,
      "Ġsign": 1424,
      "oid": 1425,
      "void": 1426,
      "resh": 1427,
      "ĠDDT": 1428,
      "Ġheavy": 1429,
      "Ġnaturally": 1430,
      "ost": 1431,
      "Ġstra": 1432,
      "ys": 1433,
      "Ġoften": 1434,
      "oule": 1435,
      "Ġboule": 1436,
      "Ġdrop": 1437,
      "Ġhol": 1438,
      "Ġinternal": 1439,
      "Ġkitch": 1440,
      "Ġdisc": 1441,
      "Ġmeas": 1442,
      "Ġholes": 1443,
      "gra": 1444,
      "per": 1445,
      "so": 1446,
      "Ġfe": 1447,
      "esired": 1448,
      "Ġwhere": 1449,
      "Ġprogra": 1450,
      "Ġdissol": 1451,
      "Ġlacks": 1452,
      "man": 1453,
      "aken": 1454,
      "anks": 1455,
      "Ġstarch": 1456,
      "ĠFerm": 1457,
      "Ġcont": 1458,
      "ĠThanks": 1459,
      "ĠLo": 1460,
      "Ġevenly": 1461,
      "tly": 1462,
      "ictly": 1463,
      "Ġflours": 1464,
      "Ġalso": 1465,
      "Ġstrictly": 1466,
      "Ġbag": 1467,
      "Ġholds": 1468,
      "reeze": 1469,
      "ĠPreheat": 1470,
      "oss": 1471,
      "Ġbut": 1472,
      "Ġwee": 1473,
      "Ġcar": 1474,
      "Ġgrow": 1475,
      "Ġdoub": 1476,
      "Ġmass": 1477,
      "Ġrising": 1478,
      "Ġfriction": 1479,
      "Ġsec": 1480,
      "Ġpour": 1481,
      "ading": 1482,
      "imum": 1483,
      "ondering": 1484,
      "Ġcreate": 1485,
      "produc": 1486,
      "Ġbrowning": 1487,
      "Ġfresh": 1488,
      "ort": 1489,
      "Ġcomp": 1490,
      "Ġmeans": 1491,
      "Qu": 1492,
      "ĠQu": 1493,
      "Ġaffect": 1494,
      "Ġble": 1495,
      "orn": 1496,
      "tire": 1497,
      "Ġinter": 1498,
      "ĠPull": 1499,
      "Ġentire": 1500,
      "Ġ900": 1501,
      "Ġfeel": 1502,
      "ĠQuick": 1503,
      "ction": 1504,
      "ike": 1505,
      "like": 1506,
      "pur": 1507,
      "pose": 1508,
      "Ġaerated": 1509,
      "Ġmalt": 1510,
      "ang": 1511,
      "Ġrel": 1512,
      "Ġacross": 1513,
      "Ġdec": 1514,
      "iant": 1515,
      "Ġpercentages": 1516,
      "Ġproduces": 1517,
      "Ġkitchen": 1518,
      "Ġprogramm": 1519,
      "Ġsecond": 1520,
      "purpose": 1521,
      "Ġz": 1522,
      "Ġ27": 1523,
      "rib": 1524,
      "ĠBulk": 1525,
      "'t": 1526,
      "ser": 1527,
      "Ġcub": 1528,
      "eth": 1529,
      "Ġangle": 1530,
      "Ġhandling": 1531,
      "Ġaccel": 1532,
      "dd": 1533,
      "Ġpink": 1534,
      "Ġmon": 1535,
      "Ġhal": 1536,
      "Ġrice": 1537,
      "Ġnetw": 1538,
      "Ġvent": 1539,
      "Ġincrease": 1540,
      "Ġseam": 1541,
      "Ġrubbery": 1542,
      "Ġhalf": 1543,
      "aill": 1544,
      "Ġcul": 1545,
      "Ġcoll": 1546,
      "Ġhere": 1547,
      "ĠWater": 1548,
      "Ġthick": 1549,
      "Ġcomb": 1550,
      "ĠMaill": 1551,
      "Ġrooms": 1552,
      "Ġfermenting": 1553,
      "Ġculinary": 1554,
      "Ġcollap": 1555,
      "ĠMaillard": 1556,
      "Ġtaking": 1557,
      "ange": 1558,
      "Ġflo": 1559,
      "athery": 1560,
      "Ġacidity": 1561,
      "Ġtimes": 1562,
      "Ġleathery": 1563,
      "Ġtears": 1564,
      "Ġstop": 1565,
      "actor": 1566,
      "Ġends": 1567,
      "Ġdaily": 1568,
      "ior": 1569,
      "itial": 1570,
      "Ġtang": 1571,
      "Ġinitial": 1572,
      "icate": 1573,
      "Ġ14": 1574,
      "Ġdivide": 1575,
      "Ġsched": 1576,
      "Ġleft": 1577,
      "ummer": 1578,
      "Ġsoupy": 1579,
      "Ġdelicate": 1580,
      "Ġturned": 1581,
      "Ġinterior": 1582,
      "gi": 1583,
      "gn": 1584,
      "mic": 1585,
      "son": 1586,
      "us": 1587,
      "eral": 1588,
      "Ġfail": 1589,
      "ature": 1590,
      "entos": 1591,
      "Ġres": 1592,
      "utri": 1593,
      "Ġperson": 1594,
      "Ġchemic": 1595,
      "entosans": 1596,
      "kne": 1597,
      "Ġsit": 1598,
      "Ġproble": 1599,
      "Ġlift": 1600,
      "Ġdish": 1601,
      "Ġdist": 1602,
      "Ġ60": 1603,
      "Ġblisters": 1604,
      "Ġchlorine": 1605,
      "ĠYou": 1606,
      "Ġcubes": 1607,
      "Ġproblem": 1608,
      "gry": 1609,
      "ven": 1610,
      "Ġsevere": 1611,
      "Ġmax": 1612,
      "Ġhun": 1613,
      "Ġinoculation": 1614,
      "ically": 1615,
      "Ġelastic": 1616,
      "Ġreleas": 1617,
      "vection": 1618,
      "Ġconduc": 1619,
      "Ġenc": 1620,
      "ĠLet": 1621,
      "Ġleaves": 1622,
      "Ġstore": 1623,
      "ĠDivide": 1624,
      "Ġdifference": 1625,
      "Ġbonds": 1626,
      "Ġmonth": 1627,
      "Ġnetwork": 1628,
      "Ġfloat": 1629,
      "Ġhungry": 1630,
      "Ġreleases": 1631,
      "Room": 1632,
      "cc": 1633,
      "ds": 1634,
      "Ġ-": 1635,
      "ish": 1636,
      "Ġcur": 1637,
      "ĠpH": 1638,
      "Ġplace": 1639,
      "Ġplastic": 1640,
      "ansion": 1641,
      "ets": 1642,
      "ĠTarget": 1643,
      "ĠFactor": 1644,
      "Ġextend": 1645,
      "Ġhydrate": 1646,
      "Ġexpansion": 1647,
      "Ġseal": 1648,
      "Ġweaken": 1649,
      "ĠFriction": 1650,
      "wards": 1651,
      "ĠLoad": 1652,
      "Ġmaximum": 1653,
      "32": 1654,
      "94": 1655,
      "bon": 1656,
      "di": 1657,
      "xtra": 1658,
      "essive": 1659,
      "Ġextra": 1660,
      "ĠHowever": 1661,
      "Ġens": 1662,
      "Ġkne": 1663,
      "Ġallow": 1664,
      "ĠDoes": 1665,
      "Ġexcessive": 1666,
      "Ġdegraded": 1667,
      "Ġcarbon": 1668,
      "knead": 1669,
      "12": 1670,
      "ie": 1671,
      "ness": 1672,
      "way": 1673,
      "Ġaway": 1674,
      "oughly": 1675,
      "Ġlin": 1676,
      "Ġgive": 1677,
      "Ġ68": 1678,
      "Ġkeeping": 1679,
      "Ġreach": 1680,
      "Ġbeneath": 1681,
      "SP": 1682,
      "iel": 1683,
      "Ġaround": 1684,
      "Ġfavor": 1685,
      "Ġbatch": 1686,
      "tional": 1687,
      "Ġshows": 1688,
      "Ġthor": 1689,
      "ĠAutolyse": 1690,
      "ĠChe": 1691,
      "Ġjig": 1692,
      "Ġdevelops": 1693,
      "ĠESP": 1694,
      "Ġremove": 1695,
      "ĠBeginner": 1696,
      "Ġmeasures": 1697,
      "utrients": 1698,
      "96": 1699,
      "aw": 1700,
      "hydra": 1701,
      "iti": 1702,
      "ies": 1703,
      "Ġavoid": 1704,
      "Ġocc": 1705,
      "Ġ210": 1706,
      "acc": 1707,
      "Ġrather": 1708,
      "urs": 1709,
      "Ġ99": 1710,
      "ĠPullman": 1711,
      "Ġoccurs": 1712,
      "ati": 1713,
      "Ġpentosans": 1714,
      "Ġgo": 1715,
      "Ġreduc": 1716,
      "ĠDrop": 1717,
      "ries": 1718,
      "Ġquestions": 1719,
      "Ġ85": 1720,
      "Ġmotions": 1721,
      "Ġquickly": 1722,
      "ockets": 1723,
      "Ġindic": 1724,
      "Ġorganic": 1725,
      "ĠFerment": 1726,
      "Ġreduce": 1727,
      "xy": 1728,
      "inate": 1729,
      "Ġdull": 1730,
      "Ġtell": 1731,
      "ĠPer": 1732,
      "Ġbubbly": 1733,
      "Ġslowly": 1734,
      "Ġchees": 1735,
      "ĠChlor": 1736,
      "Ġcollapses": 1737,
      "%).": 1738,
      "uice": 1739,
      "Ġ0": 1740,
      "ench": 1741,
      "olor": 1742,
      "Ġ160": 1743,
      "Ġelim": 1744,
      "Ġrepeat": 1745,
      "Ġcomm": 1746,
      "Ġconf": 1747,
      "ĠPour": 1748,
      "Ġpress": 1749,
      "Ġjuice": 1750,
      "Ġreaches": 1751,
      "Ġfruit": 1752,
      "ĠExtend": 1753,
      "Ġgrowth": 1754,
      "26": 1755,
      "78": 1756,
      "lo": 1757,
      "Ġess": 1758,
      "ential": 1759,
      "Ġmild": 1760,
      "Ġlevel": 1761,
      "Ġ26": 1762,
      "Ġstir": 1763,
      "Ġbuffer": 1764,
      "Ġuses": 1765,
      "Ġgram": 1766,
      "Ġsuppress": 1767,
      "Ġchemicals": 1768,
      "Ġessential": 1769,
      "bit": 1770,
      "gles": 1771,
      "hi": 1772,
      "luc": 1773,
      "oard": 1774,
      "ĠU": 1775,
      "Ġsides": 1776,
      "Ġfat": 1777,
      "Ġmath": 1778,
      "Ġinhi": 1779,
      "ased": 1780,
      "Ġshaken": 1781,
      "Ġvs": 1782,
      "antly": 1783,
      "Ġactivating": 1784,
      "Ġtransluc": 1785,
      "Ġrequires": 1786,
      "Ġmonths": 1787,
      "Ġjiggles": 1788,
      "ĠDropping": 1789,
      "ĠPerform": 1790,
      "Ġfats": 1791,
      "Ġinhibit": 1792,
      "Ġtranslucent": 1793,
      "72": 1794,
      "erly": 1795,
      "Ġcav": 1796,
      "ĠHold": 1797,
      "ĠMix": 1798,
      "Ġblock": 1799,
      "icks": 1800,
      "Ġclass": 1801,
      "roperly": 1802,
      "ĠYeast": 1803,
      "Ġclassic": 1804,
      "iol": 1805,
      "pti": 1806,
      "Ġash": 1807,
      "Ġfoc": 1808,
      "Ġbar": 1809,
      "Ġwithin": 1810,
      "ĠSti": 1811,
      "ĠCalcul": 1812,
      "rix": 1813,
      "Ġrate": 1814,
      "Ġviol": 1815,
      "Ġscrap": 1816,
      "Ġmixes": 1817,
      "ooch": 1818,
      "Ġrun": 1819,
      "Ġdoubles": 1820,
      "Ġmatrix": 1821,
      "Ġpowder": 1822,
      "ptimal": 1823,
      "por": 1824,
      "Ġtw": 1825,
      "Ġtaste": 1826,
      "Ġwork": 1827,
      "orpor": 1828,
      "ĠSc": 1829,
      "Ġrises": 1830,
      "Ġincorpor": 1831,
      "accia": 1832,
      "Ġfocaccia": 1833,
      "19": 1834,
      "able": 1835,
      "down": 1836,
      "ful": 1837,
      "fool": 1838,
      "her": 1839,
      "min": 1840,
      "ple": 1841,
      "Ġdra": 1842,
      "Ġtoget": 1843,
      "esp": 1844,
      "Ġpor": 1845,
      "ĠWondering": 1846,
      "apple": 1847,
      "ĠHell": 1848,
      "Ġstill": 1849,
      "Ġbloom": 1850,
      "ineapple": 1851,
      "Ġmetal": 1852,
      "ollow": 1853,
      "Ġgrain": 1854,
      "eveloped": 1855,
      "Ġgreased": 1856,
      "Ġprogramming": 1857,
      "Ġscraper": 1858,
      "190": 1859,
      "Ġtogether": 1860,
      "ĠHello": 1861,
      "euc": 1862,
      "tein": 1863,
      "onost": 1864,
      "arp": 1865,
      "Ġstay": 1866,
      "idd": 1867,
      "Ġcovered": 1868,
      "Ġ450": 1869,
      "Ġexample": 1870,
      "Ġstitch": 1871,
      "ĠLeuc": 1872,
      "protein": 1873,
      "Ġturning": 1874,
      "Ġrefrigerated": 1875,
      "Ġgelatinizes": 1876,
      "Ġcontainer": 1877,
      "Ġhardens": 1878,
      "Ġdiscolor": 1879,
      "onostoc": 1880,
      "ĠLeuconostoc": 1881,
      "Ġdiscoloration": 1882,
      "ox": 1883,
      "xic": 1884,
      "Ġsee": 1885,
      "Ġap": 1886,
      "Ġcyl": 1887,
      "Ġhooch": 1888,
      "Ġsticking": 1889,
      "Ġchilled": 1890,
      "Ġlamination": 1891,
      "iquot": 1892,
      "Ġstraight": 1893,
      "Ġtwo": 1894,
      "Ġcylinder": 1895,
      "og": 1896,
      "ves": 1897,
      "Ġbase": 1898,
      "Ġman": 1899,
      "Ġnec": 1900,
      "Ġ350": 1901,
      "Ġabove": 1902,
      "essary": 1903,
      "Ġlonger": 1904,
      "ĠAll": 1905,
      "Ġconsume": 1906,
      "Ġsets": 1907,
      "ĠWithout": 1908,
      "Ġnecessary": 1909,
      "gen": 1910,
      "isten": 1911,
      "Ġcult": 1912,
      "Ġpineapple": 1913,
      "ident": 1914,
      "Ġoxy": 1915,
      "Ġeink": 1916,
      "ĠHi": 1917,
      "ĠFreeze": 1918,
      "ome": 1919,
      "Ġsprings": 1920,
      "Ġbrown": 1921,
      "ĠFrench": 1922,
      "Ġmedical": 1923,
      "Ġoxygen": 1924,
      "Ġeinkorn": 1925,
      "cial": 1926,
      "diant": 1927,
      "just": 1928,
      "line": 1929,
      "rt": 1930,
      "Ġart": 1931,
      "ercial": 1932,
      "Ġpack": 1933,
      "roof": 1934,
      "ĠDesired": 1935,
      "ĠFir": 1936,
      "Ġbeen": 1937,
      "Ġ35": 1938,
      "Ġradiant": 1939,
      "ĠProof": 1940,
      "Ġaliquot": 1941,
      "Ġoffline": 1942,
      "Ġslices": 1943,
      "ative": 1944,
      "Ġcommercial": 1945,
      "Ġconfident": 1946,
      "ĠUn": 1947,
      "ĠFirst": 1948,
      "cient": 1949,
      "de": 1950,
      "fer": 1951,
      "gain": 1952,
      "Ġol": 1953,
      "Ġagain": 1954,
      "Ġtru": 1955,
      "Ġtoxic": 1956,
      "Ġhollow": 1957,
      "Ġgold": 1958,
      "Ġabout": 1959,
      "Ġskip": 1960,
      "Ġknow": 1961,
      "Ġdoubled": 1962,
      "Ġolive": 1963,
      "Ġtrue": 1964,
      "Ġgolden": 1965,
      "nel": 1966,
      "ric": 1967,
      "Ġsummer": 1968,
      "Ġtra": 1969,
      "Ġpo": 1970,
      "asting": 1971,
      "Ġroasting": 1972,
      "Ġblend": 1973,
      "Ġless": 1974,
      "rate": 1975,
      "elp": 1976,
      "ĠHelp": 1977,
      "ĠAP": 1978,
      "Ġlif": 1979,
      "Ġprepar": 1980,
      "Ġkeeps": 1981,
      "Ġgelatinized": 1982,
      "Ġfilm": 1983,
      "Ġfingers": 1984,
      "Ġbreak": 1985,
      "gg": 1986,
      "mend": 1987,
      "Ġsample": 1988,
      "Ġsharp": 1989,
      "Ġthis": 1990,
      "mpt": 1991,
      "Ġconvert": 1992,
      "ĠBread": 1993,
      "Ġhigher": 1994,
      "ift": 1995,
      "Ġbacterial": 1996,
      "Ġactivity": 1997,
      "Ġswift": 1998,
      "ĠChecking": 1999,
      "Ġartis": 2000,
      "Ġsave": 2001,
      "Ġassis": 2002,
      "Ġfan": 2003,
      "Ġcer": 2004,
      "ĠDO": 2005,
      "Ġhey": 2006,
      "alls": 2007,
      "Ġliner": 2008,
      "grad": 2009,
      "inu": 2010,
      "Ġser": 2011,
      "Ġbur": 2012,
      "Ġleast": 2013,
      "etone": 2014,
      "ape": 2015,
      "ĠSte": 2016,
      "Ġ475": 2017,
      "Ġproteins": 2018,
      "osed": 2019,
      "Ġfinger": 2020,
      "Ġartisan": 2021,
      "80": 2022,
      "ched": 2023,
      "Ġmidd": 2024,
      "Ġproper": 2025,
      "ĠSl": 2026,
      "rip": 2027,
      "Ġpreheated": 2028,
      "Ġneeded": 2029,
      "Ġassist": 2030,
      "Ġmiddle": 2031,
      "Ġfu": 2032,
      "Ġday": 2033,
      "oth": 2034,
      "sting": 2035,
      "ĠSp": 2036,
      "amic": 2037,
      "Ġoverr": 2038,
      "ffins": 2039,
      "Ġstreng": 2040,
      "Ġallows": 2041,
      "ĠDoing": 2042,
      "Ġmuffins": 2043,
      "Ġgrey": 2044,
      "Ġagainst": 2045,
      "Ġceramic": 2046,
      "Ġstrength": 2047,
      "ding": 2048,
      "rol": 2049,
      "Ġtun": 2050,
      "reak": 2051,
      "Ġdon": 2052,
      "tip": 2053,
      "ici": 2054,
      "Ġcloth": 2055,
      "Ġbrew": 2056,
      "Ġtunnel": 2057,
      "ears": 2058,
      "Ġtu": 2059,
      "Ġtre": 2060,
      "ach": 2061,
      "Ġthinner": 2062,
      "ĠFDT": 2063,
      "Ġspec": 2064,
      "Ġacetone": 2065,
      "Ġcondi": 2066,
      "irt": 2067,
      "Ġphys": 2068,
      "Ġdrops": 2069,
      "Ġbags": 2070,
      "ossible": 2071,
      "Ġbleached": 2072,
      "Ġconditions": 2073,
      "65": 2074,
      "od": 2075,
      "za": 2076,
      "Ġbet": 2077,
      "tain": 2078,
      "Ġcol": 2079,
      "Ġpiz": 2080,
      "Ġget": 2081,
      "Ġonce": 2082,
      "ĠCoil": 2083,
      "Ġexten": 2084,
      "lusive": 2085,
      "tenance": 2086,
      "Ġcloc": 2087,
      "Ġrefrigerate": 2088,
      "Ġexclusive": 2089,
      "Ġmaintenance": 2090,
      "Ġactivated": 2091,
      "Ġcontinu": 2092,
      "Ġbetter": 2093,
      "Ġpizza": 2094,
      "Ġextensi": 2095,
      "Ġcloche": 2096,
      "Ġexclusively": 2097,
      "ah": 2098,
      "tle": 2099,
      "ule": 2100,
      "yp": 2101,
      "orative": 2102,
      "attan": 2103,
      "ittle": 2104,
      "Ġgu": 2105,
      "Ġthere": 2106,
      "Ġrattan": 2107,
      "ĠAs": 2108,
      "Ġmineral": 2109,
      "Ġbakers": 2110,
      "Ġmode": 2111,
      "Ġexplo": 2112,
      "Ġconsult": 2113,
      "Ġlame": 2114,
      "Ġbask": 2115,
      "Ġweeks": 2116,
      "Ġfeels": 2117,
      "Ġdecorative": 2118,
      "Ġschedule": 2119,
      "ggish": 2120,
      "ahm": 2121,
      "Ġexplosive": 2122,
      "zzy": 2123,
      "Ġwas": 2124,
      "nder": 2125,
      "Ġgood": 2126,
      "Ġthir": 2127,
      "Ġoutside": 2128,
      "Ġscores": 2129,
      "Ġcombo": 2130,
      "Ġdraft": 2131,
      "ĠUnlike": 2132,
      "23": 2133,
      "atic": 2134,
      "gar": 2135,
      "Ġbal": 2136,
      "Ġwrap": 2137,
      "rated": 2138,
      "ules": 2139,
      "ultip": 2140,
      "chn": 2141,
      "Ġbeg": 2142,
      "ĠCon": 2143,
      "Ġpreser": 2144,
      "Ġscale": 2145,
      "Ġboth": 2146,
      "inegar": 2147,
      "Ġamyl": 2148,
      "ĠDiastatic": 2149,
      "Ġdamp": 2150,
      "Ġmanage": 2151,
      "Ġfuzzy": 2152,
      "ultiply": 2153,
      "Ġamylase": 2154,
      "amp": 2155,
      "day": 2156,
      "hol": 2157,
      "oh": 2158,
      "ony": 2159,
      "Ġput": 2160,
      "Ġmeth": 2161,
      "Ġmultiply": 2162,
      "Ġtheir": 2163,
      "Ġlittle": 2164,
      "Ġ11": 2165,
      "Ġbeer": 2166,
      "Ġcrusts": 2167,
      "Ġvis": 2168,
      "alleng": 2169,
      "Ġcrumbs": 2170,
      "Ġalco": 2171,
      "Ġblack": 2172,
      "ĠKahm": 2173,
      "Ġbatards": 2174,
      "Ġtiny": 2175,
      "Ġcookie": 2176,
      "Ġtransfer": 2177,
      "Ġcolony": 2178,
      "Ġmethod": 2179,
      "allenger": 2180,
      "Ġalcohol": 2181,
      "be": 2182,
      "bak": 2183,
      "gy": 2184,
      "losed": 2185,
      "tched": 2186,
      "ences": 2187,
      "Ġtyp": 2188,
      "ero": 2189,
      "Ġfly": 2190,
      "xture": 2191,
      "Ġharm": 2192,
      "Ġdoughs": 2193,
      "Ġyears": 2194,
      "Ġtexture": 2195,
      "ĠDist": 2196,
      "ĠFold": 2197,
      "Ġconven": 2198,
      "ĠCold": 2199,
      "rier": 2200,
      "Ġweights": 2201,
      "Ġstretched": 2202,
      "Ġtraps": 2203,
      "inners": 2204,
      "ĠOn": 2205,
      "ĠOver": 2206,
      "Ġsliced": 2207,
      "Ġcookers": 2208,
      "Ġzero": 2209,
      "ribute": 2210,
      "Ġaccelerate": 2211,
      "Ġventing": 2212,
      "Ġenclosed": 2213,
      "Ġbarrier": 2214,
      "Ġtucking": 2215,
      "chniqu": 2216,
      "baked": 2217,
      "Ġtypically": 2218,
      "Ġflying": 2219,
      "ĠDistribute": 2220,
      "Ġconventional": 2221,
      "bl": 2222,
      "ctions": 2223,
      "ved": 2224,
      "ĠG": 2225,
      "Ġold": 2226,
      "Ġapar": 2227,
      "isters": 2228,
      "Ġwon": 2229,
      "terns": 2230,
      "Ġright": 2231,
      "Ġrich": 2232,
      "Ġslice": 2233,
      "cep": 2234,
      "Ġrectan": 2235,
      "ĠLam": 2236,
      "Ġclay": 2237,
      "Ġpreventing": 2238,
      "ializ": 2239,
      "Ġfilter": 2240,
      "ĠChallenger": 2241,
      "Ġpatterns": 2242,
      "Ġevaporate": 2243,
      "Ġrelax": 2244,
      "hydration": 2245,
      "Ġspecializ": 2246,
      "Ġextensible": 2247,
      "Ġbasket": 2248,
      "Ġthirds": 2249,
      "Ġapart": 2250,
      "Ġrectangular": 2251,
      "az": 2252,
      "me": 2253,
      "mallow": 2254,
      "oak": 2255,
      "pl": 2256,
      "tate": 2257,
      "Ġwire": 2258,
      "orten": 2259,
      "Ġmar": 2260,
      "Ġlast": 2261,
      "aker": 2262,
      "Ġgent": 2263,
      "Ġgum": 2264,
      "Ġorange": 2265,
      "ĠWW": 2266,
      "Ġfermenta": 2267,
      "Ġconvection": 2268,
      "ĠSoak": 2269,
      "ĠBaker": 2270,
      "Ġmixers": 2271,
      "shmallow": 2272,
      "Ġdrying": 2273,
      "ĠHandle": 2274,
      "Ġdelay": 2275,
      "Ġtightly": 2276,
      "Ġsourdoh": 2277,
      "Ġweek": 2278,
      "Ġmassive": 2279,
      "ĠChloramine": 2280,
      "Ġeliminate": 2281,
      "Ġoverride": 2282,
      "irtually": 2283,
      "230": 2284,
      "Ġmarshmallow": 2285,
      "Ġmarshmallowy": 2286,
      "bes": 2287,
      "board": 2288,
      "iature": 2289,
      "Ġx": 2290,
      "Ġown": 2291,
      "Ġesp": 2292,
      "inless": 2293,
      "Ġsound": 2294,
      "Ġdust": 2295,
      "Ġtowards": 2296,
      "Ġpri": 2297,
      "Ġpockets": 2298,
      "ower": 2299,
      "Ġstale": 2300,
      "Ġstainless": 2301,
      "rumb": 2302,
      "Ġrole": 2303,
      "Ġtender": 2304,
      "Ġtechniqu": 2305,
      "ĠCrumb": 2306,
      "ĠBreak": 2307,
      "Ġrotate": 2308,
      "Ġminiature": 2309,
      "Ġdeta": 2310,
      "ĠInvert": 2311,
      "Ġcupboard": 2312,
      "Ġsetting": 2313,
      "Ġcalculated": 2314,
      "Ġenzymatic": 2315,
      "Ġsafely": 2316,
      "Ġthinly": 2317,
      "Ġmicrobes": 2318,
      "Ġevaporating": 2319,
      "Ġensures": 2320,
      "Ġkneading": 2321,
      "ĠSlide": 2322,
      "ĠSpread": 2323,
      "Ġbalance": 2324,
      "Ġbeginner": 2325,
      "ĠOnce": 2326,
      "blisters": 2327,
      "Ġsounds": 2328,
      "fts": 2329,
      "ite": 2330,
      "iving": 2331,
      "mall": 2332,
      "ue": 2333,
      "xim": 2334,
      "Ġsamp": 2335,
      "Ġtrip": 2336,
      "ergy": 2337,
      "Ġboo": 2338,
      "Ġcir": 2339,
      "Ġcakes": 2340,
      "Ġpast": 2341,
      "Ġ18": 2342,
      "Ġfermented": 2343,
      "Ġcover": 2344,
      "Ġgloss": 2345,
      "Ġstring": 2346,
      "ĠSmall": 2347,
      "umed": 2348,
      "ains": 2349,
      "ipper": 2350,
      "Ġvery": 2351,
      "Ġvirtually": 2352,
      "Ġenergy": 2353,
      "Ġalways": 2354,
      "Ġperform": 2355,
      "Ġchains": 2356,
      "Ġ120": 2357,
      "proxim": 2358,
      "Ġstretching": 2359,
      "Ġletter": 2360,
      "ĠThey": 2361,
      "Ġconsumed": 2362,
      "Ġshear": 2363,
      "Ġexcess": 2364,
      "Ġstrongly": 2365,
      "Ġimpossible": 2366,
      "Ġzipper": 2367,
      "ributes": 2368,
      "Ġdistributes": 2369,
      "Ġconducts": 2370,
      "Ġapproxim": 2371,
      "mendous": 2372,
      "Ġserrated": 2373,
      "Ġtremendous": 2374,
      "Ġvisible": 2375,
      "ĠLamination": 2376,
      "Ġsamples": 2377,
      "Ġcircul": 2378,
      "Ġpastries": 2379,
      "Ġglossy": 2380,
      "Ġstringy": 2381,
      "Ġapproximately": 2382,
      "deg": 2383,
      "free": 2384,
      "ially": 2385,
      "tled": 2386,
      "eness": 2387,
      "Ġmot": 2388,
      "aniti": 2389,
      "Ġgen": 2390,
      "Ġreproduc": 2391,
      "top": 2392,
      "total": 2393,
      "Ġloose": 2394,
      "even": 2395,
      "Ġunco": 2396,
      "Ġuneven": 2397,
      "erating": 2398,
      "Ġdiastatic": 2399,
      "Ġbottled": 2400,
      "Ġdeter": 2401,
      "ĠRest": 2402,
      "izes": 2403,
      "Ġeasy": 2404,
      "Ġcomplex": 2405,
      "ĠPrefermented": 2406,
      "ecially": 2407,
      "Ġrimmed": 2408,
      "Ġhealthy": 2409,
      "ĠBeginners": 2410,
      "malted": 2411,
      "Ġcutting": 2412,
      "Ġdissolve": 2413,
      "Ġcontrol": 2414,
      "Ġaccelerating": 2415,
      "Ġfailing": 2416,
      "Ġsitting": 2417,
      "Ġthoroughly": 2418,
      "Ġindicates": 2419,
      "ĠExtended": 2420,
      "Ġinhibits": 2421,
      "Ġdoneness": 2422,
      "Ġbrewing": 2423,
      "Ġcontinues": 2424,
      "Ġmanageable": 2425,
      "Ġspecialized": 2426,
      "Ġfermentable": 2427,
      "Ġespecially": 2428,
      "Ġboosting": 2429,
      "degree": 2430,
      "Ġmotor": 2431,
      "Ġreproduction": 2432,
      "Ġloosely": 2433,
      "Ġuncovered": 2434,
      "18": 2435,
      "38": 2436,
      "ced": 2437,
      "imple": 2438,
      "rre": 2439,
      "Ġsimple": 2440,
      "eration": 2441,
      "Ġfra": 2442,
      "Ġpot": 2443,
      "Ġmatch": 2444,
      "educ": 2445,
      "Ġhinder": 2446,
      "ash": 2447,
      "Ġshine": 2448,
      "Ġshorten": 2449,
      "Ġteeth": 2450,
      "Ġglide": 2451,
      "Ġirre": 2452,
      "Ġne": 2453,
      "ĠCool": 2454,
      "Ġunless": 2455,
      "ĠProperly": 2456,
      "Ġexact": 2457,
      "Ġslash": 2458,
      "Ġdispl": 2459,
      "ĠMore": 2460,
      "Ġhighly": 2461,
      "ĠReduc": 2462,
      "Ġpans": 2463,
      "ĠLight": 2464,
      "ĠAncient": 2465,
      "Ġlets": 2466,
      "Ġproduced": 2467,
      "Ġlids": 2468,
      "Ġequals": 2469,
      "oking": 2470,
      "Ġflavors": 2471,
      "Ġspreads": 2472,
      "Ġslacks": 2473,
      "Ġsmoothly": 2474,
      "ĠInclusions": 2475,
      "Ġfirmly": 2476,
      "Ġsupport": 2477,
      "Ġbonding": 2478,
      "Ġstiffens": 2479,
      "gile": 2480,
      "Ġpersonal": 2481,
      "Ġlevels": 2482,
      "Ġfragile": 2483,
      "Ġirregular": 2484,
      "ĠCooler": 2485,
      "Ġdisplays": 2486,
      "ĠReduce": 2487,
      "34": 2488,
      "64": 2489,
      "muc": 2490,
      "mature": 2491,
      "nutrients": 2492,
      "rof": 2493,
      "sum": 2494,
      "ual": 2495,
      "ware": 2496,
      "inct": 2497,
      "Ġsum": 2498,
      "Ġsoften": 2499,
      "Ġbad": 2500,
      "Ġdutch": 2501,
      "tionally": 2502,
      "icta": 2503,
      "ilage": 2504,
      "ĠHigh": 2505,
      "ĠTrap": 2506,
      "ĠAsh": 2507,
      "ĠDust": 2508,
      "Ġprobe": 2509,
      "Ġspot": 2510,
      "Ġglutenin": 2511,
      "Ġ334": 2512,
      "Ġadjust": 2513,
      "Ġ464": 2514,
      "imals": 2515,
      "Ġbyproduc": 2516,
      "Ġexcep": 2517,
      "Ġ550": 2518,
      "Ġliving": 2519,
      "Ġslides": 2520,
      "Ġvom": 2521,
      "Ġpremature": 2522,
      "ĠInternal": 2523,
      "ĠInser": 2524,
      "Ġacidic": 2525,
      "Ġ93": 2526,
      "ĠRice": 2527,
      "Ġexper": 2528,
      "ific": 2529,
      "Ġsuff": 2530,
      "Ġexceed": 2531,
      "ĠOpen": 2532,
      "Ġtapping": 2533,
      "Ġcountertop": 2534,
      "Ġresting": 2535,
      "Ġdifferent": 2536,
      "Ġfreshly": 2537,
      "Ġdecimals": 2538,
      "usually": 2539,
      "Ġdistinct": 2540,
      "Ġcurl": 2541,
      "ĠFermentolyse": 2542,
      "ĠGently": 2543,
      "Ġgums": 2544,
      "Ġdetach": 2545,
      "mucilage": 2546,
      "ĠTrapped": 2547,
      "Ġexceptionally": 2548,
      "Ġvomit": 2549,
      "ĠInsert": 2550,
      "dor": 2551,
      "dery": 2552,
      "pred": 2553,
      "stic": 2554,
      "wel": 2555,
      "Ġwaste": 2556,
      "Ġtowel": 2557,
      "esting": 2558,
      "Ġpleas": 2559,
      "Ġhus": 2560,
      "Ġodor": 2561,
      "ĠWork": 2562,
      "Ġthaw": 2563,
      "Ġ200": 2564,
      "Ġunheated": 2565,
      "Ġunpred": 2566,
      "Ġprelim": 2567,
      "Ġenv": 2568,
      "verns": 2569,
      "ĠResting": 2570,
      "Ġsub": 2571,
      "Ġsuch": 2572,
      "Ġrustic": 2573,
      "Ġreaction": 2574,
      "Ġabsorbing": 2575,
      "ĠFeeding": 2576,
      "Ġrounding": 2577,
      "Ġslicing": 2578,
      "Ġphase": 2579,
      "Ġfruity": 2580,
      "Ġorganizes": 2581,
      "Ġmedically": 2582,
      "Ġpowdery": 2583,
      "Ġbleach": 2584,
      "Ġfails": 2585,
      "Ġresult": 2586,
      "Ġelasticity": 2587,
      "Ġgoverns": 2588,
      "Ġcheese": 2589,
      "Ġstirred": 2590,
      "Ġgrams": 2591,
      "Ġtrack": 2592,
      "Ġricher": 2593,
      "Ġrelaxes": 2594,
      "Ġtriples": 2595,
      "Ġcircular": 2596,
      "Ġdeterg": 2597,
      "ictably": 2598,
      "ĠHigher": 2599,
      "Ġpleasantly": 2600,
      "Ġhusk": 2601,
      "ĠWorking": 2602,
      "Ġunpredictably": 2603,
      "Ġpreliminary": 2604,
      "hard": 2605,
      "iences": 2606,
      "ler": 2607,
      "mary": 2608,
      "rin": 2609,
      "set": 2610,
      "tre": 2611,
      "enet": 2612,
      "Ġfilled": 2613,
      "Ġcap": 2614,
      "Ġpenet": 2615,
      "ration": 2616,
      "Ġ28": 2617,
      "Ġyiel": 2618,
      "ĠSlu": 2619,
      "ĠStre": 2620,
      "Ġ36": 2621,
      "aving": 2622,
      "Ġkicks": 2623,
      "allop": 2624,
      "Ġscallop": 2625,
      "Ġ82": 2626,
      "Ġusually": 2627,
      "shing": 2628,
      "ize": 2629,
      "Ġleaving": 2630,
      "Ġoffset": 2631,
      "Ġforming": 2632,
      "Ġsudd": 2633,
      "ronutrients": 2634,
      "Ġslows": 2635,
      "Ġmicronutrients": 2636,
      "Ġsourness": 2637,
      "Ġconducted": 2638,
      "Ġmilder": 2639,
      "Ġsuppresses": 2640,
      "Ġviolent": 2641,
      "Ġincorporate": 2642,
      "grade": 2643,
      "Ġgentler": 2644,
      "Ġprimary": 2645,
      "anitize": 2646,
      "Ġunevenly": 2647,
      "Ġcontrols": 2648,
      "Ġexperiences": 2649,
      "Ġpenetrate": 2650,
      "Ġyielding": 2651,
      "ĠSluggish": 2652,
      "ĠStretch": 2653,
      "Ġkickstar": 2654,
      "Ġscalloped": 2655,
      "Ġsudden": 2656,
      "ger": 2657,
      "iac": 2658,
      "umb": 2659,
      "ÃĹ": 2660,
      "ĠÃĹ": 2661,
      "Ġsim": 2662,
      "Ġwalls": 2663,
      "Ġcel": 2664,
      "Ġprof": 2665,
      "ics": 2666,
      "Ġoptimal": 2667,
      "ulate": 2668,
      "Ġshort": 2669,
      "Ġroughly": 2670,
      "ural": 2671,
      "Ġnon": 2672,
      "Ġunfermented": 2673,
      "Ġcane": 2674,
      "Ġdies": 2675,
      "Ġdigi": 2676,
      "Ġpreheat": 2677,
      "Ġacids": 2678,
      "Ġcause": 2679,
      "Ġdeveloped": 2680,
      "inkled": 2681,
      "Ġlarger": 2682,
      "Ġwrinkled": 2683,
      "Ġrestric": 2684,
      "Ġhelps": 2685,
      "Ġstructural": 2686,
      "Ġbases": 2687,
      "Ġcombination": 2688,
      "Ġ140": 2689,
      "ĠCalculate": 2690,
      "Ġportion": 2691,
      "Ġcultures": 2692,
      "Ġburning": 2693,
      "ĠConvection": 2694,
      "Ġpreserving": 2695,
      "Ġtechnique": 2696,
      "Ġprematurely": 2697,
      "Ġsimulate": 2698,
      "Ġceliac": 2699,
      "Ġdigital": 2700,
      "bed": 2701,
      "developed": 2702,
      "nous": 2703,
      "sub": 2704,
      "wage": 2705,
      "Ġside": 2706,
      "Ġaerate": 2707,
      "ernous": 2708,
      "Ġdesired": 2709,
      "ession": 2710,
      "ĠWet": 2711,
      "Ġthrow": 2712,
      "urbed": 2713,
      "ĠDense": 2714,
      "Ġlook": 2715,
      "eeter": 2716,
      "Ġundist": 2717,
      "Ġdef": 2718,
      "Ġ1000": 2719,
      "Ġsewage": 2720,
      "Ġproofed": 2721,
      "Ġdouble": 2722,
      "Ġgreater": 2723,
      "Ġshallowly": 2724,
      "Ġsweeter": 2725,
      "Ġdissolved": 2726,
      "Ġensure": 2727,
      "Ġknead": 2728,
      "Ġfavors": 2729,
      "Ġthorough": 2730,
      "Ġcheesy": 2731,
      "Ġcavernous": 2732,
      "Ġrunning": 2733,
      "Ġblooms": 2734,
      "Ġbreakdown": 2735,
      "iciently": 2736,
      "Ġtunneling": 2737,
      "ĠCrumbly": 2738,
      "Ġsufficiently": 2739,
      "Ġprofession": 2740,
      "Ġundisturbed": 2741,
      "175": 2742,
      "71": 2743,
      "ag": 2744,
      "gine": 2745,
      "hour": 2746,
      "kes": 2747,
      "rents": 2748,
      "uter": 2749,
      "vinegar": 2750,
      "wan": 2751,
      "yiel": 2752,
      "yog": 2753,
      "inted": 2754,
      "Ġsofte": 2755,
      "Ġsol": 2756,
      "oug": 2757,
      "Ġfix": 2758,
      "Ġbul": 2759,
      "nds": 2760,
      "ourag": 2761,
      "Ġtoss": 2762,
      "Ġperm": 2763,
      "Ġinten": 2764,
      "rokes": 2765,
      "anently": 2766,
      "icro": 2767,
      "ety": 2768,
      "Ġregul": 2769,
      "elop": 2770,
      "urt": 2771,
      "ĠHarm": 2772,
      "Ġcrushing": 2773,
      "Ġspore": 2774,
      "Ġspir": 2775,
      "Ġstrokes": 2776,
      "Ġloading": 2777,
      "ĠSaw": 2778,
      "ĠSanitize": 2779,
      "Ġunsw": 2780,
      "Ġunwan": 2781,
      "rial": 2782,
      "eeten": 2783,
      "ĠBare": 2784,
      "Ġweather": 2785,
      "Ġdiox": 2786,
      "Ġengine": 2787,
      "Ġaltern": 2788,
      "ĠMicro": 2789,
      "Ġdep": 2790,
      "ĠForm": 2791,
      "Ġusual": 2792,
      "Ġchoking": 2793,
      "Ġexpect": 2794,
      "Ġseedling": 2795,
      "Ġthanks": 2796,
      "Ġlowers": 2797,
      "Ġ245": 2798,
      "Ġdeeply": 2799,
      "Ġgases": 2800,
      "Ġdeveloping": 2801,
      "ustrial": 2802,
      "Ġsafety": 2803,
      "Ġmoldy": 2804,
      "ĠOven": 2805,
      "Ġindustrial": 2806,
      "Ġrolls": 2807,
      "Ġgelatinization": 2808,
      "Ġpulling": 2809,
      "Ġheavily": 2810,
      "Ġsourdoug": 2811,
      "Ġstrands": 2812,
      "Ġcomputer": 2813,
      "Ġencourag": 2814,
      "Ġcurrents": 2815,
      "ities": 2816,
      "Ġpressing": 2817,
      "Ġmildness": 2818,
      "Ġcavities": 2819,
      "Ġtastes": 2820,
      "Ġpointed": 2821,
      "Ġlifting": 2822,
      "Ġphysically": 2823,
      "Ġodors": 2824,
      "Ġenvelop": 2825,
      "Ġkickstarting": 2826,
      "yields": 2827,
      "yogurt": 2828,
      "Ġsoftens": 2829,
      "Ġsolid": 2830,
      "Ġbulb": 2831,
      "Ġpermanently": 2832,
      "Ġintense": 2833,
      "ĠHarmful": 2834,
      "Ġspores": 2835,
      "Ġunsweeten": 2836,
      "Ġunwanted": 2837,
      "Ġdioxide": 2838,
      "Ġengineering": 2839,
      "Ġencouraging": 2840,
      "Ġenvelope": 2841,
      "Ġunsweetened": 2842,
      "27": 2843,
      "36": 2844,
      "70": 2845,
      "ease": 2846,
      "gl": 2847,
      "most": 2848,
      "ogh": 2849,
      "stan": 2850,
      "tr": 2851,
      "uogh": 2852,
      "vid": 2853,
      "yco": 2854,
      "Ġsaves": 2855,
      "Ġaeration": 2856,
      "ending": 2857,
      "Ġcrow": 2858,
      "Ġpace": 2859,
      "Ġplease": 2860,
      "Ġmark": 2861,
      "Ġhone": 2862,
      "aries": 2863,
      "icip": 2864,
      "rafts": 2865,
      "Ġfluff": 2866,
      "let": 2867,
      "Ġ236": 2868,
      "aces": 2869,
      "aced": 2870,
      "Ġrev": 2871,
      "ĠWatch": 2872,
      "illet": 2873,
      "Ġshower": 2874,
      "ĠDrafts": 2875,
      "Ġspaced": 2876,
      "ĠStar": 2877,
      "ĠCup": 2878,
      "ightly": 2879,
      "Ġungl": 2880,
      "Ġstep": 2881,
      "umul": 2882,
      "Ġslightly": 2883,
      "Ġdia": 2884,
      "Ġvaries": 2885,
      "Ġdisease": 2886,
      "Ġalmost": 2887,
      "ĠThen": 2888,
      "ĠThat": 2889,
      "Ġjust": 2890,
      "ĠInoculation": 2891,
      "Ġupwards": 2892,
      "ĠRe": 2893,
      "Ġskillet": 2894,
      "Ġleave": 2895,
      "Ġsurfaces": 2896,
      "Ġproteoly": 2897,
      "Ġclock": 2898,
      "ments": 2899,
      "Ġscored": 2900,
      "ĠShape": 2901,
      "Ġfiltered": 2902,
      "Ġaccumul": 2903,
      "240": 2904,
      "Ġremainder": 2905,
      "Ġdoubling": 2906,
      "Ġstopping": 2907,
      "Ġschedules": 2908,
      "125": 2909,
      "Ġindicating": 2910,
      "ĠStir": 2911,
      "Ġpacking": 2912,
      "azed": 2913,
      "Ġbyproduct": 2914,
      "Ġsubstan": 2915,
      "Ġrestricts": 2916,
      "Ġthrowing": 2917,
      "Ġdepending": 2918,
      "ycomb": 2919,
      "Ġhoneycomb": 2920,
      "icipal": 2921,
      "Ġfluffed": 2922,
      "Ġunglazed": 2923,
      "Ġsubstances": 2924,
      "%+": 2925,
      "flour": 2926,
      "iries": 2927,
      "uss": 2928,
      "vic": 2929,
      "Ġfreeze": 2930,
      "tand": 2931,
      "istent": 2932,
      "Ġwicks": 2933,
      "tiful": 2934,
      "Ġinqu": 2935,
      "aks": 2936,
      "ical": 2937,
      "Ġgerm": 2938,
      "Ġstarts": 2939,
      "Ġoth": 2940,
      "Ġ(>": 2941,
      "ĠSalt": 2942,
      "Ġbeau": 2943,
      "Ġadmin": 2944,
      "Ġwhenever": 2945,
      "Ġblast": 2946,
      "rape": 2947,
      "Ġpercent": 2948,
      "Ġexpos": 2949,
      "Ġcrevic": 2950,
      "istration": 2951,
      "Ġtopics": 2952,
      "Ġferments": 2953,
      "Ġconsistent": 2954,
      "ĠOptimal": 2955,
      "Ġsoftware": 2956,
      "Ġimprin": 2957,
      "Ġsourduogh": 2958,
      "Ġsignific": 2959,
      "Ġdiscuss": 2960,
      "Ġhydrates": 2961,
      "Ġallowing": 2962,
      "ĠCalculating": 2963,
      "ĠScrape": 2964,
      "ĠSteam": 2965,
      "Ġharmless": 2966,
      "Ġgeneral": 2967,
      "Ġexceeds": 2968,
      "Ġprofessional": 2969,
      "Ġspirals": 2970,
      "tandard": 2971,
      "Ġinquiries": 2972,
      "Ġother": 2973,
      "Ġbeautiful": 2974,
      "Ġadministration": 2975,
      "Ġexposure": 2976,
      "Ġcrevices": 2977,
      "Ġimprints": 2978,
      "Ġsignificantly": 2979,
      "',": 2980,
      "cy": 2981,
      "con": 2982,
      "cross": 2983,
      "open": 2984,
      "wheat": 2985,
      "Ġ'": 2986,
      "Ġfed": 2987,
      "tale": 2988,
      "Ġdue": 2989,
      "orary": 2990,
      "Ġthese": 2991,
      "aling": 2992,
      "Ġloses": 2993,
      "Ġ38": 2994,
      "Ġunif": 2995,
      "Ġtemporary": 2996,
      "ĠPockets": 2997,
      "ĠBey": 2998,
      "Ġundeveloped": 2999,
      "ĠMake": 3000,
      "tching": 3001,
      "Ġupside": 3002,
      "ĠRun": 3003,
      "Ġmoisten": 3004,
      "Ġsurround": 3005,
      "Ġdegree": 3006,
      "Ġholding": 3007,
      "Ġ400": 3008,
      "Ġindentation": 3009,
      "Ġcriss": 3010,
      "Ġpattern": 3011,
      "Ġcrisps": 3012,
      "Ġdegrades": 3013,
      "Ġexpanded": 3014,
      "Ġremained": 3015,
      "Ġrelia": 3016,
      "Ġsealed": 3017,
      "Ġweakening": 3018,
      "Ġtelltale": 3019,
      "ĠStitching": 3020,
      "Ġviolently": 3021,
      "Ġalternate": 3022,
      "troll": 3023,
      "controll": 3024,
      "Ġuniform": 3025,
      "ĠBeyond": 3026,
      "Ġsurrounding": 3027,
      "15": 3028,
      "lic": 3029,
      "pass": 3030,
      "Ġedi": 3031,
      "inal": 3032,
      "Ġtarget": 3033,
      "Ġband": 3034,
      "Ġball": 3035,
      "Ġbox": 3036,
      "hesi": 3037,
      "Ġpu": 3038,
      "Ġpie": 3039,
      "Ġforced": 3040,
      "Ġstatic": 3041,
      "ĠAI": 3042,
      "ĠFinal": 3043,
      "evice": 3044,
      "Ġadhesi": 3045,
      "uts": 3046,
      "Ġbypass": 3047,
      "aud": 3048,
      "Ġcrumbly": 3049,
      "Ġblow": 3050,
      "Ġ720": 3051,
      "Ġhandled": 3052,
      "Ġ970": 3053,
      "Ġmotion": 3054,
      "Ġfermentolyse": 3055,
      "Ġdirections": 3056,
      "Ġrounded": 3057,
      "Ġrubber": 3058,
      "100": 3059,
      "Ġsecondary": 3060,
      "Ġsuppressing": 3061,
      "Ġincorporates": 3062,
      "Ġportions": 3063,
      "Ġpreparation": 3064,
      "Ġdetergents": 3065,
      "Ġcrowns": 3066,
      "Ġedible": 3067,
      "Ġpiece": 3068,
      "Ġadhesives": 3069,
      "bor": 3070,
      "cool": 3071,
      "no": 3072,
      "nicipal": 3073,
      "pate": 3074,
      "standard": 3075,
      "tens": 3076,
      "Ġtough": 3077,
      "Ġtigh": 3078,
      "terday": 3079,
      "esterday": 3080,
      "Ġpath": 3081,
      "Ġinsi": 3082,
      "Ġstagn": 3083,
      "Ġempt": 3084,
      "Ġyesterday": 3085,
      "Ġthri": 3086,
      "Ġcore": 3087,
      "ĠSevere": 3088,
      "Ġnuts": 3089,
      "sipate": 3090,
      "Ġdiges": 3091,
      "Ġdissipate": 3092,
      "ook": 3093,
      "Ġcontamin": 3094,
      "Ġafterno": 3095,
      "Ġmunicipal": 3096,
      "Ġfoodbor": 3097,
      "ĠDissol": 3098,
      "Ġlaminate": 3099,
      "Ġcookies": 3100,
      "Ġboiled": 3101,
      "Ġimproperly": 3102,
      "cessive": 3103,
      "ĠExcessive": 3104,
      "resses": 3105,
      "Ġpersonas": 3106,
      "ĠChlorine": 3107,
      "ogens": 3108,
      "Ġregulates": 3109,
      "Ġproteolytic": 3110,
      "Ġaccumulated": 3111,
      "Ġconsistently": 3112,
      "cooled": 3113,
      "Ġtightens": 3114,
      "Ġpathogens": 3115,
      "Ġinsipid": 3116,
      "Ġstagnant": 3117,
      "Ġempty": 3118,
      "Ġthrive": 3119,
      "Ġdigested": 3120,
      "Ġcontaminated": 3121,
      "Ġafternoon": 3122,
      "Ġfoodborne": 3123,
      "ĠDissolve": 3124,
      "ait": 3125,
      "device": 3126,
      "hical": 3127,
      "mo": 3128,
      "uild": 3129,
      "tem": 3130,
      "inates": 3131,
      "Ġsole": 3132,
      "Ġsize": 3133,
      "Ġgiving": 3134,
      "Ġemo": 3135,
      "ilos": 3136,
      "ĠTips": 3137,
      "Ġprompt": 3138,
      "ĠCut": 3139,
      "ĠBuild": 3140,
      "aintain": 3141,
      "ĠMaintain": 3142,
      "Ġ72": 3143,
      "Ġmixed": 3144,
      "Ġfeeds": 3145,
      "ophical": 3146,
      "Ġoffer": 3147,
      "Ġformation": 3148,
      "Ġconsisten": 3149,
      "ĠDiffer": 3150,
      "Ġmicrocontroll": 3151,
      "Ġphilos": 3152,
      "Ġexpands": 3153,
      "ystem": 3154,
      "Ġeliminates": 3155,
      "Ġpreparing": 3156,
      "ĠRepeat": 3157,
      "Ġreliably": 3158,
      "Ġsolely": 3159,
      "Ġemotional": 3160,
      "Ġconsistency": 3161,
      "Ġmicrocontroller": 3162,
      "Ġphilosophical": 3163,
      "ex": 3164,
      "Ġboard": 3165,
      "Ġwor": 3166,
      "Ġcorn": 3167,
      "Ġpasta": 3168,
      "Ġgiant": 3169,
      "Ġflex": 3170,
      "ĠThere": 3171,
      "Ġbenef": 3172,
      "Ġpudd": 3173,
      "Ġflexible": 3174,
      "13": 3175,
      "dow": 3176,
      "Ġpuff": 3177,
      "Ġglass": 3178,
      "Ġtemps": 3179,
      "Ġweb": 3180,
      "Ġchill": 3181,
      "ĠLook": 3182,
      "Ġexpresses": 3183,
      "Ġstrange": 3184,
      "Ġwindow": 3185,
      "ĠScaling": 3186,
      "Ġculture": 3187,
      "Ġdiagn": 3188,
      "%+),": 3189,
      "Ġpuddle": 3190,
      "Ġpuffy": 3191,
      "ef": 3192,
      "sid": 3193,
      "Ġtaken": 3194,
      "Ġdent": 3195,
      "Ġwondering": 3196,
      "ings": 3197,
      "Ġstarting": 3198,
      "Ġhandle": 3199,
      "essing": 3200,
      "Ġinclu": 3201,
      "Ġbannetons": 3202,
      "Ġdevelopment": 3203,
      "ĠHandling": 3204,
      "Ġguessing": 3205,
      "sided": 3206,
      "cer": 3207,
      "mol": 3208,
      "rink": 3209,
      "slic": 3210,
      "Ġter": 3211,
      "ina": 3212,
      "Ġwell": 3213,
      "Ġwood": 3214,
      "arse": 3215,
      "lect": 3216,
      "tore": 3217,
      "ĠAvoid": 3218,
      "Ġcoarse": 3219,
      "Ġsprink": 3220,
      "ĠStore": 3221,
      "tical": 3222,
      "Ġsemol": 3223,
      "Ġlife": 3224,
      "meal": 3225,
      "Ġdeflect": 3226,
      "ĠFormula": 3227,
      "ĠCutting": 3228,
      "Ġcornmeal": 3229,
      "sliced": 3230,
      "Ġsprinkle": 3231,
      "Ġsemolina": 3232,
      "inated": 3233,
      "Ġdesp": 3234,
      "orning": 3235,
      "Ġmorning": 3236,
      "Ġshot": 3237,
      "cked": 3238,
      "ĠSummer": 3239,
      "Ġunre": 3240,
      "Ġmins": 3241,
      "Ġdehydra": 3242,
      "Ġadded": 3243,
      "ĠMixing": 3244,
      "ĠStarter": 3245,
      "Ġdespite": 3246,
      "djust": 3247,
      "etar": 3248,
      "ivid": 3249,
      "rs": 3250,
      "uals": 3251,
      "Ġamb": 3252,
      "Ġhrs": 3253,
      "ley": 3254,
      "ĠAdjust": 3255,
      "Ġnumb": 3256,
      "Ġsteaks": 3257,
      "Ġdiff": 3258,
      "Ġdietar": 3259,
      "Ġalong": 3260,
      "ĠRub": 3261,
      "Ġbare": 3262,
      "Ġmaintain": 3263,
      "Ġcount": 3264,
      "Ġindivid": 3265,
      "Ġevaporates": 3266,
      "Ġdidn": 3267,
      "Ġprogrammed": 3268,
      "Ġgoing": 3269,
      "Ġbarley": 3270,
      "ĠStep": 3271,
      "Ġnew": 3272,
      "Ġambient": 3273,
      "ĠAdjusting": 3274,
      "Ġnumber": 3275,
      "Ġdietary": 3276,
      "ĠRubaud": 3277,
      "Ġindividuals": 3278,
      "efore": 3279,
      "ertical": 3280,
      "Ġhi": 3281,
      "Ġhome": 3282,
      "Ġflou": 3283,
      "Ġtherm": 3284,
      "Ġdoing": 3285,
      "rite": 3286,
      "Ġcrusty": 3287,
      "ĠBefore": 3288,
      "Ġvertical": 3289,
      "Ġcups": 3290,
      "Ġfinis": 3291,
      "Ġcompare": 3292,
      "Ġtray": 3293,
      "ĠDifference": 3294,
      "ile": 3295,
      "Ġbf": 3296,
      "its": 3297,
      "Ġregular": 3298,
      "Ġancient": 3299,
      "Ġmixer": 3300,
      "ations": 3301,
      "Ġpullman": 3302,
      "Ġdissolves": 3303,
      "inter": 3304,
      "Ġpure": 3305,
      "ĠWinter": 3306,
      "stric": 3307,
      "ĠAdd": 3308,
      "iming": 3309,
      "Ġprefermented": 3310,
      "Ġchecking": 3311,
      "gnore": 3312,
      "Ġlinen": 3313,
      "Ġproperly": 3314,
      "Ġunrestric": 3315,
      "Ġunrestricted": 3316,
      "pan": 3317,
      "tro": 3318,
      "tes": 3319,
      "ory": 3320,
      "Ġpaste": 3321,
      "Ġhit": 3322,
      "olate": 3323,
      "Ġretro": 3324,
      "ĠWait": 3325,
      "ĠWhile": 3326,
      "Ġchip": 3327,
      "Ġchoc": 3328,
      "Ġcools": 3329,
      "Ġsepar": 3330,
      "Ġcreating": 3331,
      "ĠChecked": 3332,
      "gradation": 3333,
      "Ġworks": 3334,
      "Ġwindowpan": 3335,
      "Ġretrogradation": 3336,
      "Ġchocolate": 3337,
      "Ġseparate": 3338,
      "Ġwindowpane": 3339,
      "urate": 3340,
      "Ġfool": 3341,
      "Ġtool": 3342,
      "Ġlic": 3343,
      "icult": 3344,
      "Ġeat": 3345,
      "Ġconcer": 3346,
      "ensed": 3347,
      "Ġhello": 3348,
      "ĠFermentation": 3349,
      "Ġworking": 3350,
      "Ġpoke": 3351,
      "ician": 3352,
      "Ġphysician": 3353,
      "Ġputting": 3354,
      "Ġrevive": 3355,
      "Ġdiagnose": 3356,
      "Ġdifficult": 3357,
      "Ġlicensed": 3358,
      "Ġconcerns": 3359,
      "Ġcare": 3360,
      "ortant": 3361,
      "Ġhyd": 3362,
      "Ġinver": 3363,
      "Ġovens": 3364,
      "Ġminute": 3365,
      "Ġkill": 3366,
      "ipe": 3367,
      "ĠRec": 3368,
      "ĠTemperature": 3369,
      "Ġimportant": 3370,
      "Ġmeasure": 3371,
      "Ġentirely": 3372,
      "Ġhydr": 3373,
      "Ġinverted": 3374,
      "ĠRecipe": 3375,
      "eet": 3376,
      "ier": 3377,
      "Ġsome": 3378,
      "Ġoval": 3379,
      "Ġnorm": 3380,
      "Ġrose": 3381,
      "ommend": 3382,
      "shape": 3383,
      "Ġrecommend": 3384,
      "nsure": 3385,
      "ĠAltern": 3386,
      "ĠEnsure": 3387,
      "Ġchew": 3388,
      "ĠShaping": 3389,
      "Ġscorch": 3390,
      "Ġsweet": 3391,
      "Ġseams": 3392,
      "Ġmany": 3393,
      "Ġbenefits": 3394,
      "Ġflouer": 3395,
      "Ġfinished": 3396,
      "Ġnormal": 3397,
      "Ġrecommendations": 3398,
      "assis": 3399,
      "aerated": 3400,
      "brow": 3401,
      "dt": 3402,
      "here": 3403,
      "ion": 3404,
      "inite": 3405,
      "Ġsqu": 3406,
      "Ġpop": 3407,
      "Ġmel": 3408,
      "Ġthem": 3409,
      "Ġinst": 3410,
      "Ġstays": 3411,
      "ults": 3412,
      "ructions": 3413,
      "Ġthough": 3414,
      "ĠAiming": 3415,
      "cks": 3416,
      "ĠSystem": 3417,
      "rible": 3418,
      "Ġvia": 3419,
      "ĠNo": 3420,
      "Ġmust": 3421,
      "igns": 3422,
      "Ġindef": 3423,
      "245": 3424,
      "Ġbutter": 3425,
      "ĠPulled": 3426,
      "Ġresults": 3427,
      "Ġexactly": 3428,
      "Ġadjustments": 3429,
      "Ġterrible": 3430,
      "assisted": 3431,
      "brown": 3432,
      "initely": 3433,
      "Ġinstructions": 3434,
      "Ġindefinitely": 3435,
      "%)": 3436,
      "nch": 3437,
      "uge": 3438,
      "iness": 3439,
      "Ġsystem": 3440,
      "Ġta": 3441,
      "Ġbring": 3442,
      "Ġww": 3443,
      "Ġway": 3444,
      "Ġpl": 3445,
      "Ġhuge": 3446,
      "Ġcrunch": 3447,
      "ĠFix": 3448,
      "Ġbeh": 3449,
      "Ġslap": 3450,
      "Ġvinegar": 3451,
      "verting": 3452,
      "Ġchange": 3453,
      "Ġmean": 3454,
      "Ġletting": 3455,
      "Ġruin": 3456,
      "Ġproduce": 3457,
      "ĠPreheated": 3458,
      "Ġrubbing": 3459,
      "ometer": 3460,
      "Ġthermometer": 3461,
      "ĠFixing": 3462,
      "back": 3463,
      "cre": 3464,
      "ep": 3465,
      "falls": 3466,
      "ious": 3467,
      "sing": 3468,
      "uggish": 3469,
      "wall": 3470,
      "Ġbir": 3471,
      "Ġcake": 3472,
      "orage": 3473,
      "Ġpol": 3474,
      "Ġmis": 3475,
      "Ġlay": 3476,
      "itfalls": 3477,
      "anill": 3478,
      "Ġspace": 3479,
      "Ġstorage": 3480,
      "Ġraw": 3481,
      "Ġsluggish": 3482,
      "aint": 3483,
      "Ġfrosting": 3484,
      "Ġvanill": 3485,
      "ĠMath": 3486,
      "Ġspringback": 3487,
      "Ġblade": 3488,
      "ĠRT": 3489,
      "thday": 3490,
      "inkly": 3491,
      "Ġcrinkly": 3492,
      "tance": 3493,
      "Ġsuper": 3494,
      "ĠLoaf": 3495,
      "Ġburnt": 3496,
      "Ġrevi": 3497,
      "Ġdehydrate": 3498,
      "Ġmelting": 3499,
      "Ġbuttercre": 3500,
      "Ġbirthday": 3501,
      "Ġvanilla": 3502,
      "Ġbuttercream": 3503,
      "ably": 3504,
      "by": 3505,
      "cted": 3506,
      "ste": 3507,
      "ues": 3508,
      "uet": 3509,
      "Ġwrite": 3510,
      "Ġcues": 3511,
      "Ġhack": 3512,
      "alk": 3513,
      "icial": 3514,
      "Ġgass": 3515,
      "lected": 3516,
      "ĠDuring": 3517,
      "Ġsphere": 3518,
      "Ġignore": 3519,
      "Ġneg": 3520,
      "site": 3521,
      "Ġwarmer": 3522,
      "Ġtiming": 3523,
      "osing": 3524,
      "Ġfinish": 3525,
      "Ġbecome": 3526,
      "Ġsetup": 3527,
      "ensory": 3528,
      "Ġbaguet": 3529,
      "Ġcollapsing": 3530,
      "Ġrested": 3531,
      "diastatic": 3532,
      "ĠUnbleached": 3533,
      "rolong": 3534,
      "Ġpreserve": 3535,
      "Ġbeneficial": 3536,
      "Ġwebsite": 3537,
      "Ġincluding": 3538,
      "Ġscorching": 3539,
      "step": 3540,
      "Ġgassy": 3541,
      "Ġneglected": 3542,
      "Ġbaguettes": 3543,
      "cid": 3544,
      "gin": 3545,
      "lks": 3546,
      "mes": 3547,
      "sis": 3548,
      "Ġsil": 3549,
      "Ġaut": 3550,
      "Ġbr": 3551,
      "ista": 3552,
      "Ġdens": 3553,
      "Ġcure": 3554,
      "Ġtore": 3555,
      "Ġpool": 3556,
      "Ġhidd": 3557,
      "Ġhaz": 3558,
      "ancid": 3559,
      "Ġgap": 3560,
      "Ġstalks": 3561,
      "ulating": 3562,
      "Ġrever": 3563,
      "Ġrancid": 3564,
      "ĠDid": 3565,
      "Ġproxy": 3566,
      "Ġngin": 3567,
      "eviving": 3568,
      "ĠPitfalls": 3569,
      "ĠBest": 3570,
      "Ġslide": 3571,
      "Ġdivid": 3572,
      "ĠMove": 3573,
      "Ġjo": 3574,
      "ĠReviving": 3575,
      "Ġgray": 3576,
      "Ġdegass": 3577,
      "igure": 3578,
      "Ġbackup": 3579,
      "Ġgreen": 3580,
      "Ġharder": 3581,
      "Ġbased": 3582,
      "ffects": 3583,
      "Ġresis": 3584,
      "Ġchemical": 3585,
      "kneaded": 3586,
      "Ġcommand": 3587,
      "Ġconfigure": 3588,
      "Ġserver": 3589,
      "Ġdefl": 3590,
      "Ġdehydrated": 3591,
      "Ġplay": 3592,
      "Ġcrunchy": 3593,
      "Ġbehave": 3594,
      "Ġdenser": 3595,
      "Ġpooling": 3596,
      "Ġhidden": 3597,
      "Ġhazard": 3598,
      "Ġreverse": 3599,
      "Ġnginx": 3600,
      "Ġdividing": 3601,
      "Ġdegassing": 3602,
      "40": 3603,
      "break": 3604,
      "ded": 3605,
      "got": 3606,
      "mix": 3607,
      "nced": 3608,
      "numb": 3609,
      "over": 3610,
      "put": 3611,
      "star": 3612,
      "sant": 3613,
      "yth": 3614,
      "ĠJ": 3615,
      "Ġsort": 3616,
      "ounced": 3617,
      "erates": 3618,
      "issant": 3619,
      "reas": 3620,
      "Ġwait": 3621,
      "Ġcro": 3622,
      "Ġtoward": 3623,
      "Ġpron": 3624,
      "Ġpossible": 3625,
      "Ġpaint": 3626,
      "rail": 3627,
      "Ġforgot": 3628,
      "lements": 3629,
      "Ġelements": 3630,
      "ĠWrite": 3631,
      "eliz": 3632,
      "ĠDay": 3633,
      "Ġcome": 3634,
      "Ġact": 3635,
      "Ġnail": 3636,
      "ameliz": 3637,
      "Ġunbaked": 3638,
      "ardrail": 3639,
      "Ġminimum": 3640,
      "Ġprefer": 3641,
      "vers": 3642,
      "Ġoutput": 3643,
      "ĠLower": 3644,
      "Ġstreaks": 3645,
      "rowave": 3646,
      "Ġflatter": 3647,
      "Ġforms": 3648,
      "Ġclosed": 3649,
      "Ġheating": 3650,
      "Ġeasier": 3651,
      "Ġlidded": 3652,
      "Ġprevious": 3653,
      "Ġactivate": 3654,
      "Ġremover": 3655,
      "Ġmicrowave": 3656,
      "Ġabsorbs": 3657,
      "Ġlaminated": 3658,
      "Ġaccurate": 3659,
      "Ġfirms": 3660,
      "Ġsupple": 3661,
      "Ġanswers": 3662,
      "Ġcrispy": 3663,
      "ailbreak": 3664,
      "Ġthroughout": 3665,
      "Ġinstantly": 3666,
      "Ġcarameliz": 3667,
      "atives": 3668,
      "Ġstitching": 3669,
      "ĠAllow": 3670,
      "Ġoverrides": 3671,
      "Ġtreat": 3672,
      "Ġcontinuous": 3673,
      "Ġguardrail": 3674,
      "ĠConverting": 3675,
      "ĠFormulating": 3676,
      "Ġterm": 3677,
      "Ġcareer": 3678,
      "Ġpolish": 3679,
      "Ġrevived": 3680,
      "numbers": 3681,
      "starter": 3682,
      "ython": 3683,
      "issants": 3684,
      "reasing": 3685,
      "Ġcroissants": 3686,
      "Ġpronounced": 3687,
      "Ġforgotten": 3688,
      "Ġguardrails": 3689,
      "eably": 3690,
      "fl": 3691,
      "itions": 3692,
      "rill": 3693,
      "tol": 3694,
      "tten": 3695,
      "Ġaim": 3696,
      "erals": 3697,
      "erance": 3698,
      "Ġfell": 3699,
      "Ġmedi": 3700,
      "aton": 3701,
      "Ġthey": 3702,
      "Ġlone": 3703,
      "Ġintol": 3704,
      "anion": 3705,
      "ashes": 3706,
      "Ġgrill": 3707,
      "leep": 3708,
      "Ġreheat": 3709,
      "eline": 3710,
      "ottom": 3711,
      "Ġdoor": 3712,
      "ĠDevelop": 3713,
      "Ġglue": 3714,
      "Ġload": 3715,
      "ĠSigns": 3716,
      "ĠSensory": 3717,
      "Ġrare": 3718,
      "ĠBottom": 3719,
      "Ġsteak": 3720,
      "Ġrotten": 3721,
      "Ġminerals": 3722,
      "ticeably": 3723,
      "Ġbuy": 3724,
      "Ġweigh": 3725,
      "Ġvapor": 3726,
      "Ġpres": 3727,
      "ĠMaking": 3728,
      "Ġsticks": 3729,
      "ĠForget": 3730,
      "ĠLava": 3731,
      "Ġadditions": 3732,
      "Ġcausing": 3733,
      "Ġprotect": 3734,
      "Ġprotease": 3735,
      "Ġsodi": 3736,
      "Ġasleep": 3737,
      "Ġclose": 3738,
      "Ġdegas": 3739,
      "Ġdirection": 3740,
      "osis": 3741,
      "Ġarea": 3742,
      "Ġimmense": 3743,
      "Ġchlorinated": 3744,
      "Ġnoticeably": 3745,
      "Ġpulled": 3746,
      "Ġswings": 3747,
      "Ġbaseline": 3748,
      "Ġnatural": 3749,
      "Ġkitchens": 3750,
      "Ġcompanion": 3751,
      "Ġtanginess": 3752,
      "Ġdrafts": 3753,
      "atively": 3754,
      "Ġbreaks": 3755,
      "Ġguide": 3756,
      "Ġdiagnosis": 3757,
      "Ġinclude": 3758,
      "Ġmeasurements": 3759,
      "Ġhydraton": 3760,
      "ĠAlternatively": 3761,
      "Ġchewy": 3762,
      "Ġsquashes": 3763,
      "Ġautoly": 3764,
      "flow": 3765,
      "Ġmedium": 3766,
      "Ġlonely": 3767,
      "Ġintolerance": 3768,
      "ĠDeveloper": 3769,
      "Ġvaporize": 3770,
      "Ġsodium": 3771,
      "++": 3772,
      "FDT": 3773,
      "aos": 3774,
      "bu": 3775,
      "bling": 3776,
      "ete": 3777,
      "hau": 3778,
      "ied": 3779,
      "ition": 3780,
      "ivers": 3781,
      "mine": 3782,
      "pre": 3783,
      "sour": 3784,
      "sents": 3785,
      "ym": 3786,
      "zen": 3787,
      "ind": 3788,
      "Ġtree": 3789,
      "Ġtable": 3790,
      "Ġfalls": 3791,
      "Ġbinary": 3792,
      "isk": 3793,
      "ism": 3794,
      "isin": 3795,
      "Ġdone": 3796,
      "Ġdirt": 3797,
      "Ġddt": 3798,
      "Ġcam": 3799,
      "Ġcaves": 3800,
      "ndry": 3801,
      "times": 3802,
      "Ġprolong": 3803,
      "Ġmaster": 3804,
      "Ġmach": 3805,
      "Ġlau": 3806,
      "Ġinacc": 3807,
      "arch": 3808,
      "arning": 3809,
      "Ġgran": 3810,
      "Ġgym": 3811,
      "Ġforget": 3812,
      "ĠIgnore": 3813,
      "leading": 3814,
      "ulism": 3815,
      "ruit": 3816,
      "Ġrepre": 3817,
      "Ġshred": 3818,
      "Ġdoct": 3819,
      "ĠWhich": 3820,
      "ĠFruit": 3821,
      "Ġcoat": 3822,
      "Ġnow": 3823,
      "Ġunbrown": 3824,
      "Ġunivers": 3825,
      "Ġraisin": 3826,
      "ĠPentosans": 3827,
      "ĠPython": 3828,
      "Ġexhau": 3829,
      "Ġhydraition": 3830,
      "ticles": 3831,
      "Ġkind": 3832,
      "Ġfrozen": 3833,
      "Ġcrumbles": 3834,
      "ĠMedic": 3835,
      "Ġscrip": 3836,
      "Ġbotulism": 3837,
      "Ġblond": 3838,
      "Ġdebu": 3839,
      "Ġparticles": 3840,
      "Ġchalk": 3841,
      "Ġpanc": 3842,
      "ĠLevain": 3843,
      "Ġskins": 3844,
      "Ġsearch": 3845,
      "ĠAngle": 3846,
      "Ġleather": 3847,
      "Ġlearning": 3848,
      "Ġdrywall": 3849,
      "Ġsocks": 3850,
      "Ġbubbling": 3851,
      "Ġmud": 3852,
      "ĠEffects": 3853,
      "Ġcalculating": 3854,
      "ĠSharp": 3855,
      "Ġstartr": 3856,
      "Ġcontaining": 3857,
      "Ġrubaud": 3858,
      "Ġreadings": 3859,
      "Ġprogram": 3860,
      "producing": 3861,
      "Ġcompact": 3862,
      "Ġcompete": 3863,
      "gging": 3864,
      "Ġdetergent": 3865,
      "Ġworth": 3866,
      "Ġbarely": 3867,
      "ĠSteps": 3868,
      "Ġthermal": 3869,
      "Ġhydrating": 3870,
      "Ġsometimes": 3871,
      "Ġtaut": 3872,
      "Ġmisleading": 3873,
      "Ġlayer": 3874,
      "Ġbrisk": 3875,
      "Ġdirty": 3876,
      "Ġcame": 3877,
      "Ġmachine": 3878,
      "Ġlaundry": 3879,
      "Ġinaccurate": 3880,
      "Ġgranules": 3881,
      "Ġrepresents": 3882,
      "Ġdoctor": 3883,
      "Ġunbrowned": 3884,
      "Ġuniversal": 3885,
      "ĠMedical": 3886,
      "Ġscript": 3887,
      "Ġdebug": 3888,
      ")?": 3889,
      "DDT": 3890,
      "food": 3891,
      "gard": 3892,
      "oks": 3893,
      "uck": 3894,
      "uses": 3895,
      "±o": 3896,
      "Ã±o": 3897,
      "Ġtry": 3898,
      "eries": 3899,
      "Ġfit": 3900,
      "Ġfree": 3901,
      "rect": 3902,
      "regard": 3903,
      "Ġdest": 3904,
      "Ġcolor": 3905,
      "orrect": 3906,
      "alape": 3907,
      "Ġbakes": 3908,
      "Ġstarer": 3909,
      "Ġeating": 3910,
      "Ġrehydra": 3911,
      "ĠWill": 3912,
      "Ġrid": 3913,
      "Ġrules": 3914,
      "ĠWho": 3915,
      "ĠDia": 3916,
      "Ġstuck": 3917,
      "Ġlooks": 3918,
      "ĠCorrect": 3919,
      "ĠBench": 3920,
      "Ġqueries": 3921,
      "Ġcancer": 3922,
      "Ġalone": 3923,
      "Ġjalape": 3924,
      "ferments": 3925,
      "thin": 3926,
      "Ġclos": 3927,
      "Ġrefuses": 3928,
      "Ġevil": 3929,
      "Ġdiscarding": 3930,
      "Ġenzyme": 3931,
      "Ġrounds": 3932,
      "Ġfilters": 3933,
      "Ġimpact": 3934,
      "Ġsigns": 3935,
      "gnosing": 3936,
      "Ġspecific": 3937,
      "Ġdrafty": 3938,
      "betes": 3939,
      "Ġgentle": 3940,
      "Ġtechniques": 3941,
      "Ġnext": 3942,
      "Ġdiabetes": 3943,
      "ĠDifferences": 3944,
      "ĠAlternatives": 3945,
      "Ġresistance": 3946,
      "Ġdeflating": 3947,
      "Ġhazardous": 3948,
      "Ġautolysis": 3949,
      "Ġfreely": 3950,
      "Ġdestro": 3951,
      "Ġrehydrate": 3952,
      "ĠDiagnosing": 3953,
      "ĠjalapeÃ±o": 3954,
      "Ġcloses": 3955,
      "475": 3956,
      "92": 3957,
      "GP": 3958,
      "ab": 3959,
      "assistant": 3960,
      "bac": 3961,
      "bil": 3962,
      "bble": 3963,
      "dense": 3964,
      "ement": 3965,
      "fed": 3966,
      "fold": 3967,
      "gredient": 3968,
      "ground": 3969,
      "ky": 3970,
      "kable": 3971,
      "mista": 3972,
      "ng": 3973,
      "ner": 3974,
      "oy": 3975,
      "obble": 3976,
      "pears": 3977,
      "waste": 3978,
      "zed": 3979,
      "Ġ#": 3980,
      "Ġaerates": 3981,
      "erous": 3982,
      "ergi": 3983,
      "errated": 3984,
      "Ġfeat": 3985,
      "ison": 3986,
      "Ġdes": 3987,
      "Ġdang": 3988,
      "Ġwake": 3989,
      "Ġwobble": 3990,
      "onge": 3991,
      "ends": 3992,
      "Ġcra": 3993,
      "Ġcust": 3994,
      "Ġcement": 3995,
      "orks": 3996,
      "estic": 3997,
      "Ġpill": 3998,
      "Ġpoking": 3999,
      "Ġpier": 4000,
      "Ġpestic": 4001,
      "itor": 4002,
      "olated": 4003,
      "aran": 4004,
      "arlic": 4005,
      "asted": 4006,
      "owy": 4007,
      "Ġgard": 4008,
      "Ġgarlic": 4009,
      "ĠImm": 4010,
      "Ġisolated": 4011,
      "Ġorder": 4012,
      "ĠWheat": 4013,
      "Ġshaking": 4014,
      "Ġteach": 4015,
      "Ġdome": 4016,
      "tobac": 4017,
      "ĠTrans": 4018,
      "ĠAerated": 4019,
      "quate": 4020,
      "Ġspran": 4021,
      "Ġsponge": 4022,
      "Ġaccep": 4023,
      "ĠSerrated": 4024,
      "Ġnever": 4025,
      "Ġnutri": 4026,
      "Ġ208": 4027,
      "afe": 4028,
      "ĠCF": 4029,
      "Ġunfed": 4030,
      "Ġunmista": 4031,
      "ĠBelow": 4032,
      "Ġquery": 4033,
      "Ġroasted": 4034,
      "Ġbuoy": 4035,
      "Ġyeasts": 4036,
      "Ġenab": 4037,
      "omer": 4038,
      "ĠMo": 4039,
      "Ġdoesn": 4040,
      "ationsh": 4041,
      "Ġyoung": 4042,
      "Ġpartial": 4043,
      "ĠInade": 4044,
      "ĠIngredient": 4045,
      "illi": 4046,
      "Ġupward": 4047,
      "Ġrecoil": 4048,
      "Ġseals": 4049,
      "Ġcupped": 4050,
      "Ġallergi": 4051,
      "Ġrefresh": 4052,
      "ediate": 4053,
      "Ġdeeper": 4054,
      "Ġdownward": 4055,
      "ĠPress": 4056,
      "Ġcheck": 4057,
      "Ġratios": 4058,
      "Ġlactobac": 4059,
      "Ġsoftness": 4060,
      "Ġreached": 4061,
      "Ġfeedings": 4062,
      "Ġretarded": 4063,
      "Ġstoneground": 4064,
      "Ġneeding": 4065,
      "Ġliquef": 4066,
      "Ġrestore": 4067,
      "Ġlacking": 4068,
      "ĠChaos": 4069,
      "Ġswitch": 4070,
      "Ġpeaks": 4071,
      "Ġpartner": 4072,
      "Ġrequired": 4073,
      "Ġrelationsh": 4074,
      "Ġcube": 4075,
      "Ġmonitor": 4076,
      "Ġnetworks": 4077,
      "Ġcurve": 4078,
      "Ġjiggle": 4079,
      "ĠUnder": 4080,
      "Ġappears": 4081,
      "Ġpoison": 4082,
      "ĠSlow": 4083,
      "ĠSlip": 4084,
      "Ġfuel": 4085,
      "Ġbrewer": 4086,
      "Ġtunnels": 4087,
      "Ġtuck": 4088,
      "Ġextensibil": 4089,
      "Ġguaran": 4090,
      "ĠGive": 4091,
      "Ġwont": 4092,
      "Ġprior": 4093,
      "Ġnear": 4094,
      "Ġbyproducts": 4095
    },
    "merges": [
      [
        "t",
        "e"
      ],
      [
        "i",
        "n"
      ],
      [
        "Ġ",
        "s"
      ],
      [
        "o",
        "u"
      ],
      [
        "e",
        "n"
      ],
      [
        "Ġ",
        "a"
      ],
      [
        "Ġ",
        "t"
      ],
      [
        "e",
        "r"
      ],
      [
        "Ġ",
        "f"
      ],
      [
        "o",
        "f"
      ],
      [
        "Ġ",
        "b"
      ],
      [
        "t",
        "a"
      ],
      [
        "i",
        "s"
      ],
      [
        "r",
        "e"
      ],
      [
        "Ġ",
        "d"
      ],
      [
        "Ġ",
        "w"
      ],
      [
        "o",
        "n"
      ],
      [
        "in",
        "g"
      ],
      [
        "en",
        "d"
      ],
      [
        "Ġ",
        "c"
      ],
      [
        "of",
        "te"
      ],
      [
        "x",
        "t"
      ],
      [
        "<",
        "|"
      ],
      [
        "|",
        ">"
      ],
      [
        "end",
        "ofte"
      ],
      [
        "endofte",
        "xt"
      ],
      [
        "g",
        "h"
      ],
      [
        "o",
        "r"
      ],
      [
        "n",
        "d"
      ],
      [
        "ou",
        "r"
      ],
      [
        "h",
        "e"
      ],
      [
        "ou",
        "gh"
      ],
      [
        "t",
        "i"
      ],
      [
        "Ġt",
        "o"
      ],
      [
        "te",
        "r"
      ],
      [
        "e",
        "s"
      ],
      [
        "Ġa",
        "nd"
      ],
      [
        "Ġ",
        "p"
      ],
      [
        "Ġ",
        "m"
      ],
      [
        "s",
        "s"
      ],
      [
        "a",
        "t"
      ],
      [
        "n",
        "t"
      ],
      [
        "Ġt",
        "he"
      ],
      [
        "U",
        "s"
      ],
      [
        "Ġ",
        "l"
      ],
      [
        "e",
        "d"
      ],
      [
        "Ġ",
        "h"
      ],
      [
        "ta",
        "nt"
      ],
      [
        "Ġ",
        "in"
      ],
      [
        "ss",
        "is"
      ],
      [
        "ssis",
        "tant"
      ],
      [
        "i",
        "t"
      ],
      [
        ".",
        "<|"
      ],
      [
        "A",
        "ssistant"
      ],
      [
        "Us",
        "er"
      ],
      [
        "o",
        "l"
      ],
      [
        "a",
        "r"
      ],
      [
        "a",
        "k"
      ],
      [
        "a",
        "l"
      ],
      [
        "r",
        "o"
      ],
      [
        "l",
        "y"
      ],
      [
        "ti",
        "on"
      ],
      [
        "a",
        "n"
      ],
      [
        "our",
        "d"
      ],
      [
        "a",
        "s"
      ],
      [
        "ourd",
        "ough"
      ],
      [
        "o",
        "w"
      ],
      [
        "Ġ",
        "u"
      ],
      [
        "i",
        "c"
      ],
      [
        "Ġd",
        "ough"
      ],
      [
        "Ġs",
        "ourdough"
      ],
      [
        "Ġ",
        "g"
      ],
      [
        "Ġ",
        "1"
      ],
      [
        "r",
        "a"
      ],
      [
        "Ġf",
        "or"
      ],
      [
        "Ġf",
        "l"
      ],
      [
        "Ġs",
        "ta"
      ],
      [
        "i",
        "d"
      ],
      [
        "Ġ",
        "I"
      ],
      [
        "l",
        "e"
      ],
      [
        "Ġ",
        "is"
      ],
      [
        "Ġb",
        "ak"
      ],
      [
        "Ġsta",
        "r"
      ],
      [
        "it",
        "h"
      ],
      [
        "Ġ",
        "or"
      ],
      [
        "Â",
        "°"
      ],
      [
        "Ġ",
        "o"
      ],
      [
        "Ġw",
        "ith"
      ],
      [
        "a",
        "d"
      ],
      [
        "u",
        "l"
      ],
      [
        "Ġ",
        "2"
      ],
      [
        "Ġfl",
        "our"
      ],
      [
        "a",
        "c"
      ],
      [
        "Ġ",
        "e"
      ],
      [
        "en",
        "t"
      ],
      [
        "e",
        "t"
      ],
      [
        "r",
        "u"
      ],
      [
        "Ġ",
        "y"
      ],
      [
        "Ġ",
        "re"
      ],
      [
        "Ġ",
        "W"
      ],
      [
        "e",
        "l"
      ],
      [
        "Ġstar",
        "ter"
      ],
      [
        "a",
        "ter"
      ],
      [
        "Ġw",
        "h"
      ],
      [
        "c",
        "h"
      ],
      [
        "ol",
        "d"
      ],
      [
        "i",
        "l"
      ],
      [
        "Ġw",
        "ater"
      ],
      [
        "Ġs",
        "h"
      ],
      [
        "o",
        "t"
      ],
      [
        "Ġt",
        "h"
      ],
      [
        "s",
        "t"
      ],
      [
        "a",
        "te"
      ],
      [
        "er",
        "m"
      ],
      [
        "Ġ",
        "on"
      ],
      [
        "Ġo",
        "v"
      ],
      [
        "a",
        "p"
      ],
      [
        "Ġ",
        "("
      ],
      [
        "Ġ",
        "r"
      ],
      [
        "m",
        "p"
      ],
      [
        "u",
        "te"
      ],
      [
        "Ġ",
        "te"
      ],
      [
        "Ġ",
        "of"
      ],
      [
        "s",
        "e"
      ],
      [
        "u",
        "r"
      ],
      [
        "Ġd",
        "o"
      ],
      [
        "Ġ",
        "H"
      ],
      [
        "ĠW",
        "h"
      ],
      [
        "re",
        "ad"
      ],
      [
        "en",
        "ta"
      ],
      [
        "t",
        "o"
      ],
      [
        "Ġ",
        "T"
      ],
      [
        "Ġc",
        "ru"
      ],
      [
        "Ġ",
        "A"
      ],
      [
        "i",
        "gh"
      ],
      [
        "u",
        "re"
      ],
      [
        "q",
        "u"
      ],
      [
        "e",
        "ed"
      ],
      [
        "Ġ",
        "it"
      ],
      [
        "c",
        "k"
      ],
      [
        "v",
        "e"
      ],
      [
        "Ġ",
        "D"
      ],
      [
        "Ġb",
        "read"
      ],
      [
        "Ġp",
        "ro"
      ],
      [
        "Ġf",
        "erm"
      ],
      [
        "Ġ",
        "F"
      ],
      [
        "Ġc",
        "o"
      ],
      [
        "Ġs",
        "p"
      ],
      [
        "Ġa",
        "c"
      ],
      [
        "enta",
        "tion"
      ],
      [
        "Ġg",
        "l"
      ],
      [
        "Ġ",
        "i"
      ],
      [
        "Ġ1",
        "0"
      ],
      [
        "Ġbak",
        "ing"
      ],
      [
        "Ġs",
        "t"
      ],
      [
        "as",
        "t"
      ],
      [
        "Ġc",
        "on"
      ],
      [
        "Ġl",
        "o"
      ],
      [
        "ute",
        "n"
      ],
      [
        "Ġgl",
        "uten"
      ],
      [
        "Ġ",
        "S"
      ],
      [
        "Ġ",
        "n"
      ],
      [
        "Ġov",
        "en"
      ],
      [
        "Ġ2",
        "0"
      ],
      [
        "ou",
        "t"
      ],
      [
        "Ġa",
        "n"
      ],
      [
        "Ġa",
        "t"
      ],
      [
        "Ġm",
        "y"
      ],
      [
        "ĠH",
        "ow"
      ],
      [
        "e",
        "v"
      ],
      [
        "a",
        "m"
      ],
      [
        "Ġb",
        "e"
      ],
      [
        "a",
        "f"
      ],
      [
        "Ġ",
        "C"
      ],
      [
        "Ġ",
        "3"
      ],
      [
        "o",
        "re"
      ],
      [
        "igh",
        "t"
      ],
      [
        "Ġu",
        "n"
      ],
      [
        "Ġferm",
        "entation"
      ],
      [
        "a",
        "nd"
      ],
      [
        "r",
        "i"
      ],
      [
        "s",
        "i"
      ],
      [
        "Ġa",
        "d"
      ],
      [
        "g",
        "e"
      ],
      [
        "ar",
        "d"
      ],
      [
        "Ġsh",
        "ap"
      ],
      [
        "Ġ",
        "4"
      ],
      [
        "a",
        "v"
      ],
      [
        "Ġy",
        "our"
      ],
      [
        "er",
        "at"
      ],
      [
        "y",
        "d"
      ],
      [
        "yd",
        "ra"
      ],
      [
        "Ġbak",
        "e"
      ],
      [
        "u",
        "t"
      ],
      [
        "id",
        "e"
      ],
      [
        "ĠWh",
        "at"
      ],
      [
        "Ġcru",
        "st"
      ],
      [
        "Ġte",
        "mp"
      ],
      [
        "e",
        "e"
      ],
      [
        "i",
        "m"
      ],
      [
        "Ġ",
        "ra"
      ],
      [
        "Ġ",
        "P"
      ],
      [
        "m",
        "b"
      ],
      [
        "Ġ",
        "B"
      ],
      [
        "Ġs",
        "te"
      ],
      [
        "Ġb",
        "y"
      ],
      [
        "Ġe",
        "x"
      ],
      [
        "Ġh",
        "ydra"
      ],
      [
        "Ġh",
        "our"
      ],
      [
        "u",
        "m"
      ],
      [
        "Ġs",
        "ti"
      ],
      [
        "Ġlo",
        "af"
      ],
      [
        "Ġu",
        "nd"
      ],
      [
        "i",
        "r"
      ],
      [
        "Ġ",
        "qu"
      ],
      [
        "Ġ",
        "ro"
      ],
      [
        "Ġu",
        "se"
      ],
      [
        "ul",
        "k"
      ],
      [
        "Ġin",
        "to"
      ],
      [
        "Ġ",
        "5"
      ],
      [
        "e",
        "ast"
      ],
      [
        "il",
        "d"
      ],
      [
        "ic",
        "e"
      ],
      [
        "l",
        "es"
      ],
      [
        "Ġm",
        "in"
      ],
      [
        "Ġl",
        "i"
      ],
      [
        "Ġc",
        "an"
      ],
      [
        "ti",
        "c"
      ],
      [
        "Ġov",
        "er"
      ],
      [
        "Ġb",
        "u"
      ],
      [
        "a",
        "y"
      ],
      [
        "Ġ",
        "k"
      ],
      [
        "Ġhydra",
        "tion"
      ],
      [
        "Ġund",
        "er"
      ],
      [
        "erat",
        "ure"
      ],
      [
        "Ġ",
        "he"
      ],
      [
        "Ġs",
        "l"
      ],
      [
        "Ġtemp",
        "erature"
      ],
      [
        "Ġw",
        "e"
      ],
      [
        "Ġb",
        "ulk"
      ],
      [
        "f",
        "f"
      ],
      [
        "Ġf",
        "old"
      ],
      [
        "Ġd",
        "i"
      ],
      [
        "a",
        "in"
      ],
      [
        "Ġf",
        "ro"
      ],
      [
        "u",
        "c"
      ],
      [
        "i",
        "p"
      ],
      [
        "Ġ",
        "v"
      ],
      [
        "ur",
        "ing"
      ],
      [
        "Ġp",
        "re"
      ],
      [
        "Ġy",
        "east"
      ],
      [
        "Ġfro",
        "m"
      ],
      [
        "Ġ",
        "en"
      ],
      [
        "Ġd",
        "uring"
      ],
      [
        "a",
        "u"
      ],
      [
        "Ġc",
        "old"
      ],
      [
        "al",
        "l"
      ],
      [
        "ee",
        "p"
      ],
      [
        "on",
        "g"
      ],
      [
        "i",
        "x"
      ],
      [
        "Ġd",
        "is"
      ],
      [
        "ute",
        "s"
      ],
      [
        "si",
        "on"
      ],
      [
        "o",
        "m"
      ],
      [
        "Ġhour",
        "s"
      ],
      [
        ")",
        ","
      ],
      [
        "Ġcru",
        "mb"
      ],
      [
        "r",
        "ing"
      ],
      [
        "Ġwh",
        "en"
      ],
      [
        "Ġr",
        "is"
      ],
      [
        "Ġa",
        "l"
      ],
      [
        "l",
        "d"
      ],
      [
        "ou",
        "ld"
      ],
      [
        "Ġmin",
        "utes"
      ],
      [
        "Ġ",
        "M"
      ],
      [
        "ac",
        "k"
      ],
      [
        "es",
        "tion"
      ],
      [
        "Ġth",
        "at"
      ],
      [
        "Ġqu",
        "estion"
      ],
      [
        "al",
        "t"
      ],
      [
        "Ġp",
        "er"
      ],
      [
        "Ġs",
        "c"
      ],
      [
        "Ġwith",
        "out"
      ],
      [
        "Ġsp",
        "ring"
      ],
      [
        "Ġin",
        "s"
      ],
      [
        "b",
        "le"
      ],
      [
        "ar",
        "m"
      ],
      [
        "c",
        "t"
      ],
      [
        "Ġb",
        "ot"
      ],
      [
        "Ġb",
        "l"
      ],
      [
        "te",
        "d"
      ],
      [
        "re",
        "d"
      ],
      [
        "k",
        "e"
      ],
      [
        "Ġ",
        "7"
      ],
      [
        "Ġdo",
        "es"
      ],
      [
        "Ġh",
        "and"
      ],
      [
        "ate",
        "d"
      ],
      [
        "ol",
        "e"
      ],
      [
        "u",
        "p"
      ],
      [
        "ĠWh",
        "y"
      ],
      [
        "Ġs",
        "m"
      ],
      [
        "as",
        "e"
      ],
      [
        "ĠT",
        "h"
      ],
      [
        "Ġd",
        "e"
      ],
      [
        "ac",
        "e"
      ],
      [
        "f",
        "ore"
      ],
      [
        "Ġm",
        "ix"
      ],
      [
        "in",
        "e"
      ],
      [
        "Ġad",
        "v"
      ],
      [
        "Ġ",
        "8"
      ],
      [
        "v",
        "er"
      ],
      [
        "Ġsh",
        "ould"
      ],
      [
        "Ġ10",
        "0"
      ],
      [
        "Ġste",
        "am"
      ],
      [
        "Ġsti",
        "ck"
      ],
      [
        "Ġbe",
        "fore"
      ],
      [
        "b",
        "les"
      ],
      [
        "y",
        "e"
      ],
      [
        "a",
        "tion"
      ],
      [
        "Ġ",
        "6"
      ],
      [
        "at",
        "h"
      ],
      [
        "ta",
        "l"
      ],
      [
        "Ġ",
        "j"
      ],
      [
        "Ġw",
        "arm"
      ],
      [
        "in",
        "s"
      ],
      [
        "Ġy",
        "ou"
      ],
      [
        "d",
        "uc"
      ],
      [
        "Ġshap",
        "ing"
      ],
      [
        "to",
        "m"
      ],
      [
        "ĠC",
        "an"
      ],
      [
        "Ġris",
        "e"
      ],
      [
        "Ġp",
        "ar"
      ],
      [
        "ak",
        "e"
      ],
      [
        "Ġbot",
        "tom"
      ],
      [
        "Ġwh",
        "i"
      ],
      [
        "Ġ",
        "Us"
      ],
      [
        "Ġf",
        "eed"
      ],
      [
        "p",
        "en"
      ],
      [
        "he",
        "at"
      ],
      [
        "ĠF",
        "or"
      ],
      [
        "Ġh",
        "igh"
      ],
      [
        "Ġwe",
        "ight"
      ],
      [
        "t",
        "ch"
      ],
      [
        "ta",
        "r"
      ],
      [
        "Ġ3",
        "0"
      ],
      [
        "ti",
        "l"
      ],
      [
        "Ġli",
        "ke"
      ],
      [
        "Ġun",
        "til"
      ],
      [
        "ay",
        "s"
      ],
      [
        "Ġac",
        "ti"
      ],
      [
        "ĠI",
        "n"
      ],
      [
        "o",
        "o"
      ],
      [
        "ic",
        "k"
      ],
      [
        "Ġstick",
        "y"
      ],
      [
        "Ġac",
        "id"
      ],
      [
        "Ġu",
        "s"
      ],
      [
        "Ġbu",
        "ild"
      ],
      [
        "i",
        "a"
      ],
      [
        "Ġc",
        "h"
      ],
      [
        "ent",
        "ly"
      ],
      [
        "Ġ",
        "9"
      ],
      [
        "il",
        "l"
      ],
      [
        "Ġu",
        "p"
      ],
      [
        "al",
        "ly"
      ],
      [
        "s",
        "h"
      ],
      [
        "o",
        "p"
      ],
      [
        "o",
        "ot"
      ],
      [
        "m",
        "m"
      ],
      [
        "f",
        "erm"
      ],
      [
        "c",
        "ul"
      ],
      [
        "ra",
        "p"
      ],
      [
        "Ġbak",
        "er"
      ],
      [
        "Ġr",
        "ye"
      ],
      [
        "Ġadv",
        "ice"
      ],
      [
        "r",
        "y"
      ],
      [
        "Ġper",
        "c"
      ],
      [
        "Ġ",
        "out"
      ],
      [
        "Ġ5",
        "0"
      ],
      [
        "Ġfold",
        "s"
      ],
      [
        "c",
        "e"
      ],
      [
        "Ġ",
        "R"
      ],
      [
        "Ġa",
        "b"
      ],
      [
        "Ġm",
        "e"
      ],
      [
        "Ġt",
        "im"
      ],
      [
        "es",
        "s"
      ],
      [
        "Ġre",
        "c"
      ],
      [
        "Ġco",
        "ol"
      ],
      [
        "t",
        "s"
      ],
      [
        "Ġf",
        "ir"
      ],
      [
        "Ġp",
        "an"
      ],
      [
        "Ġro",
        "om"
      ],
      [
        "Ġc",
        "au"
      ],
      [
        "Ġwh",
        "ole"
      ],
      [
        "Ġ",
        "L"
      ],
      [
        "Ġshap",
        "e"
      ],
      [
        "er",
        "e"
      ],
      [
        "Ġin",
        "c"
      ],
      [
        "Ġst",
        "re"
      ],
      [
        "Ġcon",
        "ta"
      ],
      [
        "Ġad",
        "d"
      ],
      [
        "r",
        "ou"
      ],
      [
        "Ġw",
        "et"
      ],
      [
        "Ġm",
        "o"
      ],
      [
        "i",
        "ent"
      ],
      [
        "mp",
        "le"
      ],
      [
        "a",
        "ve"
      ],
      [
        "Ġf",
        "r"
      ],
      [
        "Ġh",
        "ow"
      ],
      [
        "ate",
        "s"
      ],
      [
        "ev",
        "el"
      ],
      [
        "ak",
        "ing"
      ],
      [
        "el",
        "l"
      ],
      [
        "Ġperc",
        "enta"
      ],
      [
        "Ġwhi",
        "le"
      ],
      [
        "Ġex",
        "p"
      ],
      [
        "ĠTh",
        "is"
      ],
      [
        "Ġs",
        "alt"
      ],
      [
        "Ġ1",
        "2"
      ],
      [
        "f",
        "ter"
      ],
      [
        "ow",
        "n"
      ],
      [
        ")",
        "."
      ],
      [
        "tar",
        "d"
      ],
      [
        "Ġs",
        "k"
      ],
      [
        "Ġs",
        "ur"
      ],
      [
        "Ġto",
        "tal"
      ],
      [
        "Ġs",
        "e"
      ],
      [
        "Ġcau",
        "s"
      ],
      [
        "?",
        "?"
      ],
      [
        "n",
        "s"
      ],
      [
        "l",
        "u"
      ],
      [
        "ol",
        "l"
      ],
      [
        "ro",
        "w"
      ],
      [
        "i",
        "z"
      ],
      [
        "on",
        "d"
      ],
      [
        "he",
        "d"
      ],
      [
        "Ġn",
        "ot"
      ],
      [
        "ĠUs",
        "e"
      ],
      [
        "ol",
        "y"
      ],
      [
        "t",
        "ing"
      ],
      [
        "ĠA",
        "n"
      ],
      [
        "Ġc",
        "re"
      ],
      [
        "Ġh",
        "as"
      ],
      [
        "'",
        "s"
      ],
      [
        "p",
        "ro"
      ],
      [
        "Ġl",
        "e"
      ],
      [
        "Ġs",
        "eed"
      ],
      [
        "Ġl",
        "ong"
      ],
      [
        "c",
        "ard"
      ],
      [
        "Ġrec",
        "ip"
      ],
      [
        "Ġc",
        "up"
      ],
      [
        "Ġstre",
        "tch"
      ],
      [
        "Ġth",
        "en"
      ],
      [
        "Ġsur",
        "f"
      ],
      [
        "Ġg",
        "ra"
      ],
      [
        "n",
        "sion"
      ],
      [
        "Ġte",
        "nsion"
      ],
      [
        "Ġth",
        "an"
      ],
      [
        "Ġi",
        "f"
      ],
      [
        "i",
        "ly"
      ],
      [
        "Ġb",
        "en"
      ],
      [
        "v",
        "ide"
      ],
      [
        "Ġl",
        "et"
      ],
      [
        "ic",
        "h"
      ],
      [
        "Ġst",
        "r"
      ],
      [
        "Ġk",
        "n"
      ],
      [
        "Ġ",
        "/"
      ],
      [
        "ĠI",
        "t"
      ],
      [
        "i",
        "f"
      ],
      [
        "Ġfl",
        "at"
      ],
      [
        "is",
        "t"
      ],
      [
        "Ġhand",
        "s"
      ],
      [
        "te",
        "n"
      ],
      [
        "Ġl",
        "ow"
      ],
      [
        "av",
        "es"
      ],
      [
        "Ġal",
        "l"
      ],
      [
        "Ġd",
        "ry"
      ],
      [
        "on",
        "e"
      ],
      [
        "Ġro",
        "ck"
      ],
      [
        "oo",
        "d"
      ],
      [
        "Ġtim",
        "e"
      ],
      [
        "ul",
        "l"
      ],
      [
        "evel",
        "op"
      ],
      [
        "Ġt",
        "ur"
      ],
      [
        "an",
        "s"
      ],
      [
        "Ġpro",
        "te"
      ],
      [
        "Ġj",
        "ar"
      ],
      [
        "oly",
        "se"
      ],
      [
        "Ġof",
        "f"
      ],
      [
        "Ġ",
        "N"
      ],
      [
        "ar",
        "y"
      ],
      [
        "Ġk",
        "eep"
      ],
      [
        "Ġg",
        "ently"
      ],
      [
        "Ġw",
        "heat"
      ],
      [
        "Ġte",
        "ar"
      ],
      [
        "Ġfor",
        "m"
      ],
      [
        "Ġste",
        "el"
      ],
      [
        "Ġsurf",
        "ace"
      ],
      [
        "Ġb",
        "a"
      ],
      [
        "t",
        "h"
      ],
      [
        "Ġe",
        "ar"
      ],
      [
        "Ġus",
        "ing"
      ],
      [
        "Ġs",
        "o"
      ],
      [
        "Ġa",
        "s"
      ],
      [
        "Ġw",
        "ild"
      ],
      [
        "Ġto",
        "p"
      ],
      [
        "Ġo",
        "pen"
      ],
      [
        "Ġpercenta",
        "ge"
      ],
      [
        "Ġc",
        "l"
      ],
      [
        "Ġ2",
        "4"
      ],
      [
        "Ġre",
        "f"
      ],
      [
        "ut",
        "ch"
      ],
      [
        "id",
        "ge"
      ],
      [
        "Ġfr",
        "idge"
      ],
      [
        "Ġb",
        "ac"
      ],
      [
        "Ġto",
        "o"
      ],
      [
        "Ġbac",
        "ter"
      ],
      [
        "Ġs",
        "u"
      ],
      [
        "ĠI",
        "f"
      ],
      [
        "av",
        "or"
      ],
      [
        "Ġhe",
        "at"
      ],
      [
        "Ġde",
        "g"
      ],
      [
        "l",
        "or"
      ],
      [
        "Ġsta",
        "nd"
      ],
      [
        "Ġpro",
        "of"
      ],
      [
        "g",
        "es"
      ],
      [
        "um",
        "e"
      ],
      [
        "Ġfir",
        "st"
      ],
      [
        "h",
        "oot"
      ],
      [
        "ĠD",
        "o"
      ],
      [
        "ri",
        "g"
      ],
      [
        "ĠM",
        "y"
      ],
      [
        "bles",
        "hoot"
      ],
      [
        "rou",
        "bleshoot"
      ],
      [
        "roubleshoot",
        "ing"
      ],
      [
        "ĠT",
        "e"
      ],
      [
        "n",
        "ing"
      ],
      [
        "Ġref",
        "rig"
      ],
      [
        "Ġ",
        "="
      ],
      [
        "Ġsm",
        "ell"
      ],
      [
        "Ġ",
        "ru"
      ],
      [
        "ĠTe",
        "mp"
      ],
      [
        "er",
        "s"
      ],
      [
        "Ġh",
        "ave"
      ],
      [
        "ev",
        "er"
      ],
      [
        "er",
        "y"
      ],
      [
        "Ġe",
        "v"
      ],
      [
        "ev",
        "ain"
      ],
      [
        "7",
        "5"
      ],
      [
        "Ġa",
        "fter"
      ],
      [
        "Ġwh",
        "at"
      ],
      [
        "um",
        "m"
      ],
      [
        "he",
        "s"
      ],
      [
        "Ġacti",
        "ve"
      ],
      [
        "al",
        "cul"
      ],
      [
        "Ġbu",
        "b"
      ],
      [
        "Ġc",
        "le"
      ],
      [
        "Ġcle",
        "an"
      ],
      [
        "ed",
        "i"
      ],
      [
        "Ġferm",
        "ent"
      ],
      [
        "Ġd",
        "eep"
      ],
      [
        "Ġl",
        "evain"
      ],
      [
        "ate",
        "ly"
      ],
      [
        "Ġsk",
        "in"
      ],
      [
        "Ġdi",
        "re"
      ],
      [
        "Ġd",
        "own"
      ],
      [
        "Ġg",
        "as"
      ],
      [
        "Ġpro",
        "duc"
      ],
      [
        "a",
        "ss"
      ],
      [
        "Ġbl",
        "is"
      ],
      [
        "Ġe",
        "as"
      ],
      [
        "Ġmix",
        "ing"
      ],
      [
        "Ġl",
        "id"
      ],
      [
        "r",
        "on"
      ],
      [
        "at",
        "ing"
      ],
      [
        "e",
        "y"
      ],
      [
        "o",
        "s"
      ],
      [
        "5",
        "0"
      ],
      [
        "ro",
        "p"
      ],
      [
        "z",
        "y"
      ],
      [
        "Ġrock",
        "s"
      ],
      [
        "m",
        "ent"
      ],
      [
        "Ġin",
        "ch"
      ],
      [
        "id",
        "es"
      ],
      [
        "ĠD",
        "utch"
      ],
      [
        "Ġm",
        "u"
      ],
      [
        "n",
        "ot"
      ],
      [
        "Ġa",
        "m"
      ],
      [
        "Ġcan",
        "not"
      ],
      [
        "Ġa",
        "re"
      ],
      [
        "sion",
        "s"
      ],
      [
        "lu",
        "sions"
      ],
      [
        "a",
        "nt"
      ],
      [
        "en",
        "ted"
      ],
      [
        "as",
        "ter"
      ],
      [
        "Ġra",
        "ck"
      ],
      [
        "Ġb",
        "ow"
      ],
      [
        "ĠA",
        "l"
      ],
      [
        "Ġ9",
        "0"
      ],
      [
        "Ġbow",
        "l"
      ],
      [
        "Ġsl",
        "ow"
      ],
      [
        "n",
        "et"
      ],
      [
        "Ġf",
        "in"
      ],
      [
        "Ġb",
        "an"
      ],
      [
        "net",
        "on"
      ],
      [
        "Ġban",
        "neton"
      ],
      [
        "n",
        "e"
      ],
      [
        "ut",
        "olyse"
      ],
      [
        "Ġh",
        "old"
      ],
      [
        "k",
        "s"
      ],
      [
        "re",
        "e"
      ],
      [
        "te",
        "ad"
      ],
      [
        "Ġt",
        "rap"
      ],
      [
        "it",
        "y"
      ],
      [
        "Ġbe",
        "c"
      ],
      [
        "Ġ7",
        "5"
      ],
      [
        "al",
        "e"
      ],
      [
        "Ġd",
        "evelop"
      ],
      [
        "ĠT",
        "he"
      ],
      [
        "al",
        "s"
      ],
      [
        "in",
        "k"
      ],
      [
        "Ġf",
        "ood"
      ],
      [
        "es",
        "t"
      ],
      [
        "Ġon",
        "ly"
      ],
      [
        "ĠS",
        "ourdough"
      ],
      [
        "Ġins",
        "tead"
      ],
      [
        "ed",
        "ic"
      ],
      [
        "Ġe",
        "qu"
      ],
      [
        "ff",
        "er"
      ],
      [
        "Ġi",
        "mm"
      ],
      [
        "en",
        "se"
      ],
      [
        "Ġf",
        "aster"
      ],
      [
        "Ġl",
        "ar"
      ],
      [
        "Ġcon",
        "s"
      ],
      [
        "Ġd",
        "ays"
      ],
      [
        "ter",
        "n"
      ],
      [
        "u",
        "st"
      ],
      [
        "in",
        "n"
      ],
      [
        "Ġd",
        "ri"
      ],
      [
        "Ġbacter",
        "ia"
      ],
      [
        "au",
        "se"
      ],
      [
        "Ġcaus",
        "ed"
      ],
      [
        "f",
        "t"
      ],
      [
        "ferm",
        "entation"
      ],
      [
        "Ġben",
        "ch"
      ],
      [
        "Ġdire",
        "ct"
      ],
      [
        "d",
        "er"
      ],
      [
        "ĠH",
        "ey"
      ],
      [
        "si",
        "ve"
      ],
      [
        "Ġ4",
        "0"
      ],
      [
        "i",
        "g"
      ],
      [
        "l",
        "ace"
      ],
      [
        "edi",
        "ately"
      ],
      [
        "Ġimm",
        "ediately"
      ],
      [
        "o",
        "k"
      ],
      [
        "Ġs",
        "he"
      ],
      [
        "Ġs",
        "af"
      ],
      [
        "tion",
        "s"
      ],
      [
        "et",
        "w"
      ],
      [
        "Ġco",
        "mple"
      ],
      [
        "Ġex",
        "c"
      ],
      [
        "Ġbec",
        "ause"
      ],
      [
        "Ġ",
        "E"
      ],
      [
        "Ġs",
        "et"
      ],
      [
        "Ġsc",
        "ore"
      ],
      [
        "Ġlow",
        "er"
      ],
      [
        "Ġw",
        "r"
      ],
      [
        "Ġm",
        "old"
      ],
      [
        "i",
        "ve"
      ],
      [
        "p",
        "id"
      ],
      [
        "Ġon",
        "e"
      ],
      [
        "all",
        "ow"
      ],
      [
        "o",
        "c"
      ],
      [
        "te",
        "red"
      ],
      [
        "Ġm",
        "ain"
      ],
      [
        "at",
        "in"
      ],
      [
        "el",
        "atin"
      ],
      [
        "Ġconta",
        "ins"
      ],
      [
        "ou",
        "nd"
      ],
      [
        "el",
        "ow"
      ],
      [
        "ĠP",
        "re"
      ],
      [
        "Ġdis",
        "card"
      ],
      [
        "Ġc",
        "he"
      ],
      [
        "Ġpre",
        "v"
      ],
      [
        "Ġh",
        "ot"
      ],
      [
        "ol",
        "ume"
      ],
      [
        "Ġg",
        "elatin"
      ],
      [
        "Ġ1",
        "5"
      ],
      [
        "Ġra",
        "ti"
      ],
      [
        "Ġv",
        "olume"
      ],
      [
        "Ġqu",
        "ick"
      ],
      [
        "of",
        "t"
      ],
      [
        "Ġm",
        "ore"
      ],
      [
        "Ġi",
        "ron"
      ],
      [
        "Ġ",
        "O"
      ],
      [
        "Ġd",
        "ou"
      ],
      [
        "Ġc",
        "ou"
      ],
      [
        "Ġl",
        "ac"
      ],
      [
        "Ġs",
        "oft"
      ],
      [
        "en",
        "s"
      ],
      [
        "Ġb",
        "elow"
      ],
      [
        "ak",
        "es"
      ],
      [
        "Ġfl",
        "avor"
      ],
      [
        "Ġeas",
        "ily"
      ],
      [
        "o",
        "il"
      ],
      [
        "Ġinc",
        "lusions"
      ],
      [
        "Ġrecip",
        "e"
      ],
      [
        "Ġfin",
        "al"
      ],
      [
        "Ġrati",
        "o"
      ],
      [
        "Ġc",
        "ast"
      ],
      [
        "Ġre",
        "ac"
      ],
      [
        "Ġ8",
        "0"
      ],
      [
        "Ġacti",
        "v"
      ],
      [
        "Ġch",
        "lor"
      ],
      [
        "Ġcre",
        "ates"
      ],
      [
        "Ġprote",
        "in"
      ],
      [
        "g",
        "et"
      ],
      [
        "l",
        "ing"
      ],
      [
        "w",
        "ays"
      ],
      [
        "Ġt",
        "ap"
      ],
      [
        "ĠAn",
        "y"
      ],
      [
        "ferm",
        "ented"
      ],
      [
        "Ġtear",
        "ing"
      ],
      [
        "Ġprev",
        "ent"
      ],
      [
        "p",
        "ed"
      ],
      [
        "Ġre",
        "m"
      ],
      [
        "Ġc",
        "alcul"
      ],
      [
        "re",
        "ase"
      ],
      [
        "Ġan",
        "y"
      ],
      [
        "or",
        "k"
      ],
      [
        "ul",
        "a"
      ],
      [
        "Ġpar",
        "ts"
      ],
      [
        "Ġm",
        "ic"
      ],
      [
        "Ġm",
        "ake"
      ],
      [
        "Ġen",
        "zy"
      ],
      [
        "Ġfeed",
        "ing"
      ],
      [
        "Ġenzy",
        "m"
      ],
      [
        "Ġmo",
        "ist"
      ],
      [
        "Ġre",
        "tard"
      ],
      [
        "Ġdirect",
        "ly"
      ],
      [
        "Ġlar",
        "ge"
      ],
      [
        "e",
        "c"
      ],
      [
        "en",
        "ter"
      ],
      [
        "Ġc",
        "enter"
      ],
      [
        "Ġstarter",
        "s"
      ],
      [
        "Ġwe",
        "ak"
      ],
      [
        "Ġ6",
        "5"
      ],
      [
        "Ġlac",
        "tic"
      ],
      [
        "l",
        "ed"
      ],
      [
        "ac",
        "hed"
      ],
      [
        "Ġlo",
        "aves"
      ],
      [
        "Ġstand",
        "ard"
      ],
      [
        "Ġst",
        "one"
      ],
      [
        "Ġn",
        "eed"
      ],
      [
        "Ġhe",
        "l"
      ],
      [
        "Ġ",
        "K"
      ],
      [
        "le",
        "ase"
      ],
      [
        "red",
        "ient"
      ],
      [
        "Ġequ",
        "al"
      ],
      [
        "o",
        "ck"
      ],
      [
        "er",
        "ated"
      ],
      [
        "Ġp",
        "ale"
      ],
      [
        "Ġin",
        "d"
      ],
      [
        "Ġg",
        "umm"
      ],
      [
        "Ġsp",
        "read"
      ],
      [
        "Ġsl",
        "ack"
      ],
      [
        "ip",
        "s"
      ],
      [
        "Ġadd",
        "ing"
      ],
      [
        "Ġbub",
        "bles"
      ],
      [
        "Ġgumm",
        "y"
      ],
      [
        "i",
        "al"
      ],
      [
        "Ġra",
        "pid"
      ],
      [
        "??",
        "?"
      ],
      [
        "Ġkn",
        "if"
      ],
      [
        "Ġsaf",
        "e"
      ],
      [
        "Ġknif",
        "e"
      ],
      [
        "n",
        "ter"
      ],
      [
        "Ġl",
        "ight"
      ],
      [
        "Ġcou",
        "nter"
      ],
      [
        "c",
        "hes"
      ],
      [
        "Ġ",
        "ing"
      ],
      [
        "ic",
        "tion"
      ],
      [
        "Ġstar",
        "ches"
      ],
      [
        "Ġing",
        "redient"
      ],
      [
        "ar",
        "s"
      ],
      [
        "Ġ7",
        "8"
      ],
      [
        "Ġba",
        "tard"
      ],
      [
        "inn",
        "er"
      ],
      [
        "e",
        "g"
      ],
      [
        "Ġb",
        "ack"
      ],
      [
        "ĠS",
        "h"
      ],
      [
        "Ġn",
        "o"
      ],
      [
        "Ġwr",
        "ong"
      ],
      [
        "u",
        "ff"
      ],
      [
        "Ġd",
        "ense"
      ],
      [
        "Ġgra",
        "ins"
      ],
      [
        "s",
        "or"
      ],
      [
        "u",
        "n"
      ],
      [
        "ul",
        "t"
      ],
      [
        "Ġwh",
        "y"
      ],
      [
        "Ġab",
        "sor"
      ],
      [
        "Ġshe",
        "et"
      ],
      [
        "Ġcomple",
        "te"
      ],
      [
        "Ġabsor",
        "b"
      ],
      [
        "o",
        "ol"
      ],
      [
        "ra",
        "d"
      ],
      [
        "Ġblis",
        "tered"
      ],
      [
        "D",
        "T"
      ],
      [
        "Ġs",
        "to"
      ],
      [
        "Ġg",
        "re"
      ],
      [
        "Ġco",
        "il"
      ],
      [
        "Ġsp",
        "eed"
      ],
      [
        "Ġth",
        "in"
      ],
      [
        "ĠF",
        "eed"
      ],
      [
        "Ġ",
        "+"
      ],
      [
        "ĠT",
        "o"
      ],
      [
        "ure",
        "s"
      ],
      [
        "Ġli",
        "qu"
      ],
      [
        "Ġre",
        "st"
      ],
      [
        "Ġform",
        "ula"
      ],
      [
        "l",
        "as"
      ],
      [
        "or",
        "m"
      ],
      [
        "ch",
        "ment"
      ],
      [
        "Ġr",
        "oll"
      ],
      [
        "ĠD",
        "is"
      ],
      [
        "Ġpar",
        "chment"
      ],
      [
        "Ġw",
        "in"
      ],
      [
        "Ġw",
        "ent"
      ],
      [
        "Ġhel",
        "p"
      ],
      [
        "6",
        "8"
      ],
      [
        "Ġc",
        "r"
      ],
      [
        "ti",
        "al"
      ],
      [
        "Ġgelatin",
        "iz"
      ],
      [
        "p",
        "ing"
      ],
      [
        "at",
        "ch"
      ],
      [
        "Ġstar",
        "t"
      ],
      [
        "Ġins",
        "ide"
      ],
      [
        "las",
        "tic"
      ],
      [
        "i",
        "re"
      ],
      [
        "Ġb",
        "est"
      ],
      [
        "ent",
        "s"
      ],
      [
        "Ġmoist",
        "ure"
      ],
      [
        "Ġliqu",
        "id"
      ],
      [
        "Ġsh",
        "allow"
      ],
      [
        "o",
        "se"
      ],
      [
        "Ġr",
        "ound"
      ],
      [
        "ĠD",
        "i"
      ],
      [
        "Ġs",
        "our"
      ],
      [
        "Ġbak",
        "ed"
      ],
      [
        "Ġsm",
        "oot"
      ],
      [
        "Ġsmoot",
        "h"
      ],
      [
        "Ġ",
        "ed"
      ],
      [
        "Ġb",
        "row"
      ],
      [
        "av",
        "a"
      ],
      [
        "Ġear",
        "ly"
      ],
      [
        "m",
        "ed"
      ],
      [
        "Ġa",
        "utolyse"
      ],
      [
        "Ġl",
        "am"
      ],
      [
        "b",
        "ly"
      ],
      [
        "e",
        "tic"
      ],
      [
        "s",
        "w"
      ],
      [
        "te",
        "nd"
      ],
      [
        "Ġs",
        "ou"
      ],
      [
        "ĠT",
        "roubleshooting"
      ],
      [
        "Ġpro",
        "vide"
      ],
      [
        "Ġac",
        "etic"
      ],
      [
        "Ġsou",
        "p"
      ],
      [
        "o",
        "ve"
      ],
      [
        "r",
        "an"
      ],
      [
        "Ġ",
        "Y"
      ],
      [
        "Ġ2",
        "5"
      ],
      [
        "ĠH",
        "and"
      ],
      [
        "Ġ50",
        "0"
      ],
      [
        "ĠAl",
        "ways"
      ],
      [
        "Ġed",
        "ges"
      ],
      [
        "Ġw",
        "ill"
      ],
      [
        "ĠB",
        "aking"
      ],
      [
        "2",
        "0"
      ],
      [
        "Ġt",
        "ips"
      ],
      [
        "erat",
        "or"
      ],
      [
        "Ġconta",
        "in"
      ],
      [
        "Ġrefrig",
        "erator"
      ],
      [
        "Ġfl",
        "akes"
      ],
      [
        "am",
        "ine"
      ],
      [
        "ĠIn",
        "c"
      ],
      [
        "Ġcr",
        "is"
      ],
      [
        "is",
        "e"
      ],
      [
        "l",
        "our"
      ],
      [
        "o",
        "om"
      ],
      [
        "Ġl",
        "ava"
      ],
      [
        "Ġsl",
        "ic"
      ],
      [
        "ĠN",
        "ever"
      ],
      [
        "Ġsmell",
        "s"
      ],
      [
        "u",
        "b"
      ],
      [
        "ta",
        "n"
      ],
      [
        "Ġ",
        "~"
      ],
      [
        "in",
        "ation"
      ],
      [
        "Ġf",
        "il"
      ],
      [
        "ar",
        "k"
      ],
      [
        "ac",
        "t"
      ],
      [
        "Ġev",
        "en"
      ],
      [
        "te",
        "nt"
      ],
      [
        "Ġp",
        "ap"
      ],
      [
        "ru",
        "ct"
      ],
      [
        "el",
        "t"
      ],
      [
        "Ġst",
        "ruct"
      ],
      [
        "ĠP",
        "lease"
      ],
      [
        "Ġsm",
        "all"
      ],
      [
        "Ġpap",
        "er"
      ],
      [
        "Ġt",
        "in"
      ],
      [
        "ĠF",
        "r"
      ],
      [
        "Ġsc",
        "or"
      ],
      [
        "Ġtrap",
        "ped"
      ],
      [
        "g",
        "ul"
      ],
      [
        "l",
        "l"
      ],
      [
        "Ġl",
        "ack"
      ],
      [
        "Ġsp",
        "elt"
      ],
      [
        "Ġadv",
        "ise"
      ],
      [
        "Ġstr",
        "ong"
      ],
      [
        "Ġcalcul",
        "ate"
      ],
      [
        "Ġa",
        "ssistant"
      ],
      [
        "ĠW",
        "ith"
      ],
      [
        "Ġtemperature",
        "s"
      ],
      [
        "Ġru",
        "b"
      ],
      [
        "e",
        "ct"
      ],
      [
        "er",
        "ate"
      ],
      [
        "Ġd",
        "el"
      ],
      [
        "ofte",
        "n"
      ],
      [
        "Ġac",
        "c"
      ],
      [
        "tern",
        "al"
      ],
      [
        "Ġmic",
        "ro"
      ],
      [
        "Ġenzym",
        "es"
      ],
      [
        "2",
        "4"
      ],
      [
        "Ġr",
        "im"
      ],
      [
        "Ġrecip",
        "es"
      ],
      [
        "a",
        "ge"
      ],
      [
        "Ġ",
        "end"
      ],
      [
        "Ġre",
        "ad"
      ],
      [
        "Ġwh",
        "ich"
      ],
      [
        "Ġco",
        "ok"
      ],
      [
        "ĠUs",
        "ing"
      ],
      [
        "ĠN",
        "eed"
      ],
      [
        "Ġwin",
        "ter"
      ],
      [
        "z",
        "e"
      ],
      [
        "Ġs",
        "up"
      ],
      [
        "Ġa",
        "ir"
      ],
      [
        "Ġb",
        "oil"
      ],
      [
        "Ġp",
        "ull"
      ],
      [
        "Ġo",
        "il"
      ],
      [
        "Ġhe",
        "av"
      ],
      [
        "pro",
        "of"
      ],
      [
        "Ġproof",
        "ing"
      ],
      [
        "Ġrapid",
        "ly"
      ],
      [
        "ter",
        "s"
      ],
      [
        "Ġte",
        "st"
      ],
      [
        "Ġd",
        "a"
      ],
      [
        "ow",
        "s"
      ],
      [
        "Ġi",
        "mp"
      ],
      [
        "Ġ3",
        "75"
      ],
      [
        "ĠP",
        "lace"
      ],
      [
        "Ġingredient",
        "s"
      ],
      [
        "Ġcomplete",
        "ly"
      ],
      [
        "in",
        "ary"
      ],
      [
        "Ġmu",
        "ch"
      ],
      [
        "ĠK",
        "eep"
      ],
      [
        "Ġb",
        "ran"
      ],
      [
        "as",
        "te"
      ],
      [
        "ad",
        "e"
      ],
      [
        "Ġcaus",
        "es"
      ],
      [
        "Ġrub",
        "b"
      ],
      [
        "Ġ",
        "ice"
      ],
      [
        "ĠDis",
        "card"
      ],
      [
        "Ġp",
        "e"
      ],
      [
        "as",
        "ta"
      ],
      [
        "ble",
        "ached"
      ],
      [
        "Ġcool",
        "er"
      ],
      [
        "w",
        "ich"
      ],
      [
        "Ġs",
        "and"
      ],
      [
        "ap",
        "ing"
      ],
      [
        "Ġclean",
        "ly"
      ],
      [
        "Ġsand",
        "wich"
      ],
      [
        "1",
        "0"
      ],
      [
        "s",
        "ol"
      ],
      [
        "er",
        "ing"
      ],
      [
        "Ġscor",
        "ing"
      ],
      [
        "a",
        "x"
      ],
      [
        "Ġt",
        "ight"
      ],
      [
        "Ġt",
        "ake"
      ],
      [
        "ĠC",
        "h"
      ],
      [
        "Ġspread",
        "ing"
      ],
      [
        "e",
        "en"
      ],
      [
        "Ġ",
        "ou"
      ],
      [
        "Ġb",
        "etw"
      ],
      [
        "Ġe",
        "ver"
      ],
      [
        "Ġhe",
        "alt"
      ],
      [
        "Ġen",
        "ough"
      ],
      [
        "Ġfir",
        "m"
      ],
      [
        "Ġou",
        "ter"
      ],
      [
        "Ġbetw",
        "een"
      ],
      [
        "Ġever",
        "y"
      ],
      [
        "Ġhealt",
        "h"
      ],
      [
        "a",
        "mple"
      ],
      [
        "r",
        "ans"
      ],
      [
        "Ġs",
        "w"
      ],
      [
        "ro",
        "ss"
      ],
      [
        "Ġon",
        "to"
      ],
      [
        "ĠWh",
        "en"
      ],
      [
        "ck",
        "ing"
      ],
      [
        "les",
        "s"
      ],
      [
        "Ġtur",
        "n"
      ],
      [
        "Ġpe",
        "ak"
      ],
      [
        "%",
        ","
      ],
      [
        "i",
        "ble"
      ],
      [
        "p",
        "ar"
      ],
      [
        "z",
        "or"
      ],
      [
        "Ġh",
        "ard"
      ],
      [
        "Ġra",
        "zor"
      ],
      [
        "c",
        "o"
      ],
      [
        "Ġdi",
        "ffer"
      ],
      [
        "Ġsup",
        "p"
      ],
      [
        "%",
        "),"
      ],
      [
        "a",
        "re"
      ],
      [
        "u",
        "ally"
      ],
      [
        "Ġb",
        "ond"
      ],
      [
        "Ġpar",
        "t"
      ],
      [
        "g",
        "ars"
      ],
      [
        "v",
        "ides"
      ],
      [
        "ap",
        "or"
      ],
      [
        "Ġpro",
        "vides"
      ],
      [
        "Ġunder",
        "ne"
      ],
      [
        "Ġsu",
        "gars"
      ],
      [
        "Ġunderne",
        "ath"
      ],
      [
        "Ġp",
        "h"
      ],
      [
        "Ġp",
        "at"
      ],
      [
        "Ġm",
        "aking"
      ],
      [
        "Ġh",
        "ap"
      ],
      [
        "le",
        "as"
      ],
      [
        "Ġit",
        "s"
      ],
      [
        "Ġhap",
        "pen"
      ],
      [
        "v",
        "ing"
      ],
      [
        "ou",
        "s"
      ],
      [
        "Ġt",
        "rans"
      ],
      [
        "Ġan",
        "sw"
      ],
      [
        "Ġ4",
        "8"
      ],
      [
        "ĠB",
        "eg"
      ],
      [
        "ath",
        "er"
      ],
      [
        "ul",
        "ly"
      ],
      [
        "Ġre",
        "qu"
      ],
      [
        "Ġun",
        "bleached"
      ],
      [
        "Ġsti",
        "ff"
      ],
      [
        "Ġspeed",
        "s"
      ],
      [
        "Ġcris",
        "p"
      ],
      [
        "6",
        "0"
      ],
      [
        "Ġt",
        "roubleshooting"
      ],
      [
        "Ġf",
        "ru"
      ],
      [
        "ĠD",
        "ough"
      ],
      [
        "ĠB",
        "F"
      ],
      [
        "Ġf",
        "ing"
      ],
      [
        "Ġwhi",
        "te"
      ],
      [
        "c",
        "es"
      ],
      [
        "n",
        "ight"
      ],
      [
        "o",
        "cul"
      ],
      [
        "Ġf",
        "ully"
      ],
      [
        "ic",
        "ient"
      ],
      [
        "ĠI",
        "s"
      ],
      [
        "ĠF",
        "lour"
      ],
      [
        "Ġover",
        "night"
      ],
      [
        "rou",
        "nd"
      ],
      [
        "proof",
        "ed"
      ],
      [
        "ocul",
        "ation"
      ],
      [
        "f",
        "orm"
      ],
      [
        "g",
        "an"
      ],
      [
        "y",
        "l"
      ],
      [
        "re",
        "es"
      ],
      [
        "Ġor",
        "gan"
      ],
      [
        "Ġdo",
        "med"
      ],
      [
        "Ġ4",
        "5"
      ],
      [
        "Ġ7",
        "0"
      ],
      [
        "Ġbuild",
        "s"
      ],
      [
        "Ġdeg",
        "rees"
      ],
      [
        "Ġdri",
        "es"
      ],
      [
        "s",
        "es"
      ],
      [
        "Ġb",
        "re"
      ],
      [
        "ĠB",
        "ake"
      ],
      [
        "ver",
        "ed"
      ],
      [
        "sh",
        "aping"
      ],
      [
        "i",
        "qu"
      ],
      [
        "l",
        "im"
      ],
      [
        "Ġs",
        "ourd"
      ],
      [
        "Ġb",
        "as"
      ],
      [
        "Ġm",
        "at"
      ],
      [
        "Ġm",
        "edic"
      ],
      [
        "Ġcon",
        "tent"
      ],
      [
        "Ġev",
        "apor"
      ],
      [
        "Ġrequ",
        "ire"
      ],
      [
        "m",
        "al"
      ],
      [
        "s",
        "ide"
      ],
      [
        "Ġ",
        "ide"
      ],
      [
        "ar",
        "get"
      ],
      [
        "ĠA",
        "t"
      ],
      [
        "ev",
        "ere"
      ],
      [
        "Ġfold",
        "ing"
      ],
      [
        "Ġins",
        "uff"
      ],
      [
        "ĠR",
        "ye"
      ],
      [
        "Ġdeg",
        "rad"
      ],
      [
        "Ġhappen",
        "s"
      ],
      [
        "Ġinsuff",
        "icient"
      ],
      [
        "u",
        "nd"
      ],
      [
        "at",
        "ur"
      ],
      [
        "Ġn",
        "atur"
      ],
      [
        "Ġab",
        "und"
      ],
      [
        "Ġabund",
        "ant"
      ],
      [
        "Ġs",
        "ig"
      ],
      [
        "Ġtur",
        "ns"
      ],
      [
        "Ġansw",
        "er"
      ],
      [
        "e",
        "at"
      ],
      [
        "Ġd",
        "id"
      ],
      [
        "gh",
        "t"
      ],
      [
        "he",
        "ated"
      ],
      [
        "ti",
        "ght"
      ],
      [
        "Ġp",
        "ow"
      ],
      [
        "Ġm",
        "ade"
      ],
      [
        "Ġ20",
        "5"
      ],
      [
        "Ġproduc",
        "ing"
      ],
      [
        "Ġair",
        "tight"
      ],
      [
        "a",
        "il"
      ],
      [
        "r",
        "ough"
      ],
      [
        "Ġd",
        "ark"
      ],
      [
        "Ġc",
        "ut"
      ],
      [
        "Ġth",
        "rough"
      ],
      [
        "ĠWh",
        "ole"
      ],
      [
        "Ġshap",
        "ed"
      ],
      [
        "ĠE",
        "x"
      ],
      [
        "ĠSh",
        "ould"
      ],
      [
        "gul",
        "ar"
      ],
      [
        "Ġread",
        "y"
      ],
      [
        "%",
        "."
      ],
      [
        "in",
        "der"
      ],
      [
        "an",
        "ce"
      ],
      [
        "Ġins",
        "tant"
      ],
      [
        "Ġexp",
        "and"
      ],
      [
        "Ġben",
        "e"
      ],
      [
        "Ġrem",
        "ain"
      ],
      [
        "Ġide",
        "al"
      ],
      [
        ")",
        ".<|"
      ],
      [
        "Ġt",
        "all"
      ],
      [
        "it",
        "ch"
      ],
      [
        "Ġseed",
        "s"
      ],
      [
        "Ġchlor",
        "amine"
      ],
      [
        "Ġstruct",
        "ure"
      ],
      [
        "i",
        "red"
      ],
      [
        "re",
        "ss"
      ],
      [
        "Ġd",
        "edic"
      ],
      [
        "Ġdri",
        "ed"
      ],
      [
        "ĠInc",
        "rease"
      ],
      [
        "Ġdedic",
        "ated"
      ],
      [
        "en",
        "ce"
      ],
      [
        "ĠA",
        "fter"
      ],
      [
        "Ġbuild",
        "ing"
      ],
      [
        "ill",
        "ed"
      ],
      [
        "g",
        "le"
      ],
      [
        "p",
        "eat"
      ],
      [
        "w",
        "ard"
      ],
      [
        "en",
        "g"
      ],
      [
        "ff",
        "ect"
      ],
      [
        "ver",
        "t"
      ],
      [
        "Ġboil",
        "ing"
      ],
      [
        "asta",
        "tic"
      ],
      [
        "Ġsig",
        "n"
      ],
      [
        "o",
        "id"
      ],
      [
        "v",
        "oid"
      ],
      [
        "re",
        "sh"
      ],
      [
        "ĠD",
        "DT"
      ],
      [
        "Ġheav",
        "y"
      ],
      [
        "Ġnatur",
        "ally"
      ],
      [
        "o",
        "st"
      ],
      [
        "Ġst",
        "ra"
      ],
      [
        "y",
        "s"
      ],
      [
        "Ġ",
        "often"
      ],
      [
        "ou",
        "le"
      ],
      [
        "Ġb",
        "oule"
      ],
      [
        "Ġd",
        "rop"
      ],
      [
        "Ġh",
        "ol"
      ],
      [
        "Ġin",
        "ternal"
      ],
      [
        "Ġk",
        "itch"
      ],
      [
        "Ġdis",
        "c"
      ],
      [
        "Ġme",
        "as"
      ],
      [
        "Ġhol",
        "es"
      ],
      [
        "g",
        "ra"
      ],
      [
        "p",
        "er"
      ],
      [
        "s",
        "o"
      ],
      [
        "Ġf",
        "e"
      ],
      [
        "es",
        "ired"
      ],
      [
        "Ġwh",
        "ere"
      ],
      [
        "Ġpro",
        "gra"
      ],
      [
        "Ġdis",
        "sol"
      ],
      [
        "Ġlack",
        "s"
      ],
      [
        "m",
        "an"
      ],
      [
        "ak",
        "en"
      ],
      [
        "an",
        "ks"
      ],
      [
        "Ġstar",
        "ch"
      ],
      [
        "ĠF",
        "erm"
      ],
      [
        "Ġcon",
        "t"
      ],
      [
        "ĠTh",
        "anks"
      ],
      [
        "ĠL",
        "o"
      ],
      [
        "Ġeven",
        "ly"
      ],
      [
        "t",
        "ly"
      ],
      [
        "ic",
        "tly"
      ],
      [
        "Ġflour",
        "s"
      ],
      [
        "Ġal",
        "so"
      ],
      [
        "Ġstr",
        "ictly"
      ],
      [
        "Ġba",
        "g"
      ],
      [
        "Ġhold",
        "s"
      ],
      [
        "ree",
        "ze"
      ],
      [
        "ĠPre",
        "heat"
      ],
      [
        "o",
        "ss"
      ],
      [
        "Ġb",
        "ut"
      ],
      [
        "Ġw",
        "ee"
      ],
      [
        "Ġc",
        "ar"
      ],
      [
        "Ġg",
        "row"
      ],
      [
        "Ġdou",
        "b"
      ],
      [
        "Ġm",
        "ass"
      ],
      [
        "Ġris",
        "ing"
      ],
      [
        "Ġfr",
        "iction"
      ],
      [
        "Ġse",
        "c"
      ],
      [
        "Ġp",
        "our"
      ],
      [
        "ad",
        "ing"
      ],
      [
        "im",
        "um"
      ],
      [
        "ond",
        "ering"
      ],
      [
        "Ġcre",
        "ate"
      ],
      [
        "pro",
        "duc"
      ],
      [
        "Ġbrow",
        "ning"
      ],
      [
        "Ġf",
        "resh"
      ],
      [
        "or",
        "t"
      ],
      [
        "Ġco",
        "mp"
      ],
      [
        "Ġme",
        "ans"
      ],
      [
        "Q",
        "u"
      ],
      [
        "Ġ",
        "Qu"
      ],
      [
        "Ġa",
        "ffect"
      ],
      [
        "Ġb",
        "le"
      ],
      [
        "or",
        "n"
      ],
      [
        "ti",
        "re"
      ],
      [
        "Ġin",
        "ter"
      ],
      [
        "ĠP",
        "ull"
      ],
      [
        "Ġen",
        "tire"
      ],
      [
        "Ġ90",
        "0"
      ],
      [
        "Ġfe",
        "el"
      ],
      [
        "ĠQu",
        "ick"
      ],
      [
        "c",
        "tion"
      ],
      [
        "i",
        "ke"
      ],
      [
        "l",
        "ike"
      ],
      [
        "p",
        "ur"
      ],
      [
        "p",
        "ose"
      ],
      [
        "Ġa",
        "erated"
      ],
      [
        "Ġm",
        "alt"
      ],
      [
        "an",
        "g"
      ],
      [
        "Ġre",
        "l"
      ],
      [
        "Ġac",
        "ross"
      ],
      [
        "Ġde",
        "c"
      ],
      [
        "ia",
        "nt"
      ],
      [
        "Ġpercenta",
        "ges"
      ],
      [
        "Ġproduc",
        "es"
      ],
      [
        "Ġkitch",
        "en"
      ],
      [
        "Ġprogra",
        "mm"
      ],
      [
        "Ġsec",
        "ond"
      ],
      [
        "pur",
        "pose"
      ],
      [
        "Ġ",
        "z"
      ],
      [
        "Ġ2",
        "7"
      ],
      [
        "ri",
        "b"
      ],
      [
        "ĠB",
        "ulk"
      ],
      [
        "'",
        "t"
      ],
      [
        "s",
        "er"
      ],
      [
        "Ġc",
        "ub"
      ],
      [
        "et",
        "h"
      ],
      [
        "Ġan",
        "gle"
      ],
      [
        "Ġhand",
        "ling"
      ],
      [
        "Ġacc",
        "el"
      ],
      [
        "d",
        "d"
      ],
      [
        "Ġp",
        "ink"
      ],
      [
        "Ġm",
        "on"
      ],
      [
        "Ġh",
        "al"
      ],
      [
        "Ġr",
        "ice"
      ],
      [
        "Ġn",
        "etw"
      ],
      [
        "Ġv",
        "ent"
      ],
      [
        "Ġinc",
        "rease"
      ],
      [
        "Ġse",
        "am"
      ],
      [
        "Ġrubb",
        "ery"
      ],
      [
        "Ġhal",
        "f"
      ],
      [
        "a",
        "ill"
      ],
      [
        "Ġc",
        "ul"
      ],
      [
        "Ġc",
        "oll"
      ],
      [
        "Ġh",
        "ere"
      ],
      [
        "ĠW",
        "ater"
      ],
      [
        "Ġth",
        "ick"
      ],
      [
        "Ġco",
        "mb"
      ],
      [
        "ĠM",
        "aill"
      ],
      [
        "Ġroom",
        "s"
      ],
      [
        "Ġferment",
        "ing"
      ],
      [
        "Ġcul",
        "inary"
      ],
      [
        "Ġcoll",
        "ap"
      ],
      [
        "ĠMaill",
        "ard"
      ],
      [
        "Ġt",
        "aking"
      ],
      [
        "an",
        "ge"
      ],
      [
        "Ġfl",
        "o"
      ],
      [
        "ath",
        "ery"
      ],
      [
        "Ġacid",
        "ity"
      ],
      [
        "Ġtim",
        "es"
      ],
      [
        "Ġle",
        "athery"
      ],
      [
        "Ġtear",
        "s"
      ],
      [
        "Ġsto",
        "p"
      ],
      [
        "act",
        "or"
      ],
      [
        "Ġend",
        "s"
      ],
      [
        "Ġda",
        "ily"
      ],
      [
        "i",
        "or"
      ],
      [
        "i",
        "tial"
      ],
      [
        "Ġt",
        "ang"
      ],
      [
        "Ġin",
        "itial"
      ],
      [
        "ic",
        "ate"
      ],
      [
        "Ġ1",
        "4"
      ],
      [
        "Ġdi",
        "vide"
      ],
      [
        "Ġsc",
        "hed"
      ],
      [
        "Ġle",
        "ft"
      ],
      [
        "umm",
        "er"
      ],
      [
        "Ġsoup",
        "y"
      ],
      [
        "Ġdel",
        "icate"
      ],
      [
        "Ġturn",
        "ed"
      ],
      [
        "Ġinter",
        "ior"
      ],
      [
        "g",
        "i"
      ],
      [
        "g",
        "n"
      ],
      [
        "m",
        "ic"
      ],
      [
        "s",
        "on"
      ],
      [
        "u",
        "s"
      ],
      [
        "er",
        "al"
      ],
      [
        "Ġf",
        "ail"
      ],
      [
        "at",
        "ure"
      ],
      [
        "ent",
        "os"
      ],
      [
        "Ġre",
        "s"
      ],
      [
        "ut",
        "ri"
      ],
      [
        "Ġper",
        "son"
      ],
      [
        "Ġche",
        "mic"
      ],
      [
        "entos",
        "ans"
      ],
      [
        "k",
        "ne"
      ],
      [
        "Ġs",
        "it"
      ],
      [
        "Ġpro",
        "ble"
      ],
      [
        "Ġli",
        "ft"
      ],
      [
        "Ġdis",
        "h"
      ],
      [
        "Ġdis",
        "t"
      ],
      [
        "Ġ6",
        "0"
      ],
      [
        "Ġblis",
        "ters"
      ],
      [
        "Ġchlor",
        "ine"
      ],
      [
        "ĠY",
        "ou"
      ],
      [
        "Ġcub",
        "es"
      ],
      [
        "Ġproble",
        "m"
      ],
      [
        "g",
        "ry"
      ],
      [
        "v",
        "en"
      ],
      [
        "Ġs",
        "evere"
      ],
      [
        "Ġm",
        "ax"
      ],
      [
        "Ġh",
        "un"
      ],
      [
        "Ġin",
        "oculation"
      ],
      [
        "ic",
        "ally"
      ],
      [
        "Ġe",
        "lastic"
      ],
      [
        "Ġre",
        "leas"
      ],
      [
        "ve",
        "ction"
      ],
      [
        "Ġcon",
        "duc"
      ],
      [
        "Ġen",
        "c"
      ],
      [
        "ĠL",
        "et"
      ],
      [
        "Ġle",
        "aves"
      ],
      [
        "Ġsto",
        "re"
      ],
      [
        "ĠDi",
        "vide"
      ],
      [
        "Ġdiffer",
        "ence"
      ],
      [
        "Ġbond",
        "s"
      ],
      [
        "Ġmon",
        "th"
      ],
      [
        "Ġnetw",
        "ork"
      ],
      [
        "Ġflo",
        "at"
      ],
      [
        "Ġhun",
        "gry"
      ],
      [
        "Ġreleas",
        "es"
      ],
      [
        "R",
        "oom"
      ],
      [
        "c",
        "c"
      ],
      [
        "d",
        "s"
      ],
      [
        "Ġ",
        "-"
      ],
      [
        "is",
        "h"
      ],
      [
        "Ġc",
        "ur"
      ],
      [
        "Ġp",
        "H"
      ],
      [
        "Ġp",
        "lace"
      ],
      [
        "Ġp",
        "lastic"
      ],
      [
        "an",
        "sion"
      ],
      [
        "et",
        "s"
      ],
      [
        "ĠT",
        "arget"
      ],
      [
        "ĠF",
        "actor"
      ],
      [
        "Ġex",
        "tend"
      ],
      [
        "Ġhydra",
        "te"
      ],
      [
        "Ġexp",
        "ansion"
      ],
      [
        "Ġse",
        "al"
      ],
      [
        "Ġweak",
        "en"
      ],
      [
        "ĠFr",
        "iction"
      ],
      [
        "ward",
        "s"
      ],
      [
        "ĠLo",
        "ad"
      ],
      [
        "Ġmax",
        "imum"
      ],
      [
        "3",
        "2"
      ],
      [
        "9",
        "4"
      ],
      [
        "b",
        "on"
      ],
      [
        "d",
        "i"
      ],
      [
        "xt",
        "ra"
      ],
      [
        "es",
        "sive"
      ],
      [
        "Ġe",
        "xtra"
      ],
      [
        "ĠHow",
        "ever"
      ],
      [
        "Ġen",
        "s"
      ],
      [
        "Ġkn",
        "e"
      ],
      [
        "Ġall",
        "ow"
      ],
      [
        "ĠDo",
        "es"
      ],
      [
        "Ġexc",
        "essive"
      ],
      [
        "Ġdegrad",
        "ed"
      ],
      [
        "Ġcar",
        "bon"
      ],
      [
        "kne",
        "ad"
      ],
      [
        "1",
        "2"
      ],
      [
        "i",
        "e"
      ],
      [
        "n",
        "ess"
      ],
      [
        "w",
        "ay"
      ],
      [
        "Ġa",
        "way"
      ],
      [
        "ough",
        "ly"
      ],
      [
        "Ġl",
        "in"
      ],
      [
        "Ġg",
        "ive"
      ],
      [
        "Ġ6",
        "8"
      ],
      [
        "Ġkeep",
        "ing"
      ],
      [
        "Ġreac",
        "h"
      ],
      [
        "Ġbene",
        "ath"
      ],
      [
        "S",
        "P"
      ],
      [
        "i",
        "el"
      ],
      [
        "Ġa",
        "round"
      ],
      [
        "Ġf",
        "avor"
      ],
      [
        "Ġb",
        "atch"
      ],
      [
        "tion",
        "al"
      ],
      [
        "Ġsh",
        "ows"
      ],
      [
        "Ġth",
        "or"
      ],
      [
        "ĠA",
        "utolyse"
      ],
      [
        "ĠC",
        "he"
      ],
      [
        "Ġj",
        "ig"
      ],
      [
        "Ġdevelop",
        "s"
      ],
      [
        "ĠE",
        "SP"
      ],
      [
        "Ġrem",
        "ove"
      ],
      [
        "ĠBeg",
        "inner"
      ],
      [
        "Ġmeas",
        "ures"
      ],
      [
        "utri",
        "ents"
      ],
      [
        "9",
        "6"
      ],
      [
        "a",
        "w"
      ],
      [
        "h",
        "ydra"
      ],
      [
        "i",
        "ti"
      ],
      [
        "i",
        "es"
      ],
      [
        "Ġa",
        "void"
      ],
      [
        "Ġo",
        "cc"
      ],
      [
        "Ġ2",
        "10"
      ],
      [
        "ac",
        "c"
      ],
      [
        "Ġr",
        "ather"
      ],
      [
        "ur",
        "s"
      ],
      [
        "Ġ9",
        "9"
      ],
      [
        "ĠPull",
        "man"
      ],
      [
        "Ġocc",
        "urs"
      ],
      [
        "a",
        "ti"
      ],
      [
        "Ġp",
        "entosans"
      ],
      [
        "Ġg",
        "o"
      ],
      [
        "Ġre",
        "duc"
      ],
      [
        "ĠD",
        "rop"
      ],
      [
        "ri",
        "es"
      ],
      [
        "Ġquestion",
        "s"
      ],
      [
        "Ġ8",
        "5"
      ],
      [
        "Ġmo",
        "tions"
      ],
      [
        "Ġquick",
        "ly"
      ],
      [
        "ock",
        "ets"
      ],
      [
        "Ġind",
        "ic"
      ],
      [
        "Ġorgan",
        "ic"
      ],
      [
        "ĠFerm",
        "ent"
      ],
      [
        "Ġreduc",
        "e"
      ],
      [
        "x",
        "y"
      ],
      [
        "in",
        "ate"
      ],
      [
        "Ġd",
        "ull"
      ],
      [
        "Ġte",
        "ll"
      ],
      [
        "ĠP",
        "er"
      ],
      [
        "Ġbub",
        "bly"
      ],
      [
        "Ġslow",
        "ly"
      ],
      [
        "Ġche",
        "es"
      ],
      [
        "ĠCh",
        "lor"
      ],
      [
        "Ġcollap",
        "ses"
      ],
      [
        "%",
        ")."
      ],
      [
        "u",
        "ice"
      ],
      [
        "Ġ",
        "0"
      ],
      [
        "en",
        "ch"
      ],
      [
        "ol",
        "or"
      ],
      [
        "Ġ1",
        "60"
      ],
      [
        "Ġe",
        "lim"
      ],
      [
        "Ġre",
        "peat"
      ],
      [
        "Ġco",
        "mm"
      ],
      [
        "Ġcon",
        "f"
      ],
      [
        "ĠP",
        "our"
      ],
      [
        "Ġpre",
        "ss"
      ],
      [
        "Ġj",
        "uice"
      ],
      [
        "Ġreac",
        "hes"
      ],
      [
        "Ġfru",
        "it"
      ],
      [
        "ĠEx",
        "tend"
      ],
      [
        "Ġgrow",
        "th"
      ],
      [
        "2",
        "6"
      ],
      [
        "7",
        "8"
      ],
      [
        "l",
        "o"
      ],
      [
        "Ġ",
        "ess"
      ],
      [
        "en",
        "tial"
      ],
      [
        "Ġm",
        "ild"
      ],
      [
        "Ġl",
        "evel"
      ],
      [
        "Ġ2",
        "6"
      ],
      [
        "Ġsti",
        "r"
      ],
      [
        "Ġbu",
        "ffer"
      ],
      [
        "Ġus",
        "es"
      ],
      [
        "Ġgra",
        "m"
      ],
      [
        "Ġsupp",
        "ress"
      ],
      [
        "Ġchemic",
        "als"
      ],
      [
        "Ġess",
        "ential"
      ],
      [
        "b",
        "it"
      ],
      [
        "g",
        "les"
      ],
      [
        "h",
        "i"
      ],
      [
        "l",
        "uc"
      ],
      [
        "o",
        "ard"
      ],
      [
        "Ġ",
        "U"
      ],
      [
        "Ġs",
        "ides"
      ],
      [
        "Ġf",
        "at"
      ],
      [
        "Ġm",
        "ath"
      ],
      [
        "Ġin",
        "hi"
      ],
      [
        "as",
        "ed"
      ],
      [
        "Ġsh",
        "aken"
      ],
      [
        "Ġv",
        "s"
      ],
      [
        "ant",
        "ly"
      ],
      [
        "Ġactiv",
        "ating"
      ],
      [
        "Ġtrans",
        "luc"
      ],
      [
        "Ġrequire",
        "s"
      ],
      [
        "Ġmonth",
        "s"
      ],
      [
        "Ġjig",
        "gles"
      ],
      [
        "ĠDrop",
        "ping"
      ],
      [
        "ĠPer",
        "form"
      ],
      [
        "Ġfat",
        "s"
      ],
      [
        "Ġinhi",
        "bit"
      ],
      [
        "Ġtransluc",
        "ent"
      ],
      [
        "7",
        "2"
      ],
      [
        "er",
        "ly"
      ],
      [
        "Ġc",
        "av"
      ],
      [
        "ĠH",
        "old"
      ],
      [
        "ĠM",
        "ix"
      ],
      [
        "Ġbl",
        "ock"
      ],
      [
        "ick",
        "s"
      ],
      [
        "Ġcl",
        "ass"
      ],
      [
        "rop",
        "erly"
      ],
      [
        "ĠY",
        "east"
      ],
      [
        "Ġclass",
        "ic"
      ],
      [
        "i",
        "ol"
      ],
      [
        "p",
        "ti"
      ],
      [
        "Ġa",
        "sh"
      ],
      [
        "Ġf",
        "oc"
      ],
      [
        "Ġb",
        "ar"
      ],
      [
        "Ġwith",
        "in"
      ],
      [
        "ĠS",
        "ti"
      ],
      [
        "ĠC",
        "alcul"
      ],
      [
        "ri",
        "x"
      ],
      [
        "Ġra",
        "te"
      ],
      [
        "Ġv",
        "iol"
      ],
      [
        "Ġsc",
        "rap"
      ],
      [
        "Ġmix",
        "es"
      ],
      [
        "oo",
        "ch"
      ],
      [
        "Ġru",
        "n"
      ],
      [
        "Ġdou",
        "bles"
      ],
      [
        "Ġmat",
        "rix"
      ],
      [
        "Ġpow",
        "der"
      ],
      [
        "pti",
        "mal"
      ],
      [
        "p",
        "or"
      ],
      [
        "Ġt",
        "w"
      ],
      [
        "Ġt",
        "aste"
      ],
      [
        "Ġw",
        "ork"
      ],
      [
        "or",
        "por"
      ],
      [
        "ĠS",
        "c"
      ],
      [
        "Ġris",
        "es"
      ],
      [
        "Ġinc",
        "orpor"
      ],
      [
        "acc",
        "ia"
      ],
      [
        "Ġfoc",
        "accia"
      ],
      [
        "1",
        "9"
      ],
      [
        "a",
        "ble"
      ],
      [
        "d",
        "own"
      ],
      [
        "f",
        "ul"
      ],
      [
        "f",
        "ool"
      ],
      [
        "h",
        "er"
      ],
      [
        "m",
        "in"
      ],
      [
        "p",
        "le"
      ],
      [
        "Ġd",
        "ra"
      ],
      [
        "Ġto",
        "get"
      ],
      [
        "es",
        "p"
      ],
      [
        "Ġp",
        "or"
      ],
      [
        "ĠW",
        "ondering"
      ],
      [
        "ap",
        "ple"
      ],
      [
        "ĠH",
        "ell"
      ],
      [
        "Ġsti",
        "ll"
      ],
      [
        "Ġbl",
        "oom"
      ],
      [
        "ine",
        "apple"
      ],
      [
        "Ġme",
        "tal"
      ],
      [
        "oll",
        "ow"
      ],
      [
        "Ġgra",
        "in"
      ],
      [
        "evelop",
        "ed"
      ],
      [
        "Ġgre",
        "ased"
      ],
      [
        "Ġprogramm",
        "ing"
      ],
      [
        "Ġscrap",
        "er"
      ],
      [
        "19",
        "0"
      ],
      [
        "Ġtoget",
        "her"
      ],
      [
        "ĠHell",
        "o"
      ],
      [
        "e",
        "uc"
      ],
      [
        "te",
        "in"
      ],
      [
        "on",
        "ost"
      ],
      [
        "ar",
        "p"
      ],
      [
        "Ġsta",
        "y"
      ],
      [
        "id",
        "d"
      ],
      [
        "Ġco",
        "vered"
      ],
      [
        "Ġ4",
        "50"
      ],
      [
        "Ġex",
        "ample"
      ],
      [
        "Ġsti",
        "tch"
      ],
      [
        "ĠL",
        "euc"
      ],
      [
        "pro",
        "tein"
      ],
      [
        "Ġtur",
        "ning"
      ],
      [
        "Ġrefrig",
        "erated"
      ],
      [
        "Ġgelatiniz",
        "es"
      ],
      [
        "Ġcontain",
        "er"
      ],
      [
        "Ġhard",
        "ens"
      ],
      [
        "Ġdisc",
        "olor"
      ],
      [
        "onost",
        "oc"
      ],
      [
        "ĠLeuc",
        "onostoc"
      ],
      [
        "Ġdiscolor",
        "ation"
      ],
      [
        "o",
        "x"
      ],
      [
        "x",
        "ic"
      ],
      [
        "Ġs",
        "ee"
      ],
      [
        "Ġa",
        "p"
      ],
      [
        "Ġc",
        "yl"
      ],
      [
        "Ġh",
        "ooch"
      ],
      [
        "Ġstick",
        "ing"
      ],
      [
        "Ġch",
        "illed"
      ],
      [
        "Ġlam",
        "ination"
      ],
      [
        "iqu",
        "ot"
      ],
      [
        "Ġstra",
        "ight"
      ],
      [
        "Ġtw",
        "o"
      ],
      [
        "Ġcyl",
        "inder"
      ],
      [
        "o",
        "g"
      ],
      [
        "v",
        "es"
      ],
      [
        "Ġb",
        "ase"
      ],
      [
        "Ġm",
        "an"
      ],
      [
        "Ġn",
        "ec"
      ],
      [
        "Ġ3",
        "50"
      ],
      [
        "Ġab",
        "ove"
      ],
      [
        "ess",
        "ary"
      ],
      [
        "Ġlong",
        "er"
      ],
      [
        "ĠAl",
        "l"
      ],
      [
        "Ġcons",
        "ume"
      ],
      [
        "Ġset",
        "s"
      ],
      [
        "ĠWith",
        "out"
      ],
      [
        "Ġnec",
        "essary"
      ],
      [
        "g",
        "en"
      ],
      [
        "is",
        "ten"
      ],
      [
        "Ġc",
        "ult"
      ],
      [
        "Ġp",
        "ineapple"
      ],
      [
        "id",
        "ent"
      ],
      [
        "Ġo",
        "xy"
      ],
      [
        "Ġe",
        "ink"
      ],
      [
        "ĠH",
        "i"
      ],
      [
        "ĠF",
        "reeze"
      ],
      [
        "om",
        "e"
      ],
      [
        "Ġspring",
        "s"
      ],
      [
        "Ġbrow",
        "n"
      ],
      [
        "ĠFr",
        "ench"
      ],
      [
        "Ġmedic",
        "al"
      ],
      [
        "Ġoxy",
        "gen"
      ],
      [
        "Ġeink",
        "orn"
      ],
      [
        "c",
        "ial"
      ],
      [
        "d",
        "iant"
      ],
      [
        "j",
        "ust"
      ],
      [
        "l",
        "ine"
      ],
      [
        "r",
        "t"
      ],
      [
        "Ġa",
        "rt"
      ],
      [
        "er",
        "cial"
      ],
      [
        "Ġp",
        "ack"
      ],
      [
        "ro",
        "of"
      ],
      [
        "ĠD",
        "esired"
      ],
      [
        "ĠF",
        "ir"
      ],
      [
        "Ġbe",
        "en"
      ],
      [
        "Ġ3",
        "5"
      ],
      [
        "Ġra",
        "diant"
      ],
      [
        "ĠP",
        "roof"
      ],
      [
        "Ġal",
        "iquot"
      ],
      [
        "Ġoff",
        "line"
      ],
      [
        "Ġslic",
        "es"
      ],
      [
        "ati",
        "ve"
      ],
      [
        "Ġcomm",
        "ercial"
      ],
      [
        "Ġconf",
        "ident"
      ],
      [
        "ĠU",
        "n"
      ],
      [
        "ĠFir",
        "st"
      ],
      [
        "c",
        "ient"
      ],
      [
        "d",
        "e"
      ],
      [
        "f",
        "er"
      ],
      [
        "g",
        "ain"
      ],
      [
        "Ġ",
        "ol"
      ],
      [
        "Ġa",
        "gain"
      ],
      [
        "Ġt",
        "ru"
      ],
      [
        "Ġto",
        "xic"
      ],
      [
        "Ġh",
        "ollow"
      ],
      [
        "Ġg",
        "old"
      ],
      [
        "Ġab",
        "out"
      ],
      [
        "Ġsk",
        "ip"
      ],
      [
        "Ġkn",
        "ow"
      ],
      [
        "Ġdoub",
        "led"
      ],
      [
        "Ġol",
        "ive"
      ],
      [
        "Ġtru",
        "e"
      ],
      [
        "Ġgold",
        "en"
      ],
      [
        "n",
        "el"
      ],
      [
        "r",
        "ic"
      ],
      [
        "Ġs",
        "ummer"
      ],
      [
        "Ġt",
        "ra"
      ],
      [
        "Ġp",
        "o"
      ],
      [
        "ast",
        "ing"
      ],
      [
        "Ġro",
        "asting"
      ],
      [
        "Ġbl",
        "end"
      ],
      [
        "Ġl",
        "ess"
      ],
      [
        "ra",
        "te"
      ],
      [
        "el",
        "p"
      ],
      [
        "ĠH",
        "elp"
      ],
      [
        "ĠA",
        "P"
      ],
      [
        "Ġli",
        "f"
      ],
      [
        "Ġpre",
        "par"
      ],
      [
        "Ġkeep",
        "s"
      ],
      [
        "Ġgelatiniz",
        "ed"
      ],
      [
        "Ġfil",
        "m"
      ],
      [
        "Ġfing",
        "ers"
      ],
      [
        "Ġbre",
        "ak"
      ],
      [
        "g",
        "g"
      ],
      [
        "m",
        "end"
      ],
      [
        "Ġs",
        "ample"
      ],
      [
        "Ġsh",
        "arp"
      ],
      [
        "Ġth",
        "is"
      ],
      [
        "mp",
        "t"
      ],
      [
        "Ġcon",
        "vert"
      ],
      [
        "ĠB",
        "read"
      ],
      [
        "Ġhigh",
        "er"
      ],
      [
        "if",
        "t"
      ],
      [
        "Ġbacter",
        "ial"
      ],
      [
        "Ġactiv",
        "ity"
      ],
      [
        "Ġsw",
        "ift"
      ],
      [
        "ĠChe",
        "cking"
      ],
      [
        "Ġart",
        "is"
      ],
      [
        "Ġs",
        "ave"
      ],
      [
        "Ġa",
        "ssis"
      ],
      [
        "Ġf",
        "an"
      ],
      [
        "Ġc",
        "er"
      ],
      [
        "ĠD",
        "O"
      ],
      [
        "Ġhe",
        "y"
      ],
      [
        "all",
        "s"
      ],
      [
        "Ġlin",
        "er"
      ],
      [
        "g",
        "rad"
      ],
      [
        "in",
        "u"
      ],
      [
        "Ġs",
        "er"
      ],
      [
        "Ġb",
        "ur"
      ],
      [
        "Ġl",
        "east"
      ],
      [
        "et",
        "one"
      ],
      [
        "ap",
        "e"
      ],
      [
        "ĠS",
        "te"
      ],
      [
        "Ġ4",
        "75"
      ],
      [
        "Ġprote",
        "ins"
      ],
      [
        "os",
        "ed"
      ],
      [
        "Ġfing",
        "er"
      ],
      [
        "Ġartis",
        "an"
      ],
      [
        "8",
        "0"
      ],
      [
        "c",
        "hed"
      ],
      [
        "Ġm",
        "idd"
      ],
      [
        "Ġpro",
        "per"
      ],
      [
        "ĠS",
        "l"
      ],
      [
        "ri",
        "p"
      ],
      [
        "Ġpre",
        "heated"
      ],
      [
        "Ġneed",
        "ed"
      ],
      [
        "Ġassis",
        "t"
      ],
      [
        "Ġmidd",
        "le"
      ],
      [
        "Ġf",
        "u"
      ],
      [
        "Ġd",
        "ay"
      ],
      [
        "ot",
        "h"
      ],
      [
        "st",
        "ing"
      ],
      [
        "ĠS",
        "p"
      ],
      [
        "am",
        "ic"
      ],
      [
        "Ġover",
        "r"
      ],
      [
        "ff",
        "ins"
      ],
      [
        "Ġstr",
        "eng"
      ],
      [
        "Ġall",
        "ows"
      ],
      [
        "ĠDo",
        "ing"
      ],
      [
        "Ġmu",
        "ffins"
      ],
      [
        "Ġgre",
        "y"
      ],
      [
        "Ġagain",
        "st"
      ],
      [
        "Ġcer",
        "amic"
      ],
      [
        "Ġstreng",
        "th"
      ],
      [
        "d",
        "ing"
      ],
      [
        "r",
        "ol"
      ],
      [
        "Ġt",
        "un"
      ],
      [
        "re",
        "ak"
      ],
      [
        "Ġd",
        "on"
      ],
      [
        "ti",
        "p"
      ],
      [
        "ic",
        "i"
      ],
      [
        "Ġcl",
        "oth"
      ],
      [
        "Ġbre",
        "w"
      ],
      [
        "Ġtun",
        "nel"
      ],
      [
        "e",
        "ars"
      ],
      [
        "Ġt",
        "u"
      ],
      [
        "Ġt",
        "re"
      ],
      [
        "ac",
        "h"
      ],
      [
        "Ġth",
        "inner"
      ],
      [
        "ĠF",
        "DT"
      ],
      [
        "Ġsp",
        "ec"
      ],
      [
        "Ġac",
        "etone"
      ],
      [
        "Ġcon",
        "di"
      ],
      [
        "ir",
        "t"
      ],
      [
        "Ġph",
        "ys"
      ],
      [
        "Ġdrop",
        "s"
      ],
      [
        "Ġbag",
        "s"
      ],
      [
        "oss",
        "ible"
      ],
      [
        "Ġble",
        "ached"
      ],
      [
        "Ġcondi",
        "tions"
      ],
      [
        "6",
        "5"
      ],
      [
        "o",
        "d"
      ],
      [
        "z",
        "a"
      ],
      [
        "Ġb",
        "et"
      ],
      [
        "ta",
        "in"
      ],
      [
        "Ġc",
        "ol"
      ],
      [
        "Ġp",
        "iz"
      ],
      [
        "Ġg",
        "et"
      ],
      [
        "Ġon",
        "ce"
      ],
      [
        "ĠC",
        "oil"
      ],
      [
        "Ġex",
        "ten"
      ],
      [
        "lu",
        "sive"
      ],
      [
        "ten",
        "ance"
      ],
      [
        "Ġcl",
        "oc"
      ],
      [
        "Ġrefrig",
        "erate"
      ],
      [
        "Ġexc",
        "lusive"
      ],
      [
        "Ġmain",
        "tenance"
      ],
      [
        "Ġactiv",
        "ated"
      ],
      [
        "Ġcont",
        "inu"
      ],
      [
        "Ġbet",
        "ter"
      ],
      [
        "Ġpiz",
        "za"
      ],
      [
        "Ġexten",
        "si"
      ],
      [
        "Ġcloc",
        "he"
      ],
      [
        "Ġexclusive",
        "ly"
      ],
      [
        "a",
        "h"
      ],
      [
        "t",
        "le"
      ],
      [
        "u",
        "le"
      ],
      [
        "y",
        "p"
      ],
      [
        "or",
        "ative"
      ],
      [
        "at",
        "tan"
      ],
      [
        "it",
        "tle"
      ],
      [
        "Ġg",
        "u"
      ],
      [
        "Ġth",
        "ere"
      ],
      [
        "Ġr",
        "attan"
      ],
      [
        "ĠA",
        "s"
      ],
      [
        "Ġmin",
        "eral"
      ],
      [
        "Ġbaker",
        "s"
      ],
      [
        "Ġmo",
        "de"
      ],
      [
        "Ġexp",
        "lo"
      ],
      [
        "Ġcons",
        "ult"
      ],
      [
        "Ġlam",
        "e"
      ],
      [
        "Ġbas",
        "k"
      ],
      [
        "Ġwee",
        "ks"
      ],
      [
        "Ġfeel",
        "s"
      ],
      [
        "Ġdec",
        "orative"
      ],
      [
        "Ġsched",
        "ule"
      ],
      [
        "gg",
        "ish"
      ],
      [
        "ah",
        "m"
      ],
      [
        "Ġexplo",
        "sive"
      ],
      [
        "z",
        "zy"
      ],
      [
        "Ġw",
        "as"
      ],
      [
        "nd",
        "er"
      ],
      [
        "Ġg",
        "ood"
      ],
      [
        "Ġth",
        "ir"
      ],
      [
        "Ġout",
        "side"
      ],
      [
        "Ġscore",
        "s"
      ],
      [
        "Ġcomb",
        "o"
      ],
      [
        "Ġdra",
        "ft"
      ],
      [
        "ĠUn",
        "like"
      ],
      [
        "2",
        "3"
      ],
      [
        "a",
        "tic"
      ],
      [
        "g",
        "ar"
      ],
      [
        "Ġb",
        "al"
      ],
      [
        "Ġw",
        "rap"
      ],
      [
        "ra",
        "ted"
      ],
      [
        "ul",
        "es"
      ],
      [
        "ul",
        "tip"
      ],
      [
        "ch",
        "n"
      ],
      [
        "Ġbe",
        "g"
      ],
      [
        "ĠC",
        "on"
      ],
      [
        "Ġpre",
        "ser"
      ],
      [
        "Ġsc",
        "ale"
      ],
      [
        "Ġbot",
        "h"
      ],
      [
        "ine",
        "gar"
      ],
      [
        "Ġam",
        "yl"
      ],
      [
        "ĠDi",
        "astatic"
      ],
      [
        "Ġda",
        "mp"
      ],
      [
        "Ġman",
        "age"
      ],
      [
        "Ġfu",
        "zzy"
      ],
      [
        "ultip",
        "ly"
      ],
      [
        "Ġamyl",
        "ase"
      ],
      [
        "a",
        "mp"
      ],
      [
        "d",
        "ay"
      ],
      [
        "h",
        "ol"
      ],
      [
        "o",
        "h"
      ],
      [
        "on",
        "y"
      ],
      [
        "Ġp",
        "ut"
      ],
      [
        "Ġm",
        "eth"
      ],
      [
        "Ġm",
        "ultiply"
      ],
      [
        "Ġthe",
        "ir"
      ],
      [
        "Ġl",
        "ittle"
      ],
      [
        "Ġ1",
        "1"
      ],
      [
        "Ġbe",
        "er"
      ],
      [
        "Ġcrust",
        "s"
      ],
      [
        "Ġv",
        "is"
      ],
      [
        "all",
        "eng"
      ],
      [
        "Ġcrumb",
        "s"
      ],
      [
        "Ġal",
        "co"
      ],
      [
        "Ġbl",
        "ack"
      ],
      [
        "ĠK",
        "ahm"
      ],
      [
        "Ġbatard",
        "s"
      ],
      [
        "Ġtin",
        "y"
      ],
      [
        "Ġcook",
        "ie"
      ],
      [
        "Ġtrans",
        "fer"
      ],
      [
        "Ġcol",
        "ony"
      ],
      [
        "Ġmeth",
        "od"
      ],
      [
        "alleng",
        "er"
      ],
      [
        "Ġalco",
        "hol"
      ],
      [
        "b",
        "e"
      ],
      [
        "b",
        "ak"
      ],
      [
        "g",
        "y"
      ],
      [
        "l",
        "osed"
      ],
      [
        "t",
        "ched"
      ],
      [
        "en",
        "ces"
      ],
      [
        "Ġt",
        "yp"
      ],
      [
        "er",
        "o"
      ],
      [
        "Ġf",
        "ly"
      ],
      [
        "xt",
        "ure"
      ],
      [
        "Ġh",
        "arm"
      ],
      [
        "Ġdough",
        "s"
      ],
      [
        "Ġy",
        "ears"
      ],
      [
        "Ġte",
        "xture"
      ],
      [
        "ĠD",
        "ist"
      ],
      [
        "ĠF",
        "old"
      ],
      [
        "Ġcon",
        "ven"
      ],
      [
        "ĠC",
        "old"
      ],
      [
        "ri",
        "er"
      ],
      [
        "Ġweight",
        "s"
      ],
      [
        "Ġstre",
        "tched"
      ],
      [
        "Ġtrap",
        "s"
      ],
      [
        "inn",
        "ers"
      ],
      [
        "ĠO",
        "n"
      ],
      [
        "ĠO",
        "ver"
      ],
      [
        "Ġslic",
        "ed"
      ],
      [
        "Ġcook",
        "ers"
      ],
      [
        "Ġz",
        "ero"
      ],
      [
        "rib",
        "ute"
      ],
      [
        "Ġaccel",
        "erate"
      ],
      [
        "Ġvent",
        "ing"
      ],
      [
        "Ġenc",
        "losed"
      ],
      [
        "Ġbar",
        "rier"
      ],
      [
        "Ġtu",
        "cking"
      ],
      [
        "chn",
        "iqu"
      ],
      [
        "bak",
        "ed"
      ],
      [
        "Ġtyp",
        "ically"
      ],
      [
        "Ġfly",
        "ing"
      ],
      [
        "ĠDist",
        "ribute"
      ],
      [
        "Ġconven",
        "tional"
      ],
      [
        "b",
        "l"
      ],
      [
        "c",
        "tions"
      ],
      [
        "v",
        "ed"
      ],
      [
        "Ġ",
        "G"
      ],
      [
        "Ġ",
        "old"
      ],
      [
        "Ġa",
        "par"
      ],
      [
        "is",
        "ters"
      ],
      [
        "Ġw",
        "on"
      ],
      [
        "ter",
        "ns"
      ],
      [
        "Ġr",
        "ight"
      ],
      [
        "Ġr",
        "ich"
      ],
      [
        "Ġsl",
        "ice"
      ],
      [
        "ce",
        "p"
      ],
      [
        "Ġrec",
        "tan"
      ],
      [
        "ĠL",
        "am"
      ],
      [
        "Ġcl",
        "ay"
      ],
      [
        "Ġprevent",
        "ing"
      ],
      [
        "ial",
        "iz"
      ],
      [
        "Ġfil",
        "ter"
      ],
      [
        "ĠCh",
        "allenger"
      ],
      [
        "Ġpat",
        "terns"
      ],
      [
        "Ġevapor",
        "ate"
      ],
      [
        "Ġrel",
        "ax"
      ],
      [
        "hydra",
        "tion"
      ],
      [
        "Ġspec",
        "ializ"
      ],
      [
        "Ġextensi",
        "ble"
      ],
      [
        "Ġbask",
        "et"
      ],
      [
        "Ġthir",
        "ds"
      ],
      [
        "Ġapar",
        "t"
      ],
      [
        "Ġrectan",
        "gular"
      ],
      [
        "a",
        "z"
      ],
      [
        "m",
        "e"
      ],
      [
        "m",
        "allow"
      ],
      [
        "o",
        "ak"
      ],
      [
        "p",
        "l"
      ],
      [
        "ta",
        "te"
      ],
      [
        "Ġw",
        "ire"
      ],
      [
        "or",
        "ten"
      ],
      [
        "Ġm",
        "ar"
      ],
      [
        "Ġl",
        "ast"
      ],
      [
        "ak",
        "er"
      ],
      [
        "Ġg",
        "ent"
      ],
      [
        "Ġg",
        "um"
      ],
      [
        "Ġor",
        "ange"
      ],
      [
        "ĠW",
        "W"
      ],
      [
        "Ġferm",
        "enta"
      ],
      [
        "Ġcon",
        "vection"
      ],
      [
        "ĠS",
        "oak"
      ],
      [
        "ĠB",
        "aker"
      ],
      [
        "Ġmix",
        "ers"
      ],
      [
        "sh",
        "mallow"
      ],
      [
        "Ġdry",
        "ing"
      ],
      [
        "ĠHand",
        "le"
      ],
      [
        "Ġdel",
        "ay"
      ],
      [
        "Ġtight",
        "ly"
      ],
      [
        "Ġsourd",
        "oh"
      ],
      [
        "Ġwee",
        "k"
      ],
      [
        "Ġmass",
        "ive"
      ],
      [
        "ĠChlor",
        "amine"
      ],
      [
        "Ġelim",
        "inate"
      ],
      [
        "Ġoverr",
        "ide"
      ],
      [
        "irt",
        "ually"
      ],
      [
        "23",
        "0"
      ],
      [
        "Ġmar",
        "shmallow"
      ],
      [
        "Ġmarshmallow",
        "y"
      ],
      [
        "b",
        "es"
      ],
      [
        "b",
        "oard"
      ],
      [
        "i",
        "ature"
      ],
      [
        "Ġ",
        "x"
      ],
      [
        "Ġ",
        "own"
      ],
      [
        "Ġ",
        "esp"
      ],
      [
        "in",
        "less"
      ],
      [
        "Ġs",
        "ound"
      ],
      [
        "Ġd",
        "ust"
      ],
      [
        "Ġto",
        "wards"
      ],
      [
        "Ġp",
        "ri"
      ],
      [
        "Ġp",
        "ockets"
      ],
      [
        "ow",
        "er"
      ],
      [
        "Ġsta",
        "le"
      ],
      [
        "Ġsta",
        "inless"
      ],
      [
        "ru",
        "mb"
      ],
      [
        "Ġr",
        "ole"
      ],
      [
        "Ġte",
        "nder"
      ],
      [
        "Ġte",
        "chniqu"
      ],
      [
        "ĠC",
        "rumb"
      ],
      [
        "ĠB",
        "reak"
      ],
      [
        "Ġro",
        "tate"
      ],
      [
        "Ġmin",
        "iature"
      ],
      [
        "Ġde",
        "ta"
      ],
      [
        "ĠIn",
        "vert"
      ],
      [
        "Ġcup",
        "board"
      ],
      [
        "Ġset",
        "ting"
      ],
      [
        "Ġcalcul",
        "ated"
      ],
      [
        "Ġenzym",
        "atic"
      ],
      [
        "Ġsafe",
        "ly"
      ],
      [
        "Ġthin",
        "ly"
      ],
      [
        "Ġmicro",
        "bes"
      ],
      [
        "Ġevapor",
        "ating"
      ],
      [
        "Ġens",
        "ures"
      ],
      [
        "Ġkne",
        "ading"
      ],
      [
        "ĠSl",
        "ide"
      ],
      [
        "ĠSp",
        "read"
      ],
      [
        "Ġbal",
        "ance"
      ],
      [
        "Ġbeg",
        "inner"
      ],
      [
        "ĠOn",
        "ce"
      ],
      [
        "bl",
        "isters"
      ],
      [
        "Ġsound",
        "s"
      ],
      [
        "f",
        "ts"
      ],
      [
        "i",
        "te"
      ],
      [
        "i",
        "ving"
      ],
      [
        "m",
        "all"
      ],
      [
        "u",
        "e"
      ],
      [
        "x",
        "im"
      ],
      [
        "Ġs",
        "amp"
      ],
      [
        "Ġt",
        "rip"
      ],
      [
        "er",
        "gy"
      ],
      [
        "Ġb",
        "oo"
      ],
      [
        "Ġc",
        "ir"
      ],
      [
        "Ġc",
        "akes"
      ],
      [
        "Ġp",
        "ast"
      ],
      [
        "Ġ1",
        "8"
      ],
      [
        "Ġferm",
        "ented"
      ],
      [
        "Ġco",
        "ver"
      ],
      [
        "Ġgl",
        "oss"
      ],
      [
        "Ġst",
        "ring"
      ],
      [
        "ĠS",
        "mall"
      ],
      [
        "um",
        "ed"
      ],
      [
        "ain",
        "s"
      ],
      [
        "ip",
        "per"
      ],
      [
        "Ġv",
        "ery"
      ],
      [
        "Ġv",
        "irtually"
      ],
      [
        "Ġen",
        "ergy"
      ],
      [
        "Ġal",
        "ways"
      ],
      [
        "Ġper",
        "form"
      ],
      [
        "Ġch",
        "ains"
      ],
      [
        "Ġ12",
        "0"
      ],
      [
        "pro",
        "xim"
      ],
      [
        "Ġstretch",
        "ing"
      ],
      [
        "Ġlet",
        "ter"
      ],
      [
        "ĠThe",
        "y"
      ],
      [
        "Ġcons",
        "umed"
      ],
      [
        "Ġshe",
        "ar"
      ],
      [
        "Ġexc",
        "ess"
      ],
      [
        "Ġstrong",
        "ly"
      ],
      [
        "Ġimp",
        "ossible"
      ],
      [
        "Ġz",
        "ipper"
      ],
      [
        "rib",
        "utes"
      ],
      [
        "Ġdist",
        "ributes"
      ],
      [
        "Ġconduc",
        "ts"
      ],
      [
        "Ġap",
        "proxim"
      ],
      [
        "mend",
        "ous"
      ],
      [
        "Ġser",
        "rated"
      ],
      [
        "Ġtre",
        "mendous"
      ],
      [
        "Ġvis",
        "ible"
      ],
      [
        "ĠLam",
        "ination"
      ],
      [
        "Ġsamp",
        "les"
      ],
      [
        "Ġcir",
        "cul"
      ],
      [
        "Ġpast",
        "ries"
      ],
      [
        "Ġgloss",
        "y"
      ],
      [
        "Ġstring",
        "y"
      ],
      [
        "Ġapproxim",
        "ately"
      ],
      [
        "d",
        "eg"
      ],
      [
        "f",
        "ree"
      ],
      [
        "i",
        "ally"
      ],
      [
        "t",
        "led"
      ],
      [
        "en",
        "ess"
      ],
      [
        "Ġm",
        "ot"
      ],
      [
        "an",
        "iti"
      ],
      [
        "Ġg",
        "en"
      ],
      [
        "Ġre",
        "produc"
      ],
      [
        "to",
        "p"
      ],
      [
        "to",
        "tal"
      ],
      [
        "Ġlo",
        "ose"
      ],
      [
        "ev",
        "en"
      ],
      [
        "Ġun",
        "co"
      ],
      [
        "Ġun",
        "even"
      ],
      [
        "erat",
        "ing"
      ],
      [
        "Ġdi",
        "astatic"
      ],
      [
        "Ġbot",
        "tled"
      ],
      [
        "Ġde",
        "ter"
      ],
      [
        "ĠR",
        "est"
      ],
      [
        "iz",
        "es"
      ],
      [
        "Ġeas",
        "y"
      ],
      [
        "Ġcomple",
        "x"
      ],
      [
        "ĠPre",
        "fermented"
      ],
      [
        "ec",
        "ially"
      ],
      [
        "Ġrim",
        "med"
      ],
      [
        "Ġhealth",
        "y"
      ],
      [
        "ĠBeg",
        "inners"
      ],
      [
        "mal",
        "ted"
      ],
      [
        "Ġcut",
        "ting"
      ],
      [
        "Ġdissol",
        "ve"
      ],
      [
        "Ġcont",
        "rol"
      ],
      [
        "Ġaccel",
        "erating"
      ],
      [
        "Ġfail",
        "ing"
      ],
      [
        "Ġsit",
        "ting"
      ],
      [
        "Ġthor",
        "oughly"
      ],
      [
        "Ġindic",
        "ates"
      ],
      [
        "ĠExtend",
        "ed"
      ],
      [
        "Ġinhibit",
        "s"
      ],
      [
        "Ġdon",
        "eness"
      ],
      [
        "Ġbrew",
        "ing"
      ],
      [
        "Ġcontinu",
        "es"
      ],
      [
        "Ġmanage",
        "able"
      ],
      [
        "Ġspecializ",
        "ed"
      ],
      [
        "Ġfermenta",
        "ble"
      ],
      [
        "Ġesp",
        "ecially"
      ],
      [
        "Ġboo",
        "sting"
      ],
      [
        "deg",
        "ree"
      ],
      [
        "Ġmot",
        "or"
      ],
      [
        "Ġreproduc",
        "tion"
      ],
      [
        "Ġloose",
        "ly"
      ],
      [
        "Ġunco",
        "vered"
      ],
      [
        "1",
        "8"
      ],
      [
        "3",
        "8"
      ],
      [
        "c",
        "ed"
      ],
      [
        "i",
        "mple"
      ],
      [
        "r",
        "re"
      ],
      [
        "Ġs",
        "imple"
      ],
      [
        "er",
        "ation"
      ],
      [
        "Ġf",
        "ra"
      ],
      [
        "Ġp",
        "ot"
      ],
      [
        "Ġm",
        "atch"
      ],
      [
        "ed",
        "uc"
      ],
      [
        "Ġh",
        "inder"
      ],
      [
        "as",
        "h"
      ],
      [
        "Ġsh",
        "ine"
      ],
      [
        "Ġsh",
        "orten"
      ],
      [
        "Ġte",
        "eth"
      ],
      [
        "Ġgl",
        "ide"
      ],
      [
        "Ġi",
        "rre"
      ],
      [
        "Ġn",
        "e"
      ],
      [
        "ĠC",
        "ool"
      ],
      [
        "Ġun",
        "less"
      ],
      [
        "ĠP",
        "roperly"
      ],
      [
        "Ġex",
        "act"
      ],
      [
        "Ġsl",
        "ash"
      ],
      [
        "Ġdis",
        "pl"
      ],
      [
        "ĠM",
        "ore"
      ],
      [
        "Ġhigh",
        "ly"
      ],
      [
        "ĠR",
        "educ"
      ],
      [
        "Ġpan",
        "s"
      ],
      [
        "ĠL",
        "ight"
      ],
      [
        "ĠAn",
        "cient"
      ],
      [
        "Ġlet",
        "s"
      ],
      [
        "Ġproduc",
        "ed"
      ],
      [
        "Ġlid",
        "s"
      ],
      [
        "Ġequ",
        "als"
      ],
      [
        "ok",
        "ing"
      ],
      [
        "Ġflavor",
        "s"
      ],
      [
        "Ġspread",
        "s"
      ],
      [
        "Ġslack",
        "s"
      ],
      [
        "Ġsmooth",
        "ly"
      ],
      [
        "ĠInc",
        "lusions"
      ],
      [
        "Ġfirm",
        "ly"
      ],
      [
        "Ġsupp",
        "ort"
      ],
      [
        "Ġbond",
        "ing"
      ],
      [
        "Ġstiff",
        "ens"
      ],
      [
        "gi",
        "le"
      ],
      [
        "Ġperson",
        "al"
      ],
      [
        "Ġlevel",
        "s"
      ],
      [
        "Ġfra",
        "gile"
      ],
      [
        "Ġirre",
        "gular"
      ],
      [
        "ĠCool",
        "er"
      ],
      [
        "Ġdispl",
        "ays"
      ],
      [
        "ĠReduc",
        "e"
      ],
      [
        "3",
        "4"
      ],
      [
        "6",
        "4"
      ],
      [
        "m",
        "uc"
      ],
      [
        "m",
        "ature"
      ],
      [
        "n",
        "utrients"
      ],
      [
        "r",
        "of"
      ],
      [
        "s",
        "um"
      ],
      [
        "u",
        "al"
      ],
      [
        "w",
        "are"
      ],
      [
        "in",
        "ct"
      ],
      [
        "Ġs",
        "um"
      ],
      [
        "Ġs",
        "often"
      ],
      [
        "Ġb",
        "ad"
      ],
      [
        "Ġd",
        "utch"
      ],
      [
        "tion",
        "ally"
      ],
      [
        "ic",
        "ta"
      ],
      [
        "il",
        "age"
      ],
      [
        "ĠH",
        "igh"
      ],
      [
        "ĠT",
        "rap"
      ],
      [
        "ĠA",
        "sh"
      ],
      [
        "ĠD",
        "ust"
      ],
      [
        "Ġpro",
        "be"
      ],
      [
        "Ġsp",
        "ot"
      ],
      [
        "Ġgluten",
        "in"
      ],
      [
        "Ġ3",
        "34"
      ],
      [
        "Ġad",
        "just"
      ],
      [
        "Ġ4",
        "64"
      ],
      [
        "im",
        "als"
      ],
      [
        "Ġby",
        "produc"
      ],
      [
        "Ġex",
        "cep"
      ],
      [
        "Ġ5",
        "50"
      ],
      [
        "Ġli",
        "ving"
      ],
      [
        "Ġsl",
        "ides"
      ],
      [
        "Ġv",
        "om"
      ],
      [
        "Ġpre",
        "mature"
      ],
      [
        "ĠIn",
        "ternal"
      ],
      [
        "ĠIn",
        "ser"
      ],
      [
        "Ġacid",
        "ic"
      ],
      [
        "Ġ9",
        "3"
      ],
      [
        "ĠR",
        "ice"
      ],
      [
        "Ġexp",
        "er"
      ],
      [
        "if",
        "ic"
      ],
      [
        "Ġsu",
        "ff"
      ],
      [
        "Ġexc",
        "eed"
      ],
      [
        "ĠO",
        "pen"
      ],
      [
        "Ġtap",
        "ping"
      ],
      [
        "Ġcounter",
        "top"
      ],
      [
        "Ġrest",
        "ing"
      ],
      [
        "Ġdiffer",
        "ent"
      ],
      [
        "Ġfresh",
        "ly"
      ],
      [
        "Ġdec",
        "imals"
      ],
      [
        "us",
        "ually"
      ],
      [
        "Ġdist",
        "inct"
      ],
      [
        "Ġcur",
        "l"
      ],
      [
        "ĠFerment",
        "olyse"
      ],
      [
        "ĠG",
        "ently"
      ],
      [
        "Ġgum",
        "s"
      ],
      [
        "Ġdeta",
        "ch"
      ],
      [
        "muc",
        "ilage"
      ],
      [
        "ĠTrap",
        "ped"
      ],
      [
        "Ġexcep",
        "tionally"
      ],
      [
        "Ġvom",
        "it"
      ],
      [
        "ĠInser",
        "t"
      ],
      [
        "d",
        "or"
      ],
      [
        "d",
        "ery"
      ],
      [
        "p",
        "red"
      ],
      [
        "s",
        "tic"
      ],
      [
        "w",
        "el"
      ],
      [
        "Ġw",
        "aste"
      ],
      [
        "Ġto",
        "wel"
      ],
      [
        "es",
        "ting"
      ],
      [
        "Ġp",
        "leas"
      ],
      [
        "Ġh",
        "us"
      ],
      [
        "Ġo",
        "dor"
      ],
      [
        "ĠW",
        "ork"
      ],
      [
        "Ġth",
        "aw"
      ],
      [
        "Ġ20",
        "0"
      ],
      [
        "Ġun",
        "heated"
      ],
      [
        "Ġun",
        "pred"
      ],
      [
        "Ġpre",
        "lim"
      ],
      [
        "Ġen",
        "v"
      ],
      [
        "ver",
        "ns"
      ],
      [
        "ĠR",
        "esting"
      ],
      [
        "Ġsu",
        "b"
      ],
      [
        "Ġsu",
        "ch"
      ],
      [
        "Ġru",
        "stic"
      ],
      [
        "Ġreac",
        "tion"
      ],
      [
        "Ġabsorb",
        "ing"
      ],
      [
        "ĠFeed",
        "ing"
      ],
      [
        "Ġround",
        "ing"
      ],
      [
        "Ġslic",
        "ing"
      ],
      [
        "Ġph",
        "ase"
      ],
      [
        "Ġfru",
        "ity"
      ],
      [
        "Ġorgan",
        "izes"
      ],
      [
        "Ġmedic",
        "ally"
      ],
      [
        "Ġpow",
        "dery"
      ],
      [
        "Ġble",
        "ach"
      ],
      [
        "Ġfail",
        "s"
      ],
      [
        "Ġres",
        "ult"
      ],
      [
        "Ġelastic",
        "ity"
      ],
      [
        "Ġgo",
        "verns"
      ],
      [
        "Ġchees",
        "e"
      ],
      [
        "Ġstir",
        "red"
      ],
      [
        "Ġgram",
        "s"
      ],
      [
        "Ġtra",
        "ck"
      ],
      [
        "Ġrich",
        "er"
      ],
      [
        "Ġrelax",
        "es"
      ],
      [
        "Ġtrip",
        "les"
      ],
      [
        "Ġcircul",
        "ar"
      ],
      [
        "Ġdeter",
        "g"
      ],
      [
        "icta",
        "bly"
      ],
      [
        "ĠHigh",
        "er"
      ],
      [
        "Ġpleas",
        "antly"
      ],
      [
        "Ġhus",
        "k"
      ],
      [
        "ĠWork",
        "ing"
      ],
      [
        "Ġunpred",
        "ictably"
      ],
      [
        "Ġprelim",
        "inary"
      ],
      [
        "h",
        "ard"
      ],
      [
        "i",
        "ences"
      ],
      [
        "l",
        "er"
      ],
      [
        "m",
        "ary"
      ],
      [
        "r",
        "in"
      ],
      [
        "s",
        "et"
      ],
      [
        "t",
        "re"
      ],
      [
        "en",
        "et"
      ],
      [
        "Ġf",
        "illed"
      ],
      [
        "Ġc",
        "ap"
      ],
      [
        "Ġp",
        "enet"
      ],
      [
        "ra",
        "tion"
      ],
      [
        "Ġ2",
        "8"
      ],
      [
        "Ġy",
        "iel"
      ],
      [
        "ĠS",
        "lu"
      ],
      [
        "ĠS",
        "tre"
      ],
      [
        "Ġ3",
        "6"
      ],
      [
        "av",
        "ing"
      ],
      [
        "Ġk",
        "icks"
      ],
      [
        "all",
        "op"
      ],
      [
        "Ġsc",
        "allop"
      ],
      [
        "Ġ8",
        "2"
      ],
      [
        "Ġus",
        "ually"
      ],
      [
        "sh",
        "ing"
      ],
      [
        "iz",
        "e"
      ],
      [
        "Ġle",
        "aving"
      ],
      [
        "Ġoff",
        "set"
      ],
      [
        "Ġform",
        "ing"
      ],
      [
        "Ġsu",
        "dd"
      ],
      [
        "ron",
        "utrients"
      ],
      [
        "Ġslow",
        "s"
      ],
      [
        "Ġmic",
        "ronutrients"
      ],
      [
        "Ġsour",
        "ness"
      ],
      [
        "Ġconduc",
        "ted"
      ],
      [
        "Ġmild",
        "er"
      ],
      [
        "Ġsuppress",
        "es"
      ],
      [
        "Ġviol",
        "ent"
      ],
      [
        "Ġincorpor",
        "ate"
      ],
      [
        "grad",
        "e"
      ],
      [
        "Ġgent",
        "ler"
      ],
      [
        "Ġpri",
        "mary"
      ],
      [
        "aniti",
        "ze"
      ],
      [
        "Ġuneven",
        "ly"
      ],
      [
        "Ġcontrol",
        "s"
      ],
      [
        "Ġexper",
        "iences"
      ],
      [
        "Ġpenet",
        "rate"
      ],
      [
        "Ġyiel",
        "ding"
      ],
      [
        "ĠSlu",
        "ggish"
      ],
      [
        "ĠStre",
        "tch"
      ],
      [
        "Ġkicks",
        "tar"
      ],
      [
        "Ġscallop",
        "ed"
      ],
      [
        "Ġsudd",
        "en"
      ],
      [
        "g",
        "er"
      ],
      [
        "i",
        "ac"
      ],
      [
        "u",
        "mb"
      ],
      [
        "Ã",
        "Ĺ"
      ],
      [
        "Ġ",
        "ÃĹ"
      ],
      [
        "Ġs",
        "im"
      ],
      [
        "Ġw",
        "alls"
      ],
      [
        "Ġc",
        "el"
      ],
      [
        "Ġp",
        "rof"
      ],
      [
        "ic",
        "s"
      ],
      [
        "Ġo",
        "ptimal"
      ],
      [
        "ul",
        "ate"
      ],
      [
        "Ġsh",
        "ort"
      ],
      [
        "Ġr",
        "oughly"
      ],
      [
        "ur",
        "al"
      ],
      [
        "Ġn",
        "on"
      ],
      [
        "Ġun",
        "fermented"
      ],
      [
        "Ġcan",
        "e"
      ],
      [
        "Ġdi",
        "es"
      ],
      [
        "Ġdi",
        "gi"
      ],
      [
        "Ġpre",
        "heat"
      ],
      [
        "Ġacid",
        "s"
      ],
      [
        "Ġcau",
        "se"
      ],
      [
        "Ġdevelop",
        "ed"
      ],
      [
        "ink",
        "led"
      ],
      [
        "Ġlar",
        "ger"
      ],
      [
        "Ġwr",
        "inkled"
      ],
      [
        "Ġrest",
        "ric"
      ],
      [
        "Ġhelp",
        "s"
      ],
      [
        "Ġstruct",
        "ural"
      ],
      [
        "Ġbas",
        "es"
      ],
      [
        "Ġcomb",
        "ination"
      ],
      [
        "Ġ14",
        "0"
      ],
      [
        "ĠCalcul",
        "ate"
      ],
      [
        "Ġpor",
        "tion"
      ],
      [
        "Ġcult",
        "ures"
      ],
      [
        "Ġbur",
        "ning"
      ],
      [
        "ĠCon",
        "vection"
      ],
      [
        "Ġpreser",
        "ving"
      ],
      [
        "Ġtechniqu",
        "e"
      ],
      [
        "Ġpremature",
        "ly"
      ],
      [
        "Ġsim",
        "ulate"
      ],
      [
        "Ġcel",
        "iac"
      ],
      [
        "Ġdigi",
        "tal"
      ],
      [
        "b",
        "ed"
      ],
      [
        "d",
        "eveloped"
      ],
      [
        "n",
        "ous"
      ],
      [
        "s",
        "ub"
      ],
      [
        "w",
        "age"
      ],
      [
        "Ġs",
        "ide"
      ],
      [
        "Ġa",
        "erate"
      ],
      [
        "er",
        "nous"
      ],
      [
        "Ġd",
        "esired"
      ],
      [
        "es",
        "sion"
      ],
      [
        "ĠW",
        "et"
      ],
      [
        "Ġth",
        "row"
      ],
      [
        "ur",
        "bed"
      ],
      [
        "ĠD",
        "ense"
      ],
      [
        "Ġlo",
        "ok"
      ],
      [
        "ee",
        "ter"
      ],
      [
        "Ġund",
        "ist"
      ],
      [
        "Ġde",
        "f"
      ],
      [
        "Ġ100",
        "0"
      ],
      [
        "Ġse",
        "wage"
      ],
      [
        "Ġproof",
        "ed"
      ],
      [
        "Ġdou",
        "ble"
      ],
      [
        "Ġgre",
        "ater"
      ],
      [
        "Ġshallow",
        "ly"
      ],
      [
        "Ġsw",
        "eeter"
      ],
      [
        "Ġdissol",
        "ved"
      ],
      [
        "Ġens",
        "ure"
      ],
      [
        "Ġkne",
        "ad"
      ],
      [
        "Ġfavor",
        "s"
      ],
      [
        "Ġthor",
        "ough"
      ],
      [
        "Ġchees",
        "y"
      ],
      [
        "Ġcav",
        "ernous"
      ],
      [
        "Ġrun",
        "ning"
      ],
      [
        "Ġbloom",
        "s"
      ],
      [
        "Ġbreak",
        "down"
      ],
      [
        "ici",
        "ently"
      ],
      [
        "Ġtunnel",
        "ing"
      ],
      [
        "ĠCrumb",
        "ly"
      ],
      [
        "Ġsuff",
        "iciently"
      ],
      [
        "Ġprof",
        "ession"
      ],
      [
        "Ġundist",
        "urbed"
      ],
      [
[...]
